00000004
000000E8
FFFFFF9B
FFFFFF71
000001FC
FFFFFFEA
00000000
00000000
000000C9
00000010
000000A3
FFFFFF03
0000004D
00000022
0000000C
0000008E
FFFFFFF0
0000002B
FFFFFF2A
00000094
000000C9
FFFFFFF3
FFFFFFF1
000000EE
000000D3
00000000
00000000
00000000
00000000
00000000
00000000
00000000
FFFFFF7B
00000000
00000000
00000000
00000000
00000000
00000000
00000000
FFFFFFE6
00000000
00000000
00000000
00000000
00000000
00000000
00000000
0000008B
00000000
00000000
00000000
00000000
00000000
00000000
00000000
FFFFFFF2
00000000
00000000
00000000
00000000
00000000
00000000
00000000
00000007
00000000
00000000
00000000
00000000
00000000
00000000
00000000
FFFFFFDF
00000000
00000000
00000000
00000000
00000000
00000000
00000000
00000025
00000000
00000000
00000000
00000000
00000000
00000000
00000000
FFFFFFE2
00000000
00000000
00000000
00000000
00000000
00000000
00000000
000000C9
00000000
00000000
00000000
00000000
00000000
00000000
00000000
FFFFFFC1
00000000
00000000
00000000
00000000
00000000
00000000
00000000
0000003D
00000000
00000000
00000000
00000000
00000000
00000000
00000000
FFFFFF26
00000000
00000000
00000000
00000000
00000000
00000000
00000000
FFFFFF7B
00000000
00000000
00000000
00000000
00000000
00000000
00000000
00000016
00000000
00000000
00000000
00000000
00000000
00000000
00000000
FFFFFFCC
00000000
00000000
00000000
00000000
00000000
00000000
00000000
00000064
00000000
00000000
00000000
00000000
00000000
00000000
00000000
00000077
00000000
00000000
00000000
00000000
00000000
00000000
00000000
FFFFFFF9
00000000
00000000
00000000
00000000
00000000
00000000
00000000
000000A4
00000000
00000000
00000000
00000000
00000000
00000000
00000000
00000066
00000000
00000000
00000000
00000000
00000000
00000000
00000000
FFFFFFFE
00000000
00000000
00000000
00000000
00000000
00000000
00000000
FFFFFF9D
00000000
00000000
00000000
00000000
00000000
00000000
00000000
FFFFFF9D
00000000
00000000
00000000
00000000
00000000
00000000
00000000
00000004
00000000
00000000
00000000
00000000
00000000
00000000
00000000
0000000C
00000000
00000000
00000000
00000000
00000000
00000000
00000000
FFFFFFBD
00000000
00000000
00000000
00000000
00000000
00000000
00000000
FFFFFFD7
00000000
00000000
00000000
00000000
00000000
00000000
00000000
00000070
00000000
00000000
00000000
00000000
00000000
00000000
00000000
FFFFFFC2
00000000
00000000
00000000
00000000
00000000
00000000
00000000
FFFFFFCB
00000000
00000000
00000000
00000000
00000000
00000000
00000000
000000AE
00000000
00000000
00000000
00000000
00000000
00000000
00000000
00000065
00000000
00000000
00000000
00000000
00000000
00000000
00000000
FFFFFFBA
00000000
00000000
00000000
00000000
00000000
00000000
00000000
00000021
00000000
00000000
00000000
00000000
00000000
00000000
00000000
FFFFFFED
00000000
00000000
00000000
00000000
00000000
00000000
00000000
FFFFFF95
00000000
00000000
00000000
00000000
00000000
00000000
00000000
00000057
00000000
00000000
00000000
00000000
00000000
00000000
00000000
00000073
00000000
00000000
00000000
00000000
00000000
00000000
00000000
000000CD
00000000
00000000
00000000
00000000
00000000
00000000
00000000
00000005
00000000
00000000
00000000
00000000
00000000
00000000
00000000
FFFFFFC5
00000000
00000000
00000000
00000000
00000000
00000000
00000000
FFFFFF9D
00000000
00000000
00000000
00000000
00000000
00000000
00000000
FFFFFFF2
00000000
00000000
00000000
00000000
00000000
00000000
00000000
FFFFFFF4
00000000
00000000
00000000
00000000
00000000
00000000
00000000
0000005F
00000000
00000000
00000000
00000000
00000000
00000000
00000000
FFFFFF90
00000000
00000000
00000000
00000000
00000000
00000000
00000000
FFFFFFA4
00000000
00000000
00000000
00000000
00000000
00000000
00000000
00000009
00000000
00000000
00000000
00000000
00000000
00000000
00000000
00000033
00000000
00000000
00000000
00000000
00000000
00000000
00000000
0000006E
00000000
00000000
00000000
00000000
00000000
00000000
00000000
000000B7
00000000
00000000
00000000
00000000
00000000
00000000
00000000
FFFFFF8B
00000000
00000000
00000000
00000000
00000000
00000000
00000000
0000009D
00000000
00000000
00000000
00000000
00000000
00000000
00000000
0000004D
00000000
00000000
00000000
00000000
00000000
00000000
00000000
FFFFFFB6
00000000
00000000
00000000
00000000
00000000
00000000
00000000
0000005A
00000000
00000000
00000000
00000000
00000000
00000000
00000000
0000006E
00000000
00000000
00000000
00000000
00000000
00000000
00000000
000000B0
00000000
00000000
00000000
00000000
00000000
00000000
00000000
FFFFFFDB
00000000
00000000
00000000
00000000
00000000
00000000
00000000
0000000B
00000000
00000000
00000000
00000000
00000000
00000000
00000000
00000002
00000000
00000000
00000000
00000000
00000000
00000000
00000000
FFFFFF4E
00000000
00000000
00000000
00000000
00000000
00000000
00000000
FFFFFFDD
00000000
00000000
00000000
00000000
00000000
00000000
00000000
FFFFFFEF
00000000
00000000
00000000
00000000
00000000
00000000
00000000
0000004C
00000000
00000000
00000000
00000000
00000000
00000000
00000000
FFFFFF4D
00000000
00000000
00000000
00000000
00000000
00000000
00000000
0000003B
00000000
00000000
00000000
00000000
00000000
00000000
00000000
FFFFFFEE
00000000
00000000
00000000
00000000
00000000
00000000
00000000
FFFFFFAB
00000000
00000000
00000000
00000000
00000000
00000000
00000000
FFFFFF8D
00000000
00000000
00000000
00000000
00000000
00000000
00000000
FFFFFF8F
00000000
00000000
00000000
00000000
00000000
00000000
00000000
00000028
00000000
00000000
00000000
00000000
00000000
00000000
00000000
FFFFFF6C
00000000
00000000
00000000
00000000
00000000
00000000
00000000
FFFFFF81
00000000
00000000
00000000
00000000
00000000
00000000
00000000
FFFFFF76
00000000
00000000
00000000
00000000
00000000
00000000
00000000
000000AB
00000000
00000000
00000000
00000000
00000000
00000000
00000000
FFFFFFFC
00000000
00000000
00000000
00000000
00000000
00000000
00000000
FFFFFFF5
00000000
00000000
00000000
00000000
00000000
00000000
00000000
FFFFFFCF
00000000
00000000
00000000
00000000
00000000
00000000
00000000
000000FC
00000000
00000000
00000000
00000000
00000000
00000000
00000000
FFFFFFB9
00000000
00000000
00000000
00000000
00000000
00000000
00000000
0000002E
00000000
00000000
00000000
00000000
00000000
00000000
00000000
00000055
00000000
00000000
00000000
00000000
00000000
00000000
00000000
0000009C
00000000
00000000
00000000
00000000
00000000
00000000
00000000
FFFFFF9A
00000000
00000000
00000000
00000000
00000000
00000000
00000000
00000038
00000000
00000000
00000000
00000000
00000000
00000000
00000000
0000006F
00000000
00000000
00000000
00000000
00000000
00000000
00000000
FFFFFFCF
00000000
00000000
00000000
00000000
00000000
00000000
00000000
000000D3
00000000
00000000
00000000
00000000
00000000
00000000
00000000
0000008E
00000000
00000000
00000000
00000000
00000000
00000000
00000000
FFFFFFE9
00000000
00000000
00000000
00000000
00000000
00000000
00000000
FFFFFFAA
00000000
00000000
00000000
00000000
00000000
00000000
00000000
FFFFFFF7
00000000
00000000
00000000
00000000
00000000
00000000
00000000
00000004
00000000
00000000
00000000
00000000
00000000
00000000
00000000
0000001B
00000000
00000000
00000000
00000000
00000000
00000000
00000000
0000003D
00000000
00000000
00000000
00000000
00000000
00000000
00000000
FFFFFFB3
00000000
00000000
00000000
00000000
00000000
00000000
00000000
FFFFFF70
00000000
00000000
00000000
00000000
00000000
00000000
00000000
FFFFFFD5
00000000
00000000
00000000
00000000
00000000
00000000
00000000
00000003
00000000
00000000
00000000
00000000
00000000
00000000
00000000
FFFFFFCF
00000000
00000000
00000000
00000000
00000000
00000000
00000000
FFFFFFF4
00000000
00000000
00000000
00000000
00000000
00000000
00000000
000000BF
00000000
00000000
00000000
00000000
00000000
00000000
00000000
00000056
00000000
00000000
00000000
00000000
00000000
00000000
00000000
0000001D
00000000
00000000
00000000
00000000
00000000
00000000
00000000
FFFFFFAC
00000000
00000000
00000000
00000000
00000000
00000000
00000000
FFFFFF8E
00000000
00000000
00000000
00000000
00000000
00000000
00000000
FFFFFF77
00000000
00000000
00000000
00000000
00000000
00000000
00000000
000000AE
00000000
00000000
00000000
00000000
00000000
00000000
00000000
FFFFFFD5
00000000
00000000
00000000
00000000
00000000
00000000
00000000
FFFFFFF7
00000000
00000000
00000000
00000000
00000000
00000000
00000000
0000006B
00000000
00000000
00000000
00000000
00000000
00000000
00000000
FFFFFFCA
00000000
00000000
00000000
00000000
00000000
00000000
00000000
00000057
00000000
00000000
00000000
00000000
00000000
00000000
00000000
00000053
00000000
00000000
00000000
00000000
00000000
00000000
00000000
00000051
00000000
00000000
00000000
00000000
00000000
00000000
00000000
FFFFFFEE
00000000
00000000
00000000
00000000
00000000
00000000
00000000
000000C1
00000000
00000000
00000000
00000000
00000000
00000000
00000000
00000066
00000000
00000000
00000000
00000000
00000000
00000000
00000000
000000B4
00000000
00000000
00000000
00000000
00000000
00000000
00000000
0000001C
00000000
00000000
00000000
00000000
00000000
00000000
00000000
00000048
00000000
00000000
00000000
00000000
00000000
00000000
00000000
FFFFFF45
00000000
00000000
00000000
00000000
00000000
00000000
00000000
FFFFFFD1
00000000
00000000
00000000
00000000
00000000
00000000
00000000
0000003B
00000000
00000000
00000000
00000000
00000000
00000000
00000000
000000CE
00000000
00000000
00000000
00000000
00000000
00000000
00000000
0000001E
00000000
00000000
00000000
00000000
00000000
00000000
00000000
00000064
00000000
00000000
00000000
00000000
00000000
00000000
00000000
FFFFFFBB
00000000
00000000
00000000
00000000
00000000
00000000
00000000
0000003A
00000000
00000000
00000000
00000000
00000000
00000000
00000000
FFFFFFB9
00000000
00000000
00000000
00000000
00000000
00000000
00000000
0000004A
00000000
00000000
00000000
00000000
00000000
00000000
00000000
00000075
00000000
00000000
00000000
00000000
00000000
00000000
00000000
00000012
00000000
00000000
00000000
00000000
00000000
00000000
00000000
000000F4
00000000
00000000
00000000
00000000
00000000
00000000
00000000
0000005A
00000000
00000000
00000000
00000000
00000000
00000000
00000000
0000013E
00000000
00000000
00000000
00000000
00000000
00000000
00000000
00000118
00000000
00000000
00000000
00000000
00000000
00000000
00000000
FFFFFFFB
00000000
00000000
00000000
00000000
00000000
00000000
00000000
00000070
00000000
00000000
00000000
00000000
00000000
00000000
00000000
FFFFFF52
00000000
00000000
00000000
00000000
00000000
00000000
00000000
FFFFFF90
00000000
00000000
00000000
00000000
00000000
00000000
00000000
00000060
00000000
00000000
00000000
00000000
00000000
00000000
00000000
FFFFFFEF
00000000
00000000
00000000
00000000
00000000
00000000
00000000
FFFFFFE2
00000000
00000000
00000000
00000000
00000000
00000000
00000000
000000A8
00000000
00000000
00000000
00000000
00000000
00000000
00000000
FFFFFFA0
00000000
00000000
00000000
00000000
00000000
00000000
00000000
FFFFFF25
00000000
00000000
00000000
00000000
00000000
00000000
00000000
00000083
00000000
00000000
00000000
00000000
00000000
00000000
00000000
000000B8
00000000
00000000
00000000
00000000
00000000
00000000
00000000
00000119
00000000
00000000
00000000
00000000
00000000
00000000
00000000
00000135
00000000
00000000
00000000
00000000
00000000
00000000
00000000
000000B9
00000000
00000000
00000000
00000000
00000000
00000000
00000000
000000C5
00000000
00000000
00000000
00000000
00000000
00000000
00000000
FFFFFF5E
00000000
00000000
00000000
00000000
00000000
00000000
00000000
FFFFFFB9
00000000
00000000
00000000
00000000
00000000
00000000
00000000
00000070
00000000
00000000
00000000
00000000
00000000
00000000
00000000
00000009
00000000
00000000
00000000
00000000
00000000
00000000
00000000
FFFFFF82
00000000
00000000
00000000
00000000
00000000
00000000
00000000
FFFFFF8C
00000000
00000000
00000000
00000000
00000000
00000000
00000000
FFFFFF61
00000000
00000000
00000000
00000000
00000000
00000000
00000000
0000002F
00000000
00000000
00000000
00000000
00000000
00000000
00000000
FFFFFF8C
00000000
00000000
00000000
00000000
00000000
00000000
00000000
FFFFFFAC
00000000
00000000
00000000
00000000
00000000
00000000
00000000
FFFFFFED
00000000
00000000
00000000
00000000
00000000
00000000
00000000
FFFFFFBB
00000000
00000000
00000000
00000000
00000000
00000000
00000000
000000A6
00000000
00000000
00000000
00000000
00000000
00000000
00000000
000000FB
00000000
00000000
00000000
00000000
00000000
00000000
00000000
0000009F
00000000
00000000
00000000
00000000
00000000
00000000
00000000
00000105
00000000
00000000
00000000
00000000
00000000
00000000
00000000
000000B1
00000000
00000000
00000000
00000000
00000000
00000000
00000000
0000006C
00000000
00000000
00000000
00000000
00000000
00000000
00000000
FFFFFFDD
00000000
00000000
00000000
00000000
00000000
00000000
00000000
00000003
00000000
00000000
00000000
00000000
00000000
00000000
00000000
0000004B
00000000
00000000
00000000
00000000
00000000
00000000
00000000
000000E0
00000000
00000000
00000000
00000000
00000000
00000000
00000000
0000011E
00000000
00000000
00000000
00000000
00000000
00000000
00000000
000000A9
00000000
00000000
00000000
00000000
00000000
00000000
00000000
000001C8
00000000
00000000
00000000
00000000
00000000
00000000
00000000
00000000
00000000
00000000
00000000
00000000
00000000
00000000
00000000
FFFFFFC5
00000000
00000000
00000000
00000000
00000000
00000000
00000000
00000129
00000000
00000000
00000000
00000000
00000000
00000000
00000000
00000033
00000000
00000000
00000000
00000000
00000000
00000000
00000000
FFFFFF1C
00000000
00000000
00000000
00000000
00000000
00000000
00000000
00000000
00000000
00000000
00000000
00000000
00000000
00000000
00000000
0000004C
00000000
00000000
00000000
00000000
00000000
00000000
00000000
FFFFFFED
00000000
00000000
00000000
00000000
00000000
00000000
00000000
FFFFFF61
00000000
00000000
00000000
00000000
00000000
00000000
00000000
00000093
00000000
00000000
00000000
00000000
00000000
00000000
00000000
00000030
00000000
00000000
00000000
00000000
00000000
00000000
00000000
000000F1
00000000
00000000
00000000
00000000
00000000
00000000
00000000
FFFFFF5C
00000000
00000000
00000000
00000000
00000000
00000000
00000000
FFFFFF50
00000000
00000000
00000000
00000000
00000000
00000000
00000000
FFFFFF74
00000000
00000000
00000000
00000000
00000000
00000000
00000000
0000010B
00000000
00000000
00000000
00000000
00000000
00000000
00000000
FFFFFFA7
00000000
00000000
00000000
00000000
00000000
00000000
00000000
00000096
00000000
00000000
00000000
00000000
00000000
00000000
00000000
FFFFFFF4
00000000
00000000
00000000
00000000
00000000
00000000
00000000
0000001E
00000000
00000000
00000000
00000000
00000000
00000000
00000000
000000C6
00000000
00000000
00000000
00000000
00000000
00000000
00000000
000000F8
00000000
00000000
00000000
00000000
00000000
00000000
00000000
0000006F
00000000
00000000
00000000
00000000
00000000
00000000
00000000
000000F8
00000000
00000000
00000000
00000000
00000000
00000000
00000000
FFFFFF53
00000000
00000000
00000000
00000000
00000000
00000000
00000000
0000005E
00000000
00000000
00000000
00000000
00000000
00000000
00000000
FFFFFF98
00000000
00000000
00000000
00000000
00000000
00000000
00000000
FFFFFFC2
00000000
00000000
00000000
00000000
00000000
00000000
00000000
FFFFFFC2
00000000
00000000
00000000
00000000
00000000
00000000
00000000
FFFFFF91
00000000
00000000
00000000
00000000
00000000
00000000
00000000
FFFFFF16
00000000
00000000
00000000
00000000
00000000
00000000
00000000
FFFFFF2A
00000000
00000000
00000000
00000000
00000000
00000000
00000000
0000008C
00000000
00000000
00000000
00000000
00000000
00000000
00000000
FFFFFF70
00000000
00000000
00000000
00000000
00000000
00000000
00000000
