03
01
FD
FF
00
FF
00
00
02
FC
FC
00
05
FF
00
00
05
00
FD
01
01
FC
00
00
03
FE
02
03
01
FA
00
00
02
FF
05
01
F9
00
00
00
02
01
FB
FF
FE
02
00
00
05
FB
FB
01
00
00
00
00
05
F9
FD
05
F7
FB
00
00
02
FA
03
04
F3
FE
00
00
00
FD
02
01
FA
FF
00
00
FC
01
FC
02
FD
02
00
00
FD
FF
FD
04
F5
FD
00
00
01
FA
FF
03
F9
01
00
00
01
00
01
01
FE
03
00
00
00
00
06
FD
02
02
00
00
F8
01
FB
FF
F8
05
00
00
FA
02
FF
02
FC
06
00
00
FF
03
03
00
02
01
00
00
00
03
03
04
03
02
00
00
01
01
05
FC
07
FF
00
00
FD
05
01
FF
F9
00
00
00
FB
06
FE
01
FE
03
00
00
FE
05
04
01
03
FF
00
00
00
04
01
FD
04
03
00
00
03
01
00
00
02
FE
00
00
02
FF
FF
01
00
FE
05
FD
01
00
FD
FE
FF
FF
04
FE
00
FE
FC
FD
FF
FF
01
00
FC
00
00
01
FF
00
01
00
00
01
FE
00
FD
03
00
02
02
01
01
00
FF
02
00
FF
02
00
01
01
FF
02
00
03
00
02
FF
02
FE
01
02
FF
FC
03
02
03
FB
FE
03
FA
03
02
01
01
FA
03
03
FF
00
03
01
FE
00
FF
FB
00
03
02
03
00
FF
FF
FC
03
02
02
FE
02
FD
FF
00
00
FD
02
FC
01
FD
FB
00
FE
00
02
FF
00
FA
FE
01
FD
FF
03
01
FF
01
01
FB
FF
03
03
01
FD
00
FF
FD
FF
04
01
01
FC
00
FE
FB
01
FF
FB
03
FF
00
FE
FB
01
FF
FD
01
03
00
01
F9
01
00
01
FF
FF
04
02
00
FF
00
02
02
01
02
FF
FF
FE
01
04
02
01
04
00
FF
FE
FF
FF
04
01
02
00
FE
01
FF
FC
00
01
03
FF
02
02
FD
FF
FC
00
FE
00
FC
03
FE
01
00
03
00
FE
FD
02
FF
03
01
05
FE
00
FF
02
FF
00
02
01
02
FE
00
FF
FE
FF
03
FF
03
FF
00
00
FE
FF
FE
FF
FC
FC
FE
01
FC
FD
FD
03
FC
FD
FF
00
FF
F8
FF
FE
FD
FD
FF
02
FF
FD
00
FA
FF
FD
FE
01
FD
FF
00
FB
00
00
FC
FF
FE
00
FD
02
01
FD
01
01
FB
FF
FE
02
FF
FD
FF
00
FE
02
03
FF
02
FE
FF
FE
01
03
04
FC
00
02
02
02
04
00
FF
FA
04
02
03
01
FE
00
FC
02
02
FD
00
03
FB
02
FD
04
00
FB
02
02
FB
05
02
01
FF
FD
03
02
03
04
01
FC
FF
01
03
00
04
00
01
FB
FF
02
04
FE
00
03
03
01
FB
FD
01
02
01
02
00
00
FA
FD
02
FE
FE
01
FF
FF
F8
FF
03
FB
02
FF
FE
FE
FB
01
02
FC
04
01
FF
FE
FC
00
00
FD
00
00
02
FF
02
FF
FF
FF
FF
02
04
01
02
04
FE
FF
01
04
03
01
03
04
03
01
FF
03
02
00
00
00
04
01
FE
FC
00
00
00
FD
02
02
FE
02
01
02
01
02
FF
FE
02
03
02
FF
00
03
FE
FE
02
FF
01
FC
03
01
FF
FE
00
FF
FF
FF
FF
FC
FF
FD
FF
FE
02
00
01
01
FC
05
FF
01
01
01
FF
03
FB
FC
03
FD
00
FB
FF
05
FB
00
01
F6
FC
FF
01
01
FC
FB
FC
FC
00
01
00
F7
FD
FD
00
00
FF
02
03
02
FF
04
FD
FB
00
00
FE
03
FB
FC
04
FB
FF
00
FE
04
FE
00
02
FB
FA
00
01
FD
FE
01
F9
FC
FE
01
FF
FB
01
FD
00
FD
FC
01
FD
FF
FE
FF
FD
FF
00
01
FF
03
00
FE
04
00
01
01
FD
01
03
FD
04
FF
FD
FF
FC
FE
01
01
FD
FE
FC
01
FA
FD
01
FF
01
F9
F9
FF
FB
FE
FD
FE
FF
FF
02
00
00
FE
01
FF
00
02
01
FF
00
01
01
00
01
02
02
FD
FF
03
01
00
FF
03
00
01
00
01
00
00
00
02
FE
03
FE
01
03
00
FF
01
00
00
01
FE
FD
01
00
03
02
01
FF
02
FE
00
02
04
00
01
01
02
00
00
00
02
FE
00
01
00
01
FF
FE
00
00
03
00
FD
02
FF
FE
01
FF
FF
00
FF
FC
00
00
00
01
FF
01
02
FC
00
00
FF
FF
FE
01
00
FC
01
00
FD
00
FF
02
FD
FD
FF
FB
FE
00
02
00
FB
FC
00
FD
FE
FD
FE
00
02
FD
FF
00
FD
00
FE
02
03
FC
02
03
FB
01
FF
03
00
FC
01
FF
FC
01
03
03
FF
FE
FF
FD
FE
00
03
03
FD
FE
01
FB
FC
FD
FF
03
02
FD
03
FF
FF
FF
00
01
01
FD
02
01
FD
01
03
03
00
00
01
00
FF
01
01
01
00
02
01
FF
FD
FF
FF
FF
FF
01
01
FE
FF
01
02
01
03
FB
01
01
02
05
00
00
01
FD
00
04
00
06
FF
00
FF
FF
FD
03
FD
02
FB
00
FF
03
01
03
FD
00
FE
FF
01
01
01
01
03
02
00
FF
00
FE
FE
00
00
03
FC
FE
FE
FE
FB
02
FD
00
FA
FF
FD
01
F9
01
FE
01
FD
FE
02
00
FD
01
00
02
FE
FE
03
02
01
FD
FD
FD
01
FC
FF
FF
FD
FE
FD
F8
02
FE
FC
02
F8
FF
00
F6
02
FD
FA
03
FA
FD
02
00
FD
00
01
03
FE
03
02
00
FB
FF
01
03
00
FF
00
F9
02
FF
FE
00
FF
FC
00
F3
03
FD
F8
04
FE
FA
02
F0
FE
00
FD
03
FD
F6
01
FA
FB
FC
00
05
00
01
00
FE
FB
FB
FF
02
FF
03
04
01
02
FC
FD
03
02
FE
FF
FC
01
00
F9
02
04
F9
FF
FE
FE
00
FD
FE
00
FB
FE
01
FF
04
02
FD
FF
FF
00
01
FD
03
02
FF
00
FD
00
FE
00
FD
FF
FC
01
FE
02
FF
01
FF
FF
FD
00
01
02
FF
01
00
01
FE
02
01
01
01
01
00
01
FF
FE
FF
FF
00
01
02
FE
00
FF
FD
01
FD
01
FF
FE
FC
02
FD
FF
00
00
FF
00
FE
01
00
FC
01
FF
FF
01
FC
03
01
FD
FF
FE
FF
00
FC
FF
FE
FF
00
00
02
FC
FA
FE
FE
FF
FF
00
01
01
FD
00
FE
00
FE
00
01
FF
FC
FF
01
FE
02
FD
01
01
FE
01
02
FF
02
FF
00
02
FE
02
00
FC
00
00
03
01
00
00
FD
FD
FB
FE
02
FF
00
02
FD
00
FE
00
01
FF
00
02
FF
01
04
00
02
01
FF
01
02
00
02
FF
00
02
03
00
02
00
FF
FF
00
FF
03
00
02
00
FF
01
00
FF
00
01
FF
00
FE
01
FD
01
01
01
FF
00
00
FF
FC
01
01
01
03
01
FF
01
FD
FF
03
FE
02
00
FD
00
FC
FE
00
FC
01
00
00
FF
FC
00
FD
02
02
01
01
02
FF
FE
00
01
FE
FF
01
02
00
01
00
00
FC
FF
FF
01
02
01
00
00
01
FE
FF
02
FF
02
FD
05
01
01
FF
FE
00
FD
00
03
02
00
FF
01
FB
FD
FF
02
01
FE
FF
04
FE
01
FC
02
FF
00
FF
04
02
03
FD
FC
00
00
00
01
03
04
FD
FF
FF
00
00
FE
03
FE
02
00
02
FD
00
FD
02
FD
01
02
02
00
FF
FD
FE
FD
01
04
03
01
FE
FB
FF
FD
02
00
FF
FE
FE
FD
00
FC
03
FA
FF
FF
00
01
01
01
03
00
00
00
00
00
05
03
04
00
01
00
FF
01
05
00
04
01
04
01
FE
00
01
02
04
00
02
FF
FE
FF
FE
00
01
FE
FE
00
FF
01
FC
00
FF
00
FB
00
FE
00
FD
01
00
FE
FD
00
FE
FF
02
01
FE
FF
01
02
00
01
01
03
FC
01
01
02
01
01
FF
03
FB
01
FF
01
FF
01
01
01
FF
FF
FF
FE
00
FC
FE
00
FC
01
FE
FD
FF
FD
FE
FE
FE
FF
00
FE
00
01
00
FC
00
00
00
FC
00
FD
FF
FE
03
FD
FF
02
FF
03
02
01
01
01
FE
FE
FF
01
02
01
01
01
00
FD
FE
01
02
02
04
FF
01
FA
FF
FD
00
01
05
02
03
FD
FF
FC
FF
00
03
FF
FE
03
00
02
01
02
01
FF
FE
FF
FE
03
02
03
02
F9
FE
FB
FF
01
04
03
01
FD
02
FB
00
02
03
02
FE
01
07
01
00
00
02
02
FF
02
01
01
FE
00
FF
01
FC
00
FD
FC
FE
01
FD
FE
FB
01
FC
FB
FF
00
01
01
FE
00
FB
00
FF
00
04
02
01
FE
02
03
00
02
01
02
01
00
03
00
00
00
03
FE
03
01
04
FF
00
00
00
F9
04
02
02
00
FF
02
FE
FC
04
FF
00
02
01
01
FE
00
01
FB
FD
03
FF
01
01
00
00
FF
00
FC
00
01
00
FF
03
FD
FF
FF
00
01
00
00
FF
FE
00
02
01
02
00
02
00
FE
FF
04
01
01
00
00
00
FE
FF
04
00
00
01
02
02
00
00
FE
FF
FB
FF
FD
FF
FE
FE
02
00
FC
FD
FC
02
FF
FD
01
FF
FD
FD
FD
03
FB
FC
03
00
FC
FE
FD
03
FD
FE
00
00
FC
00
FE
03
02
FF
02
00
FC
00
FF
FF
FF
FE
02
FF
FE
FC
FD
FF
00
FF
02
FF
FE
FA
FE
FE
FE
FD
FF
01
FC
FF
FF
FC
FA
FB
00
01
FE
01
FF
FD
FF
FE
02
FF
01
01
FF
FD
FE
FE
00
FF
FF
FE
00
FD
01
01
00
00
FE
FD
FF
FB
03
00
FF
00
FE
FC
00
FB
00
FC
FD
FF
FE
00
00
FF
FD
FF
02
FF
03
FE
FF
FE
01
FE
FF
FF
01
01
FF
FF
01
00
02
FF
01
02
00
FD
02
03
FE
00
00
FF
00
FF
01
FE
FC
FE
00
FF
FD
01
FF
FF
FF
FF
FF
00
FD
01
00
01
00
FF
02
00
FB
00
FF
00
01
FF
01
FF
FF
FF
FE
01
04
00
02
FF
01
01
FE
FF
04
FF
02
00
03
01
02
FF
FE
FF
FE
00
FF
FF
00
FF
FF
00
FE
FF
FE
FE
00
00
02
FF
FD
FE
FD
00
00
02
03
00
FF
FE
FF
00
FF
FE
01
00
FE
00
00
02
00
00
FF
00
FE
00
FE
FE
00
00
02
00
FD
00
FD
00
FF
01
02
FE
FD
00
FE
02
00
02
02
00
00
00
FF
01
00
02
FC
00
FD
01
FE
02
FF
FE
00
01
02
FF
00
00
01
FE
01
FF
00
01
01
00
00
FF
01
FE
01
00
00
01
00
02
FF
00
FE
02
00
FF
01
01
FD
FF
00
01
FF
02
00
FB
00
FF
02
FF
FD
FD
01
FD
02
00
00
FF
FF
FE
01
FD
FE
FF
01
00
01
FD
03
FF
00
00
FF
01
00
00
03
02
FD
01
01
00
01
01
02
02
00
00
FF
03
01
FE
00
FF
00
FF
FD
00
00
FD
00
01
01
00
FF
01
00
FE
FD
03
04
FF
00
01
FF
FF
FF
00
FE
FF
02
FF
00
02
01
FF
02
FF
01
01
02
FD
00
FE
02
FE
00
00
02
FF
FB
FE
05
00
FE
FE
00
01
FA
FF
01
FF
FF
FF
FD
00
FE
FD
FF
FF
01
FF
FE
FE
01
02
02
00
03
00
01
00
00
FE
01
00
02
FD
01
FE
FB
FF
FE
FE
02
FB
01
FD
FC
FF
FD
00
01
FE
00
FC
FD
FC
FF
FE
01
FF
00
FE
FE
03
00
FF
00
00
00
FE
02
02
FE
FE
FE
FC
FE
FE
FE
FE
F8
00
FF
FD
FE
FF
FB
FB
FA
FF
00
00
00
03
FE
FC
FE
00
00
02
00
03
FF
04
01
00
FE
03
00
01
02
06
FE
FF
FD
00
FF
00
05
05
FA
FF
FD
FF
FE
02
02
02
FB
00
FF
FE
FD
02
FE
FF
FE
FF
FF
FF
FF
03
FF
FF
00
FE
FE
FF
01
01
FF
01
FE
FF
FC
00
FD
FE
02
FF
00
FF
FD
FD
FC
FE
00
FF
01
FF
00
FF
FD
00
FF
FF
00
FE
00
00
00
00
FE
FE
01
00
02
00
01
FF
FF
FE
00
FF
00
00
FF
01
00
00
00
FF
FF
01
00
01
01
02
00
00
FC
FE
00
03
02
02
FF
FF
FD
FF
FD
03
FE
FE
02
FE
01
00
03
00
FF
FF
01
FF
03
03
02
02
FE
01
FE
00
02
04
02
01
FE
03
FF
FF
02
03
02
02
01
03
01
00
01
00
02
01
02
FF
00
FE
01
FF
00
FC
00
FD
FE
FF
03
FF
FF
FC
FF
FB
FE
FF
01
02
02
FF
FD
FD
FF
FF
00
03
02
FD
00
03
00
FE
01
01
01
00
03
02
00
00
FF
FF
FC
FF
01
00
FF
00
00
FE
FB
00
02
00
FE
FF
01
FE
FC
02
FF
FD
00
FF
00
00
01
00
FD
FE
00
00
01
01
02
00
00
00
FA
01
00
00
00
FE
00
FE
FE
00
FE
FE
FE
FF
FF
01
00
01
00
FE
FF
01
FF
FD
FE
00
01
FF
FE
FF
02
01
FE
FE
FF
FD
FF
FE
01
02
02
02
01
FA
04
FE
00
00
00
02
01
FE
FF
FE
03
02
FE
03
FF
00
FF
00
01
00
FE
02
FE
00
00
FC
02
FF
FF
FD
00
FE
01
FA
00
FF
FE
01
00
00
01
00
02
01
FD
02
01
00
FE
01
03
01
00
FF
00
00
FF
00
01
03
03
01
FE
FF
01
FA
FF
01
04
02
FC
FA
00
FD
FD
00
FF
FF
01
00
01
FE
00
FF
02
FE
02
FF
00
FE
02
01
02
00
00
00
01
FF
FE
01
02
01
00
01
00
01
00
00
FD
FF
FF
00
00
FD
FF
02
01
02
00
00
04
FD
00
01
01
01
02
00
00
00
00
02
FF
01
00
02
00
03
01
01
FE
01
01
02
00
FF
01
01
FE
FE
FE
03
01
FC
00
FD
01
01
FD
00
FF
01
FF
FF
02
00
FE
00
00
02
00
00
00
01
00
01
FF
01
01
01
00
00
00
00
FF
FF
01
FE
01
00
00
00
00
FE
00
00
00
00
FB
01
FD
FE
02
05
00
01
FF
02
FF
FD
04
01
00
02
FE
01
FC
FF
02
FE
00
FF
FE
00
FD
02
00
FD
01
00
FF
FF
FE
FF
01
01
00
01
00
01
00
FB
03
02
01
00
FE
01
00
FF
04
01
02
FF
FE
00
FF
03
02
02
01
01
FE
FF
FD
01
01
00
01
FF
FF
FE
FE
FE
FF
FF
01
00
FC
FC
FB
00
FF
02
02
00
FD
FE
FD
01
00
00
02
FF
FE
FF
00
01
00
00
FE
01
FF
00
FD
FE
00
01
FC
01
02
00
FD
FD
00
00
02
01
01
02
00
01
FF
00
00
01
FF
00
02
02
00
02
FE
00
00
00
01
01
01
00
FE
00
01
01
01
00
01
FC
01
00
01
FF
FE
01
FE
00
02
01
02
03
00
FF
00
00
00
01
03
01
00
00
01
FF
FF
01
04
01
FF
00
03
01
FF
01
01
FF
00
00
01
00
FF
FF
FF
FE
FE
FF
FF
FF
01
FE
00
FF
FF
01
FE
FF
00
FE
00
FF
00
02
FE
00
FF
FE
02
FF
00
01
FF
00
FF
FF
00
00
00
00
01
02
FF
00
FE
00
FF
01
FF
FF
01
FC
00
FD
FF
00
FB
FF
00
00
FF
01
01
FF
FC
00
01
00
00
FF
FF
00
FD
00
02
00
01
FF
FE
00
01
00
FE
02
FF
FF
00
03
01
00
00
01
FF
FF
00
00
FF
02
00
01
FE
FF
FF
01
FD
01
02
01
00
FE
00
00
FF
FF
FE
00
00
FF
FE
01
02
FF
FE
00
01
01
00
02
01
03
FF
00
00
00
01
01
00
01
00
02
FD
01
00
04
01
FE
00
02
FE
00
FC
02
02
FC
00
FF
00
01
FF
02
03
FE
02
FD
02
01
FF
01
FF
00
01
00
FF
00
02
02
00
00
00
01
FF
01
00
01
02
03
FF
00
FF
01
00
01
02
01
00
00
01
01
00
00
02
00
FC
01
FF
FE
00
FE
FF
00
00
00
FE
FD
FE
02
FE
00
00
01
FE
FE
FF
00
FF
FF
FE
00
01
FF
02
FF
00
01
00
01
03
02
00
FF
02
FE
FE
01
00
01
02
FE
FD
FE
00
00
02
FE
01
FF
FE
FF
01
00
FE
FD
FF
00
FE
FF
01
FF
01
00
FF
00
00
01
00
01
01
02
00
00
00
04
FE
00
02
01
01
00
01
FF
01
01
00
00
01
FF
FE
FF
FF
00
00
FE
FF
00
FE
01
FE
00
01
FF
FE
FF
02
00
FF
00
02
03
03
00
02
02
FF
00
01
01
00
01
00
FF
00
01
00
FF
01
FE
01
01
FE
00
02
00
00
FE
01
02
00
FF
01
01
00
01
00
01
02
01
02
02
FF
01
01
FF
02
FF
00
00
03
01
01
00
00
00
00
00
00
00
00
FF
00
FF
FF
00
00
00
FF
00
FF
00
FF
00
00
00
FF
00
FF
00
FF
FF
00
FF
FF
00
00
00
00
00
FF
00
00
00
FF
FF
00
FF
00
00
00
00
FF
01
00
FF
FF
FF
00
00
00
00
FF
00
00
00
FF
00
FF
00
00
00
00
01
FF
00
FF
00
00
00
FF
00
FF
FF
FF
00
01
FF
00
00
00
00
00
FF
00
00
00
00
FF
00
00
00
00
00
00
00
00
FF
00
01
FF
FF
00
FF
00
00
00
00
00
FF
00
00
FF
FF
00
00
FF
00
00
00
00
00
00
00
00
00
00
00
00
FF
FF
00
00
00
00
00
00
01
00
FF
FF
00
00
FF
00
00
FF
FF
00
00
00
00
FF
FF
FF
00
FF
00
00
01
00
00
00
00
00
FF
00
00
00
00
00
00
FF
FF
00
00
FF
00
00
00
00
00
00
FF
00
00
FF
00
00
FF
FF
01
FF
00
00
FF
01
01
FF
00
00
FF
00
00
FF
00
01
01
00
00
00
00
00
00
00
00
FF
FF
00
00
00
FF
FF
00
00
00
00
00
00
00
00
01
FF
00
00
00
00
FF
00
00
FF
00
00
00
00
00
01
00
01
00
00
00
00
00
00
FF
FF
00
00
00
00
00
00
00
00
FF
00
00
00
00
00
00
00
00
00
01
FF
00
00
00
00
00
01
00
FF
00
00
00
FF
00
00
01
00
FF
FF
00
FF
FF
FF
00
00
00
FF
FF
00
FF
FF
FF
00
00
00
00
00
00
00
00
00
00
00
FF
00
FF
FF
00
00
FF
FF
00
00
00
00
00
00
01
00
FF
00
01
FF
00
FF
FF
00
FF
00
00
FF
00
00
01
00
00
00
00
FF
00
00
FF
00
FF
01
00
FF
FF
FF
00
00
00
FF
FF
FF
00
00
00
01
00
00
FF
00
00
FF
01
FF
FF
FF
00
00
FF
FF
FF
00
00
00
01
01
00
00
FF
03
00
00
00
00
FF
FF
FE
FF
FE
FF
FF
FF
FF
03
00
02
FF
FF
00
FD
00
FF
00
02
FE
02
02
FE
FD
FE
FF
03
FD
00
FF
FF
FD
00
FE
FD
02
01
FF
FD
FE
00
FE
FC
01
00
01
FE
00
01
02
FF
01
FF
FF
FF
02
FD
01
02
FB
FD
FE
02
FE
FE
00
00
FC
FF
FD
FD
FE
00
FE
FC
02
03
FE
00
FE
01
00
FC
FF
FF
01
02
FF
00
01
00
FF
00
01
03
00
00
FF
00
FF
FE
FF
05
00
FF
00
FE
02
00
01
FF
00
00
FF
00
00
FF
00
02
01
02
FE
01
00
01
01
02
01
FE
01
01
02
01
00
01
03
01
00
FF
02
FF
01
FE
FE
01
01
FE
00
01
02
02
FF
00
00
02
FE
00
01
00
00
02
FF
03
01
00
02
FF
01
00
00
01
02
00
FF
FF
00
02
01
FF
02
FF
01
02
00
01
00
01
FF
00
01
FD
01
FF
02
01
01
01
01
FF
FF
FF
00
01
01
01
01
00
00
FE
FF
FE
00
FF
00
00
01
FF
FF
FD
FE
01
FD
01
00
FF
FE
FF
FD
00
FF
FD
00
FF
01
01
03
02
02
FD
FF
01
01
01
03
01
FE
01
00
00
00
00
01
FC
FD
01
01
FE
FD
00
00
FD
FD
01
FF
FE
FD
FD
00
FE
FD
FF
FF
00
00
01
FF
01
01
FF
00
FF
02
01
00
FF
00
03
01
FC
FF
FF
00
01
00
01
01
FE
01
00
00
00
00
FF
00
01
00
00
02
FF
01
00
00
02
FF
FF
01
02
01
01
00
00
02
00
02
FE
02
00
00
01
FE
01
00
01
01
FE
01
01
01
FF
02
01
01
FE
01
03
02
02
05
00
01
00
FF
03
02
01
FF
00
00
FF
FE
02
01
03
00
01
FF
FF
01
01
00
01
01
02
00
00
01
02
01
00
01
02
FF
01
00
01
FF
FF
02
00
FF
FF
00
FF
00
00
FF
FF
FF
00
FF
00
00
00
FF
00
00
00
FF
00
00
00
FF
00
FF
00
00
01
00
00
00
00
00
00
01
FF
FF
FF
00
00
FF
00
00
00
FF
00
00
00
00
FF
FF
00
FF
00
00
00
00
00
01
FF
00
00
FF
FF
FF
00
FF
FF
FF
FF
FF
FF
FF
00
FF
00
00
00
00
00
FF
FF
01
FF
00
FF
00
01
FF
00
00
FF
FF
00
00
00
00
FF
FF
FF
00
00
00
00
00
FF
FF
00
FF
FF
00
FF
00
00
00
FF
00
FF
00
00
FF
00
00
00
00
00
00
00
00
00
FF
00
FF
00
00
FF
FF
FF
FF
00
00
FF
FF
FF
00
FF
FF
FF
FF
00
00
FF
00
FF
FF
FF
FF
FF
00
00
00
00
00
FF
FF
00
00
00
00
FF
00
FF
00
00
00
FF
00
00
00
00
00
FF
FF
00
00
00
00
FF
FF
00
00
00
FF
00
FF
00
FF
FF
FF
FF
00
00
FF
00
00
00
00
FF
00
FF
00
00
00
FF
FF
00
00
00
01
FF
FF
FF
FF
00
01
01
FF
00
00
00
FF
00
00
FF
00
FF
01
FF
FF
FF
00
00
00
00
FF
FF
00
00
FF
00
00
00
FF
00
00
FF
FF
FF
FF
00
00
00
00
FF
00
FF
00
00
FF
00
00
00
00
00
FF
FF
FF
FF
00
01
FF
00
00
01
00
00
00
FF
00
FF
01
00
00
00
FF
00
00
FF
00
00
00
FF
00
FF
00
FF
00
00
FF
00
00
FF
00
FF
01
00
00
00
FF
FF
FF
FF
00
00
00
00
FF
00
00
00
FF
00
00
00
FF
FF
00
00
00
FF
FF
00
FF
00
00
01
00
00
FF
FF
00
00
00
FF
01
FF
FF
00
00
FF
00
00
00
FF
FF
00
00
FF
00
00
00
00
00
00
FF
00
00
00
00
FF
FF
00
00
FF
00
00
00
FF
00
00
00
FF
FF
00
01
FF
00
01
00
00
00
FB
04
00
FF
02
02
01
FF
00
01
FE
01
FE
FF
01
00
02
00
00
00
00
02
01
FF
01
01
FF
02
00
00
02
04
02
FE
FF
02
02
02
00
FF
01
02
01
02
00
FE
00
FF
FF
01
03
01
FE
00
01
00
01
FF
00
FF
FF
02
01
FE
00
01
FF
FF
00
00
01
FF
03
FF
01
FF
03
FF
01
02
00
00
01
FE
02
00
FF
01
00
01
00
FF
01
FF
FF
02
00
00
FF
FF
03
01
00
FF
02
01
01
00
00
FF
FE
FD
04
01
FF
00
00
FF
FE
FF
00
FD
02
FD
01
03
FE
00
00
FF
01
FE
01
FE
02
01
FE
01
FD
01
02
FC
FE
00
01
00
FF
00
00
FC
FF
00
FF
FF
FE
FD
FE
FD
00
FE
FD
00
FF
FE
FE
00
00
00
FF
01
02
01
00
FD
00
00
FD
01
FE
01
01
FC
00
FE
FE
FE
FF
03
01
FF
00
01
FB
FD
FE
00
01
FD
01
01
FE
00
FF
03
01
00
01
01
00
00
01
01
01
01
00
01
01
00
00
00
00
00
00
FF
02
00
00
01
01
00
00
FE
03
00
01
00
01
01
FF
02
00
01
FF
02
03
01
00
00
FF
00
01
FF
02
00
02
00
00
00
FF
FF
FF
02
01
02
00
00
FD
00
FE
04
01
00
01
00
FD
01
00
01
01
03
01
01
FE
00
02
00
00
03
00
00
00
02
00
FE
01
FE
02
FF
00
00
00
FF
03
00
01
00
00
01
00
00
FF
00
01
00
FF
FF
00
00
FE
03
00
00
02
FD
00
01
FF
03
FF
FF
FF
01
01
FD
00
00
02
01
FE
00
01
01
FF
02
FF
00
00
02
01
FF
02
FF
FC
01
02
02
00
FE
00
FE
00
00
03
01
04
FF
FF
00
01
00
FF
01
03
FF
01
00
00
01
00
00
00
00
00
FF
FD
01
00
FF
FE
FE
01
FD
00
FF
00
FF
FE
FC
01
00
02
01
01
FF
01
01
FF
02
01
FF
FF
FF
01
FF
FF
01
00
FF
00
00
FF
FF
FF
01
FE
FF
00
01
00
FE
FF
01
FF
01
02
03
02
00
00
FE
FF
00
00
01
FD
02
02
01
FF
00
01
FF
00
00
02
01
01
FF
02
00
FE
FF
00
00
FF
00
00
00
02
FE
FF
FE
02
FB
00
01
00
FE
FF
FF
00
FF
FF
00
FE
05
01
FF
01
FF
01
FF
FF
01
03
00
00
00
FF
01
FF
FD
02
01
FF
03
FF
01
02
FF
00
FD
05
02
FF
00
FF
00
00
FE
01
FF
00
FE
00
00
FF
FF
FF
00
00
FF
FF
FD
01
FF
FF
FF
FF
00
00
FD
01
01
00
02
00
01
FF
FF
00
01
01
02
00
00
FE
01
03
00
FF
FE
FF
FE
FF
FC
FE
02
FD
00
02
FF
00
FA
00
01
FF
00
01
00
03
FC
FE
02
FF
01
01
FE
00
FF
FE
FF
FF
01
04
FD
00
00
00
01
FE
00
01
02
02
FE
01
01
00
00
02
01
00
00
00
FF
FF
00
00
00
00
00
FF
FF
00
00
FF
FF
00
01
FE
01
04
00
FF
00
00
00
01
01
FF
00
02
03
02
00
02
01
FF
00
01
02
01
02
01
FF
FF
00
00
00
00
00
FE
FC
01
01
FF
FF
01
02
FD
FD
03
FF
FD
FF
00
01
FF
FF
00
00
02
FF
00
03
FF
00
FF
00
01
02
00
00
02
FF
00
01
00
00
FF
FF
01
00
01
FF
FF
01
00
02
00
FE
01
00
01
02
03
05
FE
FF
FF
00
01
FF
FF
01
00
00
01
00
FF
02
FF
FF
01
FF
01
01
01
FF
03
01
FF
00
FF
00
00
00
02
01
01
01
FE
FF
02
04
03
05
01
00
02
00
FD
FE
FC
FE
FE
FE
03
00
FC
FF
FE
FF
00
FD
00
00
FD
FE
00
FF
FE
01
FD
00
FE
FE
FF
FF
01
01
FE
FF
02
01
FD
00
00
FE
04
FF
FF
00
FF
01
FF
FE
02
FD
00
01
FB
02
02
FF
01
FE
01
FF
FE
02
01
02
FF
00
03
00
00
FF
01
03
FD
03
03
FF
FF
FE
00
FE
02
FE
FF
FE
00
02
00
FE
01
FC
FF
00
FF
02
FF
FF
02
00
01
FF
02
00
00
00
00
FF
03
FF
FF
FF
FF
04
FB
00
00
00
01
FF
00
FF
00
FF
FD
01
00
00
00
FD
00
FC
00
FE
FF
02
00
00
00
FD
00
FF
FF
01
01
FE
FF
FC
01
FE
FF
01
FD
01
FE
FE
00
00
01
03
FE
01
00
02
FD
03
02
FE
01
00
FF
02
FE
00
00
02
FE
FD
FE
FE
00
FF
FF
02
01
FD
FE
02
00
FF
01
FF
02
00
01
01
FF
02
01
02
FF
00
03
01
01
01
01
00
00
01
00
01
FF
00
01
FF
01
FF
00
01
FF
FF
FD
FD
00
01
02
04
00
00
00
00
02
01
03
05
04
01
01
02
02
FF
FF
00
02
FF
00
01
FF
02
00
01
FF
00
01
01
02
01
00
00
00
01
00
00
01
02
00
00
00
01
00
00
01
03
01
01
01
00
FF
00
01
FD
FF
00
03
FF
FF
01
FE
FF
01
01
01
FE
00
02
FC
00
FF
01
FF
00
00
01
00
01
00
01
FE
FF
FF
01
00
03
01
00
FD
00
FF
FF
00
F8
FE
00
00
FD
FD
03
FC
FC
FE
01
01
FE
00
01
FD
FF
FF
01
01
01
01
00
00
FD
FF
01
00
FF
02
FD
FD
FE
02
01
FD
FE
FE
FF
FE
FF
01
00
FF
02
00
00
00
FD
01
00
02
00
01
02
FE
01
01
00
00
02
FF
02
02
FE
01
00
00
01
01
FF
00
FF
04
FF
01
01
03
04
FF
02
00
01
FE
00
FF
02
01
01
FF
00
00
01
FF
02
01
00
01
00
00
01
FF
01
01
02
01
01
FF
01
01
02
01
04
01
00
01
02
03
03
02
01
00
02
FF
02
01
FD
02
02
01
01
00
02
FF
FE
01
01
01
01
01
02
03
FF
01
FE
01
01
FE
02
01
00
02
FF
01
FD
FD
02
00
01
01
01
01
FE
00
00
00
00
FE
FF
00
FF
02
01
FF
00
FE
01
00
FF
00
01
01
02
FF
FF
01
01
FF
00
00
00
01
FE
03
01
00
FF
00
00
00
00
01
FD
00
FD
FC
00
FC
00
02
00
02
FF
FF
FE
FB
04
02
FF
02
00
01
00
FF
00
02
02
00
FF
00
FF
00
FF
02
02
02
FD
00
02
00
FF
FE
FF
FF
FF
FB
03
00
00
00
00
00
FE
FE
00
FE
01
00
00
00
FD
01
00
FE
01
FF
02
FF
00
00
01
01
00
FA
00
FF
FF
FF
00
02
FF
FF
00
FE
00
FD
04
02
FF
01
FF
FE
00
FE
04
03
FD
FF
FF
FF
01
FE
02
00
FF
FD
FC
00
03
00
00
00
00
FE
FC
FE
00
02
FD
FE
03
00
01
FE
02
01
02
02
01
FF
00
00
02
01
02
02
00
01
00
01
00
FF
00
00
FE
FF
00
FF
00
01
01
FF
FF
FE
00
FF
FF
FF
00
01
00
FF
FF
FD
FC
FF
02
FE
FF
00
FF
00
FF
FF
01
FF
FE
00
00
00
FF
FF
00
FF
01
00
00
01
00
FF
00
FF
FF
FF
00
FF
00
00
01
FD
02
FF
00
01
FF
03
00
FC
01
00
FF
00
FE
00
00
FD
01
02
FF
01
FE
FF
01
02
00
02
00
01
01
FF
FF
01
02
FD
00
02
01
00
FC
00
02
FE
00
03
02
04
FF
00
00
FE
FF
03
02
01
00
FE
02
FF
00
01
00
FF
00
00
02
FF
00
00
03
01
FF
02
00
FC
00
02
01
FE
FC
01
FF
FD
00
04
03
02
00
02
00
FD
00
03
01
03
00
02
FF
FF
00
01
00
01
01
00
FF
01
00
01
00
00
FF
01
FC
02
FF
FF
FF
01
FD
01
01
FE
00
00
FC
00
FF
01
02
FD
FC
00
FC
02
01
FF
00
FE
FD
FD
FB
02
01
FE
00
01
FF
FF
FE
01
01
FD
03
00
01
FF
01
00
00
FE
01
FD
00
00
FF
02
FF
00
02
FD
00
FC
01
01
00
FF
FF
FE
FE
FB
00
01
FD
00
00
01
02
FD
00
01
FF
00
02
06
01
02
00
01
FF
FF
01
FD
00
FF
02
01
FC
00
02
00
02
FF
01
02
FF
01
FF
00
03
01
01
00
FE
00
01
00
01
00
02
00
00
02
01
01
FF
01
01
00
FF
00
01
01
00
01
FF
02
01
00
02
01
01
02
01
00
00
00
00
FF
01
01
00
FF
00
00
01
01
01
FE
00
01
00
01
01
01
FF
00
00
FE
00
FF
01
01
FF
01
00
FF
00
02
00
FF
00
02
01
01
FF
00
01
FF
00
FF
00
01
FF
01
01
01
00
FF
FF
00
00
00
00
00
00
FD
FF
FE
02
FE
FF
FF
00
02
01
FF
FD
01
FC
01
00
00
FF
FC
FA
FD
FD
00
FF
FE
FC
FC
FB
FE
FF
02
FF
FD
FD
FC
FE
FE
01
05
FF
00
00
FF
01
00
FF
FF
00
FF
00
00
FD
00
FC
01
01
FD
FE
FD
FA
FE
FE
00
00
FF
FD
FF
FE
FE
FF
02
01
FE
00
FE
FF
FE
03
03
00
01
00
01
01
FF
01
01
00
F9
00
FD
01
01
01
01
00
FC
00
FF
01
00
00
00
00
FF
01
00
01
00
FF
FE
00
02
02
00
01
FF
00
FF
00
01
01
00
01
02
01
01
00
00
01
01
01
01
01
01
00
00
00
00
01
01
00
FF
00
00
01
FE
02
00
00
FE
01
FD
01
FF
01
01
FF
FE
00
FE
FF
00
FF
01
02
FF
00
00
01
01
01
02
02
00
FE
00
00
01
00
01
00
00
FF
02
01
01
00
00
FF
FF
00
FF
01
00
00
00
FE
FF
00
FC
FE
FC
00
00
FE
01
FF
03
02
00
00
02
02
FA
01
04
02
00
FD
04
04
FB
01
FE
00
04
FF
01
02
FD
01
F8
FF
02
00
FF
FF
FD
FC
F8
FA
FC
03
FC
FB
00
FD
03
FF
00
01
FF
00
FE
FE
01
02
01
02
00
03
FD
00
FD
03
05
FE
FF
02
FD
03
FC
02
00
FF
FF
FF
F9
00
F9
01
FD
03
01
FF
01
FE
01
FC
03
00
FE
03
01
FE
00
FF
00
00
FA
02
02
01
00
00
00
FE
FD
00
FC
00
01
01
FF
FF
00
FE
FE
01
FE
03
01
FF
02
01
00
00
00
FC
FF
01
FE
02
00
00
01
FF
01
00
FC
01
00
03
03
03
01
FF
01
00
FF
00
01
02
02
FE
01
FF
01
02
02
02
01
00
01
00
FF
00
01
FE
FE
FF
FF
FF
00
01
FE
00
FD
01
FF
00
01
00
00
00
00
02
FF
FF
02
01
01
01
01
02
00
02
01
04
02
00
01
02
02
01
FE
01
02
02
01
02
03
03
00
FF
00
02
03
FF
04
01
FE
02
FF
01
FF
FB
02
FA
FD
01
01
00
FF
FA
FD
FD
FC
01
00
FB
FE
FB
F9
FF
01
FF
FE
FD
FF
01
FE
00
02
00
FD
FE
FF
01
00
01
02
01
00
00
00
FF
02
00
FD
00
01
02
02
FE
00
FC
FE
00
03
01
04
FD
FD
FD
00
FF
FD
FD
FE
FE
FD
FF
02
FF
FF
FB
FF
00
FE
03
01
01
FE
00
FF
FE
00
00
FF
01
00
02
01
01
00
00
00
01
01
01
01
02
FF
FE
00
01
FF
FF
00
00
00
02
01
00
00
FF
FF
FF
01
01
FF
01
00
00
FD
FF
02
FF
01
00
02
00
00
01
00
01
FF
FF
FF
01
02
03
FE
00
01
00
FE
FF
00
FD
00
00
00
00
02
00
01
FF
00
FF
01
00
01
00
FF
00
FF
02
00
01
FF
FE
FE
00
00
06
00
01
FF
02
02
02
04
00
01
00
00
01
00
01
FF
00
00
00
01
00
00
00
00
01
01
00
00
00
01
00
FF
00
00
00
00
FF
00
FF
FF
FF
FF
FF
00
00
00
00
00
00
00
FF
00
00
00
00
FF
00
00
00
00
00
FF
00
01
00
00
FF
00
00
FF
FF
00
FF
00
FF
00
01
00
00
00
00
01
00
00
FF
FF
00
00
00
01
00
00
00
00
00
00
FF
00
00
01
01
00
00
00
00
00
00
00
00
FF
00
00
00
00
00
FF
00
FF
00
00
FF
00
00
00
00
00
00
FF
00
FF
00
00
01
00
01
00
01
00
00
00
FF
00
00
00
FF
00
00
00
00
FF
00
FF
00
00
00
00
00
FF
00
FF
00
01
00
00
00
00
00
00
00
FF
00
FF
01
00
FF
FF
00
FF
00
00
00
00
01
00
00
00
00
00
00
00
00
FF
00
FF
00
00
00
00
00
00
00
00
01
00
00
01
00
00
00
FF
01
01
FF
00
FF
FF
00
FF
00
01
00
00
FF
FF
00
00
00
FF
01
00
00
FF
00
00
00
00
FF
00
FF
00
FF
00
01
00
FF
00
FF
01
00
FF
01
00
FF
00
FF
01
00
00
00
FF
00
FF
FF
01
FF
00
01
00
FF
00
FF
01
00
00
FF
00
00
00
00
FF
FF
FF
01
00
00
01
00
00
FF
01
00
00
01
00
00
00
00
FF
FF
00
00
00
00
00
00
FF
00
00
FF
FF
FF
00
00
FF
00
00
FF
00
00
00
00
00
FF
FF
00
FF
00
FF
FF
00
00
01
00
00
00
00
00
00
00
FF
01
FF
FF
00
00
01
00
01
00
01
01
FF
FF
00
00
00
00
FF
00
00
00
00
00
00
00
00
00
FF
00
00
00
FF
00
01
00
FF
FF
FF
00
00
00
FF
FF
FF
FF
FF
00
FF
00
00
00
00
00
00
00
00
00
FF
00
00
00
00
00
FF
FF
00
00
FF
FE
04
00
00
01
01
01
FF
FC
00
00
01
FF
FD
FF
00
FE
FE
FF
01
FF
FE
02
02
FF
FD
FF
02
FE
FD
00
02
00
FE
01
03
FE
FE
FF
02
FD
00
00
01
FF
FE
01
01
00
00
FF
00
00
00
03
01
FF
FF
FF
01
01
FE
02
02
00
FC
FE
00
00
FF
01
00
FF
FB
FF
01
01
FF
FE
00
00
FF
00
00
FE
00
00
FF
00
00
FE
FC
FF
00
01
00
FE
00
FF
FF
00
FE
01
FF
00
02
FE
02
00
FF
01
FF
00
01
02
FF
00
00
FF
FF
01
FF
01
01
00
02
00
00
FF
00
FF
FF
00
FE
01
02
FF
01
FF
00
00
FF
00
FF
FE
01
FF
00
FF
FD
FF
01
FE
02
FF
00
00
00
FE
00
01
00
01
01
00
04
FE
00
01
00
00
01
FF
FE
00
00
FF
00
01
03
01
FE
FE
01
00
00
01
01
01
FF
FF
01
FF
01
00
02
01
FF
FF
00
FE
FF
00
02
FF
00
02
FE
00
FF
00
01
01
02
01
00
01
FD
01
01
02
02
00
02
03
FC
00
00
02
01
FF
03
04
FC
00
01
01
00
FE
03
FF
00
01
03
01
02
00
00
00
FF
00
03
02
03
FF
01
01
FD
FF
02
02
03
FF
01
00
00
FF
00
01
01
02
FF
00
02
00
FE
00
FE
02
01
FE
00
01
00
FF
FF
FF
FF
00
00
00
FF
00
FE
00
02
01
FE
00
00
00
FF
00
FF
00
00
FF
FF
FF
FD
01
FF
FE
02
00
FD
FE
FD
02
FF
FF
00
00
FE
00
FF
00
01
00
FE
FF
02
FF
02
FF
00
00
FF
00
01
02
02
01
01
FE
00
00
02
00
00
03
FD
00
01
00
FF
01
00
03
FE
00
00
01
FE
FF
FF
FF
FF
01
00
01
00
FF
00
01
FF
01
FE
01
00
01
FF
01
00
01
FF
00
01
01
FF
01
FF
FF
FF
01
01
FF
00
01
FE
FF
00
00
00
00
00
FF
00
00
00
01
00
00
00
FF
FF
00
00
00
00
FF
00
00
00
FF
01
00
00
00
00
FF
FF
01
00
00
00
FF
00
00
FF
00
00
00
FF
01
00
FF
FF
FF
00
00
00
00
00
FF
00
00
00
00
FF
00
00
00
00
00
00
FF
00
FF
00
01
FF
FF
FF
FF
00
FF
FF
00
FF
FF
00
00
FF
00
FF
00
00
FF
01
FF
00
FF
00
FF
00
FF
FF
FF
00
FF
00
01
FF
FF
00
00
00
00
FF
00
00
FF
FF
FF
00
00
FF
FF
FF
00
FF
00
00
FF
00
01
01
00
00
00
00
FF
00
FF
FF
00
FF
00
FF
FF
FF
FF
FF
FF
FF
00
FF
FF
FF
FE
00
00
FF
FF
00
00
00
00
FF
00
00
00
00
00
FF
FF
00
00
00
00
FF
00
FF
00
00
00
00
00
FF
00
00
FF
FF
00
FF
00
00
00
FF
00
00
FF
00
FF
00
00
00
00
FF
00
00
00
FF
00
FF
00
00
FF
00
FF
FF
00
FF
00
00
00
FF
FF
FF
FF
FF
FF
FF
00
FF
00
00
00
FF
FF
FF
FF
FF
FF
00
00
00
FF
FF
00
00
00
00
00
00
00
FF
00
FF
00
FF
00
00
00
FF
00
FF
00
00
00
00
FF
01
FF
00
01
00
01
00
00
FF
FF
FF
00
00
FF
00
FF
FF
00
00
00
01
FF
00
FF
00
00
FF
00
00
00
00
00
FF
00
FF
00
FF
FF
FF
00
00
FF
00
00
FF
00
00
FF
FF
00
00
00
FF
FF
FF
00
FF
01
FF
00
FF
00
01
00
00
00
00
01
01
01
01
FF
FF
FF
00
00
FF
00
FF
FF
00
FF
00
00
FF
FF
00
FF
00
00
FF
FF
FF
00
00
00
FF
FF
FF
00
00
00
00
00
00
00
00
00
FF
00
00
FF
01
FF
FF
01
FF
FF
00
00
00
00
00
01
FF
00
FF
00
FF
00
00
01
FF
FF
00
FF
00
00
FF
FF
00
00
00
FF
00
00
00
00
00
00
00
FF
FF
00
01
01
00
FF
00
01
00
00
00
00
FF
00
00
FF
00
FF
00
FF
00
00
FF
FF
00
FF
01
00
FF
00
00
FF
01
00
00
01
FF
FF
00
FF
00
00
00
00
00
00
00
FF
FF
00
00
00
01
00
FF
00
00
FF
FF
00
FF
00
FF
00
FF
00
00
FF
FF
00
00
00
00
FF
FF
FF
00
FF
FF
FF
00
FF
FF
FF
00
00
00
00
FF
00
00
00
00
FF
00
00
FF
00
00
FF
00
00
00
00
FF
00
01
00
00
FF
00
00
FF
00
01
00
00
00
FF
00
00
00
00
00
00
00
FF
00
00
00
00
00
00
FF
FF
00
FF
FF
FF
00
00
00
00
00
FF
00
00
FF
FF
FF
01
00
FF
00
00
FF
00
FF
00
00
FF
FF
FF
FF
00
00
00
00
FF
00
FF
FF
FF
FF
00
00
FF
FF
00
00
FF
00
FF
00
00
00
00
00
00
00
01
FF
FF
00
00
00
FF
00
00
FF
00
00
00
00
00
00
00
00
00
FF
00
FF
FF
FF
00
FF
00
00
01
00
FF
00
FF
FF
00
00
00
01
00
00
00
00
FF
00
00
01
00
00
00
FF
00
FF
00
00
FF
01
FF
00
00
01
FF
FF
00
00
FF
FF
00
00
FF
00
00
FF
FF
FF
00
00
FF
01
00
00
00
01
00
FF
FF
FF
FF
01
00
00
00
00
00
00
00
FF
00
00
FF
FF
FF
FF
00
00
00
00
00
00
00
01
FF
00
00
00
00
FF
00
FF
FF
00
00
FF
FF
00
FF
FF
00
00
FF
00
01
00
00
00
FF
00
00
FF
00
00
00
00
00
00
FF
FF
00
FF
FF
01
00
FF
FF
FF
00
FF
00
FF
00
FF
00
00
00
FF
FF
01
00
FF
00
00
00
00
FF
00
00
00
00
00
00
00
FF
FF
00
00
00
00
FF
00
00
00
FF
01
01
00
00
00
FF
FF
01
FF
00
00
00
00
FF
00
00
00
00
FF
00
00
00
01
00
00
00
FF
00
00
00
00
00
00
FF
00
FF
00
00
00
00
00
FF
00
00
00
00
00
00
00
00
00
00
00
00
00
00
00
FF
00
00
00
FF
00
00
00
00
00
00
FF
00
FF
00
00
00
00
00
01
FF
00
00
FF
FF
00
FF
00
FF
FF
01
FF
00
00
01
00
00
00
00
FF
00
00
FF
00
FF
FF
00
00
00
00
00
00
FF
01
FF
FF
FF
00
01
00
00
FF
00
00
00
00
FF
00
00
00
01
00
01
00
FF
00
00
00
00
01
FF
FF
00
FF
00
00
FF
FF
FF
00
00
FF
00
00
01
00
00
00
00
00
FF
00
FF
00
00
00
FF
00
00
FF
FF
00
00
00
00
FF
FF
FF
FF
00
00
FF
00
FF
FF
00
FF
00
00
FF
00
00
00
01
FF
FF
00
00
01
00
01
00
00
FF
00
FF
00
FF
01
00
01
00
00
FF
00
00
00
FF
FF
00
00
00
00
00
00
FF
FF
00
00
00
00
00
00
FF
00
00
00
00
00
00
00
01
FF
01
FF
00
00
00
FF
00
00
00
00
00
FF
00
00
01
FF
00
00
00
00
FF
00
00
00
FF
00
00
FF
FF
00
00
FF
00
00
00
01
01
00
00
01
01
00
00
00
00
00
00
01
00
00
01
FF
FF
00
FF
00
00
00
01
00
00
00
00
00
FF
00
FF
FF
00
FF
00
00
FF
00
FF
00
01
00
FF
00
00
01
00
00
00
FF
00
FF
FF
FF
01
00
01
01
00
00
FF
00
00
00
FF
00
00
FF
00
FF
FF
FF
00
FF
00
00
FF
FF
FF
00
01
00
00
00
00
00
00
FF
00
00
01
FF
00
00
00
00
FF
00
01
01
00
00
00
00
FF
00
00
00
00
00
00
FF
FF
00
00
00
00
FF
01
00
00
00
00
00
00
FF
00
00
00
FF
02
01
00
02
FD
FF
FE
FE
01
FF
FF
00
00
01
03
FD
00
FC
FD
00
02
FE
00
00
00
FC
FF
01
02
FD
02
01
FC
FF
00
01
03
FF
01
02
02
FF
FE
02
00
FE
FB
FF
FF
00
FD
FD
01
FE
FE
FC
FC
FF
00
01
02
FC
02
FF
FF
FD
00
04
FF
FD
00
00
01
FE
FF
01
06
FE
FE
01
02
FC
00
02
02
01
FC
FC
FD
00
00
FE
01
00
FE
FF
FC
00
00
02
02
01
FF
02
FC
FF
FD
02
00
FC
00
02
FE
02
FD
01
01
FD
FD
00
FF
FE
03
FD
01
00
FF
01
FF
FF
01
02
00
FC
00
02
00
FE
FE
02
FF
FE
00
02
FE
FF
01
02
04
FE
02
FF
00
FE
FF
FF
01
FC
01
02
01
00
01
00
01
FF
01
01
FF
FF
FD
02
FF
FE
01
01
00
FE
FD
00
00
FD
FF
FF
FF
FF
FF
00
02
00
02
FE
02
FF
FF
02
00
FF
FF
01
01
03
03
00
FF
01
FC
FF
00
00
FE
FE
FD
FF
FF
FF
00
FC
FC
FF
FA
00
FD
00
00
00
FD
FF
FC
FD
00
02
FF
00
FE
01
FF
FC
FE
01
00
01
02
FF
FF
00
FF
FC
00
FE
00
FF
FF
FF
01
01
00
FD
FE
00
FF
FF
01
02
00
FD
FE
01
FE
00
00
03
00
FF
FF
02
00
00
02
FC
FF
00
FF
00
FE
FF
FC
FF
01
FF
00
01
FE
FF
FC
02
00
02
FD
FE
00
FD
00
02
00
FA
FB
FE
FE
FE
01
FF
00
FB
FE
FF
00
FE
FD
FF
00
FF
FF
FD
00
FE
FF
01
01
FD
FC
FE
00
FC
FE
02
00
FE
FE
FE
FE
FF
FF
FF
FF
FE
FC
FF
FD
FF
00
FF
00
00
FD
FE
FF
FD
FF
01
00
01
01
FF
01
FF
00
01
00
FE
00
00
00
01
00
FF
00
01
01
FF
FF
00
01
FF
01
01
02
03
01
01
01
00
00
01
FF
01
00
FE
00
FD
01
00
FE
FE
00
00
FE
FC
FE
02
FE
FD
01
FE
01
FD
FF
FF
FE
02
00
FF
03
FC
00
00
FF
02
FD
00
01
FD
00
FF
FF
FF
FD
02
FF
FD
FD
00
FF
02
FF
02
00
FD
FE
00
FF
FF
FE
FE
02
FE
01
00
00
01
FE
FF
03
FF
04
FD
01
02
FC
00
04
03
03
00
00
01
FC
FF
FF
FF
01
FE
02
02
FE
02
01
00
03
03
FF
00
FF
FF
02
00
02
02
02
FF
00
FF
02
02
02
FF
00
00
02
01
02
01
01
FF
00
02
FE
01
01
FE
02
00
02
01
01
03
02
FD
02
00
01
FF
03
01
FF
FF
01
02
FF
FF
02
03
02
00
FF
01
00
01
FF
02
04
01
01
00
FF
02
00
FC
00
01
01
01
02
FE
03
01
01
00
02
01
03
00
03
02
FF
01
FD
00
00
01
02
01
00
02
FD
00
FF
FF
01
FF
04
00
00
FF
FF
FF
01
FB
FE
FE
01
00
00
FE
00
00
FF
FD
FF
FF
FF
FF
00
00
00
01
01
FF
FF
FE
00
02
FF
00
00
00
00
FF
FF
01
00
01
00
FF
00
00
FF
01
FE
FD
01
FE
FF
FF
00
01
02
00
00
FE
FF
00
FF
FF
01
01
00
FE
FE
FE
00
FF
02
01
00
FE
00
00
FE
FF
00
03
00
00
01
00
FE
FF
01
00
00
FF
02
01
FE
FF
03
00
01
01
02
03
FF
01
02
00
00
01
01
01
01
02
00
FF
00
01
00
FE
FF
00
02
00
01
01
00
FD
FC
00
01
FF
01
01
04
03
00
01
02
00
FF
03
03
03
01
01
01
FE
00
03
02
FF
01
01
00
01
00
FE
01
FF
01
FE
01
00
FF
FD
FD
FD
FE
FE
01
FE
00
02
03
04
01
02
02
FF
01
01
01
01
01
03
00
02
FF
00
00
00
02
00
00
03
00
FE
FD
00
FE
00
01
01
FF
FC
FD
00
FD
FF
00
00
FF
00
FF
00
00
00
00
FF
FF
01
FF
00
00
00
00
00
FF
00
00
00
00
FF
FF
00
FF
00
FF
00
00
FF
00
00
00
00
00
00
00
00
00
00
FF
00
00
00
00
00
00
00
FF
FF
00
FF
00
00
01
00
00
FF
FF
FF
FF
00
01
FF
FF
FF
FF
00
00
00
FF
FF
00
00
00
00
FF
00
00
00
00
FF
FF
00
00
FF
00
FF
00
00
00
FF
01
00
00
00
01
FF
01
00
00
00
00
00
00
FF
00
FF
FF
FF
00
00
01
00
00
00
00
FF
00
00
FF
00
00
FF
00
00
00
00
00
00
FF
00
00
00
00
FF
FF
FF
00
00
00
00
FF
00
01
FF
00
FF
00
00
00
00
01
00
FF
00
00
FF
FF
00
00
00
00
00
00
00
00
FF
FF
FF
00
FF
00
00
01
FF
00
00
00
FF
00
FF
FF
FF
FF
FF
00
00
00
00
01
00
00
FF
00
00
FF
FF
FF
00
00
FF
00
FF
FF
FF
00
00
00
00
00
00
00
00
00
00
00
00
00
00
00
00
00
00
00
00
00
01
FF
FF
FF
FF
00
FF
00
00
FF
FF
FF
FF
00
FF
00
01
FF
01
00
00
00
FF
FF
00
00
FF
00
00
00
00
00
00
00
00
00
00
FF
00
00
00
FF
00
00
00
FF
00
01
FF
00
00
00
00
00
00
00
FF
00
00
00
00
00
00
00
00
00
00
00
FF
00
00
00
00
00
FF
00
00
FF
00
00
FF
FF
00
00
FF
FF
00
01
00
00
FF
00
00
00
00
00
00
00
00
00
FF
FF
00
FF
00
00
FF
00
01
00
FF
00
00
FF
00
FF
00
01
00
00
00
FF
01
00
00
01
00
00
00
FF
FF
00
00
00
FF
00
00
00
FF
00
FF
00
00
FF
00
00
FF
00
01
00
00
00
00
FF
00
FF
FF
FF
00
FF
00
FF
00
FF
FF
00
FF
FF
00
00
FF
FF
FC
03
FF
00
02
02
00
FF
FD
FE
FF
FF
00
00
00
00
FF
FE
FC
FF
FF
FF
FE
01
00
00
FF
01
00
FE
FE
03
00
FF
01
02
01
01
FF
00
01
01
02
FF
02
FF
00
01
FE
01
01
FF
01
FC
02
01
02
00
00
FF
00
FE
FF
FE
01
00
FF
FF
01
00
00
02
02
FE
00
00
01
FF
FF
01
02
01
FD
03
03
01
03
00
02
01
00
00
01
03
01
01
FF
00
00
FF
00
03
02
00
FF
00
FF
01
01
02
00
01
04
01
FE
01
00
FF
FF
FF
01
00
01
00
02
04
00
FE
FF
00
01
01
FF
00
04
00
FD
FF
00
01
01
FE
01
00
00
02
01
02
01
FE
FF
01
FF
00
00
FF
01
00
01
00
FF
00
FE
00
FF
FD
00
FF
FF
01
03
FD
00
FC
FF
02
FD
00
01
FF
02
FB
01
01
FF
02
01
FF
01
FE
01
00
00
00
03
FF
02
FF
01
FF
FF
00
01
02
00
FF
02
FE
FF
FF
02
01
01
FF
00
FE
00
00
00
FE
FF
00
FE
FC
01
FF
00
FE
FF
01
FE
02
06
00
00
FF
FF
01
00
01
01
01
FF
01
00
FF
01
01
01
01
FD
00
FF
00
00
FF
00
00
FE
FF
FF
01
00
FD
00
01
FD
FF
FF
00
FE
00
02
00
FF
FC
00
FF
01
01
03
00
00
00
FF
02
00
02
02
00
00
02
00
00
03
00
FF
FF
01
01
00
FF
00
FF
01
FF
FF
00
01
01
FF
FE
04
01
FF
00
01
02
FE
02
00
00
02
FF
00
01
01
01
00
01
00
02
FF
FF
02
FF
01
00
FF
01
01
01
FE
FE
00
FF
FF
FE
FF
01
00
01
01
FF
01
01
03
FF
01
01
01
00
00
FF
FE
FF
FE
FF
02
00
FE
FE
FE
00
FE
FF
01
01
FB
FF
FF
FF
00
01
00
00
FE
FF
FF
FE
00
00
01
00
01
01
00
01
00
02
FF
00
FF
FF
01
01
00
FD
FD
FE
FF
FF
01
01
00
FF
FF
FE
FF
FF
00
02
FF
FF
02
FE
02
FE
FF
02
00
02
FF
03
01
FE
FD
00
00
00
FF
FE
FD
00
02
FF
02
FE
02
FE
FE
FF
00
02
00
FE
00
FE
00
FF
01
FD
00
00
01
FF
01
00
FE
01
01
01
FE
01
01
FF
01
01
00
02
01
00
FF
FF
04
FA
00
FF
FF
FE
FD
FF
00
00
FF
FD
00
FF
FF
FF
01
01
FE
FF
00
FE
01
00
FD
02
00
01
FD
FF
01
FF
FF
01
FE
03
FF
01
01
00
04
F7
01
01
01
01
FE
00
01
FF
00
00
01
01
FE
01
00
00
FF
FF
01
FE
FF
FE
FE
01
02
00
03
FE
00
01
FE
00
FF
01
FF
01
03
01
00
FF
00
03
00
01
00
02
01
01
00
00
00
02
FE
01
FD
02
02
F9
01
FF
FE
01
FD
03
02
FC
01
FC
FE
00
FC
03
00
FC
00
FF
03
01
FE
00
01
FD
02
01
FE
FF
FD
FF
FE
00
02
00
FD
FF
01
FE
01
02
02
00
FF
01
01
FF
02
01
00
00
01
02
02
FE
01
FD
01
00
FE
FF
FF
FF
01
FB
00
01
FC
01
FE
FE
FF
00
01
00
FF
FF
FF
FE
00
02
00
01
FE
01
FF
FF
01
03
FF
FF
00
01
01
FE
02
FB
01
01
F9
FE
FB
FF
00
FC
00
00
FD
FC
FF
00
FE
FF
00
01
FF
01
01
00
FE
FF
FF
01
01
FF
00
00
00
01
00
00
FF
01
01
01
00
00
02
01
F9
FF
FD
FF
01
00
01
00
FF
FF
02
00
00
00
FE
01
01
00
01
FF
00
00
00
00
00
01
02
00
00
FF
00
FF
00
00
02
00
00
01
01
FF
FF
00
02
01
02
02
FF
00
00
02
00
00
01
01
FE
00
03
02
02
01
01
00
FE
01
01
02
02
02
FF
FD
FF
00
FE
FF
00
04
FF
04
00
03
00
FE
05
00
00
02
00
FF
00
FF
03
FE
02
03
00
00
00
FE
01
FD
FF
03
01
FF
FF
01
03
02
FE
00
02
FE
01
FF
05
04
FF
01
FE
01
FF
00
01
01
01
01
FD
00
FF
FF
FE
01
FF
01
00
00
FF
FF
FF
00
FF
FC
FF
FE
FE
FF
01
FF
FF
FE
02
FE
FE
00
00
02
00
FF
FE
00
FF
00
FE
02
01
00
FE
FF
00
02
FD
01
01
02
FF
01
FF
01
02
FF
02
FE
01
FE
01
00
00
FE
00
FF
03
FF
01
00
FE
00
02
FF
02
01
01
FF
FF
00
03
00
02
00
01
01
00
FF
02
00
02
00
00
02
03
FF
FE
00
FF
01
00
02
FF
FF
01
00
FF
00
FE
FF
FF
00
02
00
01
01
00
01
00
FE
02
00
01
01
00
01
00
FE
00
00
00
02
00
02
01
01
FF
00
FF
FF
02
01
FF
FF
01
00
FF
01
FE
02
00
FD
01
01
02
00
FF
03
02
FD
01
02
01
01
00
00
FF
FE
01
FF
02
00
FF
FC
FF
FF
FF
FF
02
01
FE
FD
FF
FF
FF
FE
04
01
FF
FF
00
FE
FF
01
FE
00
00
00
01
FE
02
FF
FF
01
01
00
03
00
00
FB
FF
00
02
FF
02
00
FC
FD
00
00
01
FF
00
00
FF
FE
FF
00
01
00
01
02
00
FF
FE
00
03
02
00
01
01
01
FE
FF
00
FF
01
00
01
FE
00
00
FF
01
00
02
01
00
00
FF
02
02
01
03
00
FF
FF
00
01
01
00
02
00
01
00
01
02
01
00
00
02
FF
02
00
FE
FE
FF
00
FF
00
02
00
FF
FF
01
00
00
01
FE
00
00
01
01
00
01
FF
FF
00
02
02
01
01
00
01
00
FF
01
02
FF
01
01
FF
02
00
01
01
02
01
00
00
00
00
00
01
01
02
FE
02
00
00
00
00
00
01
02
FE
FF
FF
00
01
01
FF
01
00
01
02
FE
01
00
01
FF
00
FF
01
FE
FF
FF
01
03
FF
FE
02
FF
00
01
01
00
01
FE
01
FF
01
02
01
00
FF
01
FF
FF
00
00
01
01
FF
FF
FF
00
FF
FF
FF
00
FC
FE
01
01
00
FE
00
00
FF
FE
FF
01
01
02
00
FD
00
01
FF
00
01
02
01
FF
00
FF
02
00
00
FF
01
00
FD
FF
FD
FF
FD
FF
02
FF
FF
FF
FE
00
FF
FF
01
00
01
00
FF
00
01
02
01
FE
FE
01
01
00
00
02
FF
FE
01
01
FF
00
FF
01
01
FE
FF
FD
00
00
02
FE
00
00
00
00
FF
01
01
01
00
FF
00
02
00
FF
00
00
FF
00
FD
01
FF
FE
00
00
01
FE
FF
FF
FF
FE
FE
01
02
FF
01
00
03
01
01
03
FE
01
FF
03
00
01
00
01
01
FE
01
02
00
FD
FF
00
02
FF
FF
FE
00
00
00
FE
03
FF
00
FD
02
00
FF
02
01
FF
00
FF
FF
02
01
01
FF
00
FF
FF
00
01
FF
00
FF
00
01
00
00
FF
FF
FF
FE
FE
FE
01
FF
FF
FF
FF
FD
FF
FE
01
00
00
00
01
FF
FF
00
FE
FF
FF
00
00
01
00
00
FF
00
FE
00
FF
02
00
FF
01
00
00
FF
FF
FF
00
01
01
FF
FD
FF
FE
FF
00
FF
01
01
FE
00
01
02
01
00
FE
01
03
02
00
01
FF
FF
01
01
01
02
01
00
00
FF
01
00
02
00
FF
FE
FF
FF
02
00
FE
FD
FE
FF
FD
00
FF
00
FF
FD
FE
FE
FF
FD
00
00
00
FF
00
FD
00
FF
01
00
FF
FE
00
FE
FE
00
01
01
FE
FF
FF
00
FF
FF
FF
00
FF
FD
FE
FE
FE
01
01
01
FE
FE
FE
FF
FD
FE
00
00
FF
00
00
00
00
00
02
FF
FF
FF
FF
FF
FE
FF
FF
00
00
00
FF
FF
00
01
FE
00
FF
00
00
FF
01
01
01
01
FF
FF
01
FF
FE
FF
01
00
FF
00
00
FF
00
FF
00
FF
00
00
FF
FF
00
FF
00
00
FF
FF
00
01
FF
00
FF
FF
00
FF
00
00
00
00
01
00
FF
00
FF
00
00
00
FF
FF
FF
00
00
00
FF
FF
FF
FF
FF
00
00
00
FF
00
00
01
FF
00
00
FF
FF
FF
FF
00
00
01
00
FF
00
00
FF
00
00
00
01
00
00
FF
FF
00
00
FF
FF
00
FF
01
00
00
00
00
00
FF
00
FF
00
FF
FF
FF
00
00
FF
00
00
FF
00
00
00
00
FF
FF
00
FF
00
00
00
00
FF
FF
01
01
FF
FF
00
00
00
00
01
FF
00
00
FF
FF
FF
FF
00
FF
FF
00
01
00
00
00
00
00
00
FF
FF
01
FF
00
FF
FF
00
FF
FF
FF
FF
01
FF
00
FF
00
00
00
00
FF
FF
00
00
FF
FF
FF
FF
00
00
FF
00
FF
01
FF
00
FF
00
00
00
FF
FF
00
00
00
00
FF
FF
00
FF
00
FF
00
00
01
00
00
FF
00
FF
00
FF
00
00
FF
FF
FF
00
00
00
00
00
00
FF
FF
00
00
FF
00
FF
FF
00
FF
00
01
01
00
00
FF
00
00
00
FF
FF
FF
FF
00
FF
00
00
FF
00
00
00
FF
00
00
FF
FF
00
FF
00
00
00
FF
00
FF
00
00
00
FF
00
00
00
00
01
00
00
00
00
01
00
FF
FF
00
00
00
FF
FF
00
00
00
00
FF
FF
FF
00
FF
00
00
00
FF
FF
00
FF
00
00
FF
01
00
FF
00
00
00
00
00
00
FF
FF
00
FF
FF
FF
FF
00
00
00
00
FF
00
00
00
00
00
FF
FF
FF
00
00
FF
00
FF
00
FF
FF
00
00
FF
FF
00
FF
00
FF
FF
FF
FF
00
00
00
FF
FF
00
FF
00
01
00
00
00
00
00
00
00
01
00
00
FF
FF
00
00
00
00
FF
00
FF
00
00
FF
FF
00
00
FF
FF
00
00
FF
FF
FF
00
00
FF
00
FF
02
00
02
FF
03
02
FF
01
05
FA
00
FE
00
02
00
03
00
FB
FF
FD
FF
02
FE
01
02
FC
02
FD
00
02
FF
FE
03
FD
FF
FC
02
02
03
FE
01
00
00
01
02
01
01
02
00
FE
01
FF
01
00
00
03
FE
FF
FF
FF
01
01
FE
FE
02
FF
02
FE
01
03
FD
00
02
04
00
FE
01
02
FD
FF
01
02
00
01
02
00
01
00
00
01
00
00
FF
02
00
03
FE
01
01
01
02
FF
00
02
02
00
02
FF
04
01
00
01
00
03
01
01
02
02
00
00
01
01
00
00
00
01
01
FD
FF
00
FF
01
FF
01
01
00
FF
FF
FF
02
FF
FC
02
00
01
00
01
00
01
01
04
FE
01
FF
01
00
02
01
00
01
FD
00
FD
00
FC
FD
02
01
FF
FE
FE
01
FB
00
FF
FF
02
FE
FD
01
FC
03
FE
FE
02
00
00
FF
FD
02
FF
00
01
02
01
01
FE
02
00
FC
04
FE
01
04
03
03
00
02
03
FC
00
02
03
02
FE
02
00
FE
00
02
FF
FE
FC
00
FB
02
00
00
FE
FF
FE
FC
FE
04
00
FF
FE
FE
FD
FE
00
00
FF
01
01
02
00
04
00
00
00
FE
00
00
FF
01
02
01
01
FE
FE
FF
01
FF
FE
01
00
FA
FF
FF
01
01
FE
03
00
FE
01
02
02
FD
01
00
FF
FF
00
00
02
00
01
01
FF
00
01
01
01
01
00
FF
00
01
01
01
00
FF
FE
01
00
FF
00
00
03
FF
02
02
00
01
01
01
02
01
00
02
00
01
00
01
03
FF
02
01
FF
02
02
01
02
01
02
FE
FF
02
02
01
01
01
00
01
FF
00
00
00
02
00
00
00
FF
FF
01
01
02
01
FF
FF
00
01
FF
00
FF
FF
FE
FF
FF
00
FF
00
FE
FF
FD
01
01
00
FE
01
FC
FF
FF
02
00
FF
FC
02
FC
00
01
01
00
00
FE
FC
FE
FF
FF
00
01
00
00
00
00
01
FD
02
01
02
FF
00
01
00
FD
00
FF
00
FF
FF
00
02
FE
00
00
FF
00
FE
FF
01
01
00
01
FE
01
00
01
01
FF
01
FF
02
FF
00
01
00
00
01
03
00
02
00
00
00
FE
00
01
FE
01
00
00
01
FE
00
FE
01
01
FD
01
02
02
02
01
FF
00
00
01
01
01
01
00
00
00
01
01
00
00
01
01
00
01
01
03
FF
FF
01
03
01
00
01
01
00
00
02
00
01
03
FF
05
00
01
01
FD
FE
02
02
02
01
01
FF
02
FF
00
02
01
00
FE
FF
01
00
01
00
00
FF
FE
FE
FD
00
00
FE
FE
FF
FF
FF
FE
FF
00
01
FF
FE
02
01
00
FF
FE
02
00
00
FE
FF
FE
FF
01
FD
01
FF
FE
FE
FB
FF
FE
01
FC
FF
02
00
FA
01
FA
04
FC
FC
03
00
FF
01
FA
01
FF
FC
03
FD
02
00
FE
03
01
FF
01
FE
01
FF
01
FF
00
02
FF
FF
01
01
00
01
00
00
00
FD
00
01
00
01
01
01
00
FF
FF
01
02
01
00
02
FE
FE
00
02
01
01
02
00
00
01
01
02
FF
FC
FF
00
01
01
00
FE
FF
FD
00
00
01
FF
FF
FF
00
FD
01
01
00
FF
00
01
01
01
01
00
01
01
00
01
01
FF
02
01
FF
02
FF
00
02
01
00
00
00
01
00
00
FF
00
00
00
01
00
00
00
FF
00
00
00
00
00
00
00
FF
01
00
FF
01
02
00
01
FF
01
FC
00
01
00
FF
FF
01
FF
02
03
01
01
00
01
02
01
01
00
01
00
01
00
00
02
00
FE
00
03
00
FC
FE
FF
01
00
00
03
00
FB
FF
FF
FE
00
FF
FF
01
00
FE
FD
FF
FF
FD
02
01
FE
FE
FB
FC
FE
FB
03
01
FB
FB
FB
FC
FE
FC
02
00
F9
F9
FD
FA
FD
03
01
00
FA
FD
FA
FB
FF
00
00
00
01
00
01
00
00
01
00
00
00
00
00
00
01
00
00
00
00
FF
00
00
00
00
01
00
01
FF
00
00
FF
FF
00
00
FF
FF
FF
FF
FF
FF
FF
00
01
00
00
FF
00
00
01
00
FF
00
00
00
00
00
01
00
FF
01
01
00
00
FF
00
00
00
01
00
00
00
00
00
FF
00
00
00
00
00
00
00
FF
FF
FF
00
01
FF
FF
00
FF
FF
00
FF
00
00
00
FF
00
00
01
00
FF
00
00
00
00
00
01
00
00
00
FF
00
00
00
01
FF
00
FF
00
00
FF
FF
00
FF
00
FF
FF
FE
00
FF
01
00
FF
FF
01
00
FF
FF
00
00
FF
FF
FF
00
00
00
00
FF
01
00
00
01
FF
FF
00
00
FF
FF
FF
FF
00
00
00
00
FF
01
00
00
00
FF
FF
00
FF
00
00
00
00
FF
00
01
00
FF
00
00
FF
FF
FF
FF
FF
00
00
00
FF
00
FF
00
FF
FF
00
00
00
00
00
00
FF
00
FF
FF
00
FF
00
00
00
01
FF
FF
00
00
00
FF
00
00
00
FF
00
00
FF
00
FF
FF
00
00
FF
FF
00
FF
00
00
00
FF
00
00
00
FF
00
00
01
FF
00
FF
FF
FF
00
01
00
FF
00
FF
00
00
00
FF
FF
00
01
FF
FF
FF
FF
FF
00
00
FF
FF
FF
00
FF
00
00
00
00
00
00
FF
00
FF
00
00
00
00
FF
00
FF
00
00
00
FF
00
00
FF
FF
00
00
00
01
FF
00
00
00
00
01
00
00
00
FF
00
00
00
FF
FF
FF
FF
00
FF
00
00
FF
00
00
00
FF
01
FF
00
00
00
00
00
00
00
00
FF
FF
FF
00
00
00
00
00
00
00
00
00
FF
00
FF
FF
FF
FF
FF
00
00
FF
FF
00
00
00
FF
00
00
00
00
00
00
FF
FF
00
FF
00
00
00
00
00
00
01
00
FF
FF
FF
FF
00
00
FF
00
00
00
01
00
01
FF
00
00
01
00
FF
00
01
00
FF
FF
00
00
00
00
00
00
00
01
FF
00
00
00
00
00
FF
00
FF
FF
00
00
00
FF
01
FF
00
FF
01
00
00
00
FF
01
00
00
01
FF
FF
00
00
01
00
FF
00
01
00
00
00
00
FF
00
00
01
FF
FF
00
01
00
00
00
FF
01
00
01
FF
00
00
FF
00
00
FF
00
FF
00
00
00
00
00
00
FF
FF
FF
FF
00
01
00
01
FF
00
FF
00
01
FF
00
00
00
00
00
00
00
00
00
01
00
FF
00
FF
00
00
01
00
00
00
00
01
00
00
FF
00
FF
01
01
00
FF
00
00
00
00
FF
00
00
00
00
00
00
01
00
FF
00
00
00
01
00
00
FF
00
00
FF
00
00
FF
FF
01
00
00
00
00
00
FF
00
FF
00
00
00
00
00
00
01
FF
00
FF
00
00
FF
01
FF
FF
00
00
00
00
00
00
01
01
01
FF
00
00
00
00
00
00
00
00
FF
FF
00
00
FF
00
FF
00
FF
FF
00
00
00
00
00
00
FF
FF
00
00
00
00
00
00
FF
00
00
01
FF
00
00
FF
01
00
00
00
00
00
FF
FF
FF
00
00
00
00
00
FF
00
FF
00
00
FF
00
00
00
01
00
01
00
01
00
01
00
01
FF
FF
00
00
FF
01
00
01
FF
FF
00
00
00
00
01
00
00
FF
FF
00
01
FF
FF
00
00
00
00
00
00
FF
00
FF
00
FF
00
00
FF
00
00
FF
00
00
FF
00
00
01
00
00
FF
00
00
FF
01
FF
FF
00
FF
FF
00
FF
00
00
01
00
00
FF
00
00
00
FF
00
00
00
00
FF
FF
00
FF
FF
00
00
01
FF
01
01
00
00
FF
FF
FF
00
FF
FF
00
FF
FF
00
00
00
FF
00
FF
00
00
01
FF
00
00
FF
00
00
00
FF
FF
FF
FF
00
00
00
FF
FF
00
FF
00
FF
00
FF
00
00
FF
FD
05
FD
FF
00
FD
02
FE
FA
00
FC
FE
FF
FD
01
FF
FE
FF
FD
00
00
FC
01
FE
03
00
FF
03
FF
00
00
00
01
00
02
04
FF
FE
FE
01
FD
FF
FE
FD
FF
FC
02
FE
FE
01
FE
FE
01
FD
01
FE
FF
01
FE
01
00
FF
00
02
01
01
00
02
00
01
01
FE
00
FB
FF
02
FF
FF
01
00
FF
00
00
FF
FE
FF
FF
FF
FE
00
FD
FE
00
FE
01
00
FE
01
FF
FF
00
00
01
01
FD
FF
FE
00
FF
00
01
FF
FF
FD
00
01
01
FE
02
FE
01
01
01
FF
01
01
FB
01
01
01
02
FE
01
01
00
FF
FE
02
01
FF
00
00
01
01
FF
01
00
FF
FE
FF
01
00
FF
02
FF
00
01
FD
04
FF
02
03
01
00
01
02
FF
01
02
03
01
FF
01
01
04
01
FE
02
01
00
01
FC
03
01
01
02
00
FF
FE
FD
05
02
FE
03
01
03
FF
FB
06
FF
FE
FE
FF
01
FE
01
FF
FE
FF
FF
00
FF
FF
00
00
00
FF
00
00
FF
01
01
00
00
02
01
01
01
01
01
00
02
04
FE
00
00
00
FF
FE
01
FD
FF
FF
02
FD
FE
01
00
FE
00
01
01
00
00
00
FF
00
00
01
01
00
03
FF
01
FF
00
FF
01
00
03
FF
00
01
FE
FF
FF
00
00
FE
01
F8
00
00
01
FD
FD
01
FD
FB
00
FF
FF
FE
00
00
FE
01
FE
00
01
01
00
FF
02
00
FF
00
02
01
01
FE
FF
00
01
01
FE
FF
00
00
00
00
01
FF
FE
00
FF
FF
01
FE
02
00
00
00
02
01
FE
02
01
01
01
02
00
00
03
01
FF
00
01
01
01
00
00
02
00
01
00
00
01
03
01
01
02
00
00
00
01
00
02
FF
00
00
01
01
01
00
01
01
FE
00
02
01
00
00
02
02
FE
00
00
01
02
00
02
00
00
00
03
01
03
03
FF
FF
FF
00
00
00
00
FF
00
00
FF
01
00
00
FF
00
00
00
FF
00
01
FF
00
00
00
FF
FF
FF
00
FF
FF
00
00
00
00
00
FF
FF
00
FF
00
FF
00
00
00
00
00
FF
00
00
FF
FF
00
00
00
00
01
00
00
00
00
00
00
FF
00
00
00
00
00
00
00
00
00
00
FF
00
00
00
00
00
00
FF
FF
00
01
FF
00
00
FF
FF
00
00
00
00
FF
00
00
FF
FF
00
01
01
00
01
00
FF
00
FF
00
00
00
00
00
00
FF
FF
FF
00
FF
FF
00
00
FF
00
00
00
00
00
00
FF
00
FF
FF
00
00
FF
01
01
FF
00
00
00
FF
00
00
FF
00
00
00
FF
00
00
00
00
00
00
FF
FF
00
00
01
00
00
FF
01
00
00
01
00
00
00
00
01
00
00
FF
00
00
00
00
01
00
00
00
01
00
00
00
FF
FF
00
FF
00
FF
00
00
FF
01
00
FF
00
FF
FF
00
00
00
00
01
FF
00
01
00
00
00
00
00
00
FF
00
00
00
00
00
01
01
00
00
00
00
01
FF
00
FF
FF
01
00
00
00
01
00
FF
00
FF
01
00
01
FF
00
FF
00
FF
01
00
00
FF
00
FF
00
FF
FF
FF
00
00
FF
00
01
00
00
00
00
00
00
01
00
00
00
00
FF
FF
00
00
00
00
00
00
00
FF
FF
01
00
01
00
00
01
00
00
00
FF
00
01
FF
FF
FF
00
01
00
FF
00
00
00
FF
00
FF
FF
FF
00
FF
00
FF
00
FF
00
00
FF
00
FF
00
00
00
FF
00
01
00
01
00
00
00
FF
00
01
00
00
00
00
00
00
00
00
FF
01
00
00
FF
00
00
00
FF
FF
00
00
00
00
FF
00
00
00
00
00
FF
00
FF
FF
00
00
00
FF
FF
FF
00
00
01
FF
01
00
FF
FF
FF
00
00
00
00
FF
00
00
00
00
00
00
00
01
FF
00
FE
00
00
00
FE
FE
01
03
04
02
00
01
00
01
01
01
03
02
00
00
01
01
01
FE
01
FF
FE
01
FF
00
01
FF
02
01
FF
04
00
02
FF
01
FF
02
00
02
FF
FF
02
02
FF
01
FD
03
01
FF
01
00
01
02
FF
02
02
FF
00
00
00
00
01
01
FD
01
01
01
03
03
02
03
FE
00
00
FF
02
FE
01
01
FD
03
FF
01
01
00
01
01
01
00
FF
FF
01
01
02
01
00
00
FE
FF
01
00
02
00
FF
01
01
01
01
FF
03
FF
FF
04
01
01
FF
00
FC
FF
FD
04
FF
FF
00
FF
FE
00
00
02
FF
FE
FF
FE
00
FE
FF
00
FF
00
00
FD
00
FE
00
01
FE
00
FE
01
02
FF
00
02
00
FF
00
FF
FE
FF
FF
03
00
00
00
FD
FE
FF
00
00
01
FE
01
FD
01
FE
01
FF
00
01
00
FA
00
FD
01
FF
FE
00
FD
FF
00
FE
00
01
FF
00
00
FF
FF
FF
00
FF
FF
01
00
FF
00
01
00
FF
01
FE
FE
00
02
00
00
01
FF
FF
FF
FF
00
00
01
01
FF
00
00
00
01
00
02
02
FF
00
00
00
FF
01
00
FF
FF
01
01
00
01
00
01
FF
01
00
00
00
01
01
01
02
FF
01
00
00
01
02
01
03
01
02
FE
FF
01
02
00
04
00
01
FF
00
01
01
04
01
FF
00
01
FF
02
FF
FF
01
FF
01
FE
00
02
FF
00
00
00
01
FE
00
01
00
03
01
02
01
FE
01
02
01
02
FF
00
00
FE
00
02
01
04
02
FE
FF
FF
FF
02
01
01
01
FF
FF
FF
00
02
01
01
FF
FD
00
01
FF
00
00
01
01
FF
01
FF
00
FF
00
FF
FE
00
FF
FE
FF
00
FF
00
FF
00
FF
FF
FF
00
00
FE
FF
00
FD
00
00
FE
FF
FE
FF
FE
FE
02
00
FF
FD
FF
FE
FE
01
00
01
FF
FF
00
FD
00
03
00
FE
01
FF
01
FF
FF
00
FF
01
FE
03
04
FE
00
01
01
00
FE
00
02
01
FC
FF
01
FE
00
FF
02
05
FC
01
02
FF
FE
FD
02
04
FC
00
02
FE
00
FE
01
01
FF
FE
01
FF
FF
FF
FF
02
FE
FF
02
FE
01
FE
00
02
FE
FD
01
FE
FF
FE
01
04
FC
00
00
FF
FC
FD
00
04
FE
00
00
00
FF
FF
02
FF
01
FE
00
00
FE
FF
FF
01
FF
00
01
00
FF
00
FF
00
FD
FF
FF
00
00
00
01
01
FF
00
FC
01
02
02
FF
01
01
00
00
01
FF
02
00
FE
02
00
00
01
FE
01
00
00
02
01
01
02
FF
03
02
00
01
FF
01
00
FF
00
FF
00
01
FD
03
00
FE
00
FD
01
00
00
02
01
01
02
00
00
01
FF
03
01
FF
02
01
01
FF
FF
03
01
FF
01
00
03
00
FF
02
01
01
FF
FD
03
00
FF
03
00
00
FF
FD
05
FF
01
02
00
02
FE
00
FF
02
FD
04
00
FF
FF
FF
FE
FF
FF
02
FF
FD
FD
00
FE
FD
FE
01
01
FD
FE
FE
FE
00
FE
00
FF
FE
FE
FE
FE
FF
FF
FF
00
01
FE
FF
01
FF
FD
00
00
00
FD
FF
00
FD
FF
01
00
FE
FD
FF
00
00
FE
01
00
00
00
FF
FF
FF
FF
00
00
03
00
02
FE
FE
FF
FE
01
01
01
FF
FD
01
FC
FF
00
04
00
00
FF
FF
FE
02
01
01
FF
01
FF
FD
FF
01
00
00
FF
01
FF
FF
01
FF
FF
00
00
02
00
00
00
00
00
00
00
00
00
02
00
FF
01
FF
FF
02
01
01
02
02
FF
00
01
01
FF
01
01
00
00
02
00
02
00
01
FE
00
00
00
FF
01
02
FF
01
01
FF
02
01
02
02
03
00
01
00
FF
00
01
01
00
02
01
00
00
00
02
01
01
01
FE
00
FE
03
FF
01
00
FE
00
00
FF
00
03
02
FF
02
03
FE
FF
00
FE
00
FE
05
00
00
FF
01
05
FF
FF
00
00
FF
FF
00
00
00
FE
02
00
FF
01
FE
01
03
FE
00
FD
00
01
FF
00
02
FE
00
00
FD
00
00
FC
01
00
02
01
FE
FE
02
02
02
FE
FF
02
FD
01
01
00
00
FF
01
00
FF
00
00
02
01
FE
00
FD
FE
FF
00
01
00
FE
FE
FF
FE
FF
00
FC
02
FF
00
00
FF
FD
00
00
01
01
FD
01
00
00
00
FF
00
FF
FD
FE
FE
01
01
02
01
00
01
FE
00
00
02
01
01
01
00
01
00
00
00
00
FE
01
03
01
02
FE
01
02
FE
00
FF
01
01
FF
01
01
00
02
FF
00
00
FF
FF
00
00
00
00
02
01
00
00
FF
03
FF
01
02
00
00
02
02
FE
01
03
02
02
FE
00
02
FE
FF
00
02
01
FF
00
FF
01
FF
01
02
02
FE
FE
FE
02
01
FF
01
02
03
00
FE
06
00
01
03
FF
FF
FE
FF
FF
00
01
02
01
FE
FE
FF
FE
01
00
FF
00
FF
FF
FF
FF
01
00
00
00
00
00
FF
FE
01
00
00
FF
00
FF
FE
FE
01
FE
01
00
02
FE
FE
00
00
FD
00
00
00
FE
FE
01
FE
FF
FF
FF
01
FF
00
00
FF
FE
00
01
00
FF
01
FF
FF
FF
02
00
00
00
03
00
FF
FD
00
00
02
FE
00
02
FF
FE
FF
FF
02
00
00
02
FF
FE
FF
00
02
02
01
00
FE
FE
00
00
02
01
01
00
FD
FF
01
00
00
00
02
01
02
FE
00
00
00
00
01
01
00
00
02
FF
FE
00
00
00
01
00
02
01
FF
02
00
00
02
00
01
00
01
01
01
01
00
02
01
00
00
01
02
03
00
01
03
00
FD
00
FB
00
02
00
01
FF
FE
FF
FE
FF
01
00
00
00
FF
00
FF
00
00
02
FF
01
FF
01
00
00
00
02
FF
00
01
00
02
02
01
00
FF
00
00
00
00
00
FF
01
00
00
00
00
01
FF
01
FF
00
00
00
01
00
FF
00
00
FF
FF
00
00
00
FF
00
00
00
00
00
00
00
00
00
00
00
00
FF
00
FF
00
00
FF
00
00
00
01
00
00
00
00
00
FF
FF
00
00
FF
00
00
FF
01
01
00
00
00
00
00
00
FF
00
FF
00
00
FF
00
00
00
00
00
FF
00
00
FF
00
00
FF
01
FF
00
FF
00
00
00
00
00
FF
00
00
00
FF
00
FF
FF
00
00
00
00
00
00
FF
00
FF
00
FF
01
FF
00
00
01
00
00
00
00
00
00
00
00
FF
00
00
FF
00
00
01
00
00
00
00
00
00
00
00
FF
00
00
00
00
00
FF
FF
00
00
00
00
FF
FF
00
FF
00
00
00
00
FF
00
FF
FF
00
FF
01
01
00
00
00
00
FF
00
FF
01
00
00
FF
FF
FF
01
00
00
00
00
FF
00
00
FF
FF
00
FF
FF
FF
00
FF
FF
01
00
00
00
00
FF
FF
00
00
FF
FF
00
00
00
00
00
FF
01
01
00
00
FF
00
FF
FF
00
00
00
01
01
01
FF
00
00
FF
00
00
00
00
01
FF
00
00
00
FF
FF
00
00
00
FF
00
FF
00
FF
00
00
00
00
FF
00
00
00
00
FF
00
01
00
00
00
01
00
00
FF
FF
00
01
00
00
00
00
01
FF
00
00
00
00
FF
00
00
FF
00
00
00
00
00
00
FF
00
FF
00
00
FF
00
00
00
00
00
00
00
FF
00
00
01
01
FF
01
FF
00
FF
00
00
FF
00
00
FF
00
00
FF
00
00
00
00
00
FF
00
00
00
FF
00
00
00
01
00
00
00
FF
FF
00
00
00
01
01
01
FF
01
00
00
FF
FF
00
FF
00
00
00
01
00
00
FF
00
00
01
FF
00
00
00
00
00
00
00
00
00
FF
FF
00
FF
00
00
00
00
FF
00
00
00
00
FE
00
00
00
02
01
FF
FF
01
FF
00
FE
01
FE
00
01
FF
00
FF
FF
00
FE
FE
00
01
FF
00
01
FF
FE
FD
00
01
FB
02
03
03
01
00
FF
00
02
01
00
04
02
FE
03
03
03
01
00
01
05
FF
01
FD
02
00
02
01
00
FF
FF
03
FE
FE
01
FE
00
FF
00
02
FF
00
02
00
02
00
FD
FC
02
FD
FE
FE
00
03
FB
FE
01
FF
FF
FF
FF
03
01
FD
FF
FB
01
02
FD
00
FD
02
01
FC
01
FE
01
00
FC
00
00
FD
00
00
02
04
FE
FA
02
FD
FC
01
FD
04
01
FE
FC
00
FF
00
00
02
01
FE
02
FC
FE
FF
00
03
02
FE
00
FE
FE
01
00
02
FD
FD
01
01
FE
04
00
04
FF
FE
FF
FF
00
02
FE
FF
FF
01
FD
00
FD
02
03
FE
01
FF
00
03
FD
01
00
00
02
FF
00
03
FF
01
FD
03
03
FD
01
03
02
04
FF
03
03
FE
03
FF
01
FE
FF
01
FE
00
02
FF
FF
FF
01
00
00
00
02
FF
00
01
01
00
01
01
FF
01
FF
FF
00
01
00
05
02
FF
00
FF
FF
02
02
00
04
00
01
FE
FD
01
00
00
04
FF
00
00
FE
02
00
00
00
01
FD
FF
FE
00
FF
FF
01
01
FD
FE
01
FF
00
00
02
FF
00
FD
FE
00
FF
00
00
00
00
FE
FF
04
FF
FE
FF
FF
01
FE
FF
00
FF
FD
FF
00
FD
FC
00
FC
FC
FD
02
00
F9
F9
FB
FD
FD
FA
01
00
FA
FB
FE
00
FB
FD
FC
00
01
FE
00
01
FE
FB
FF
00
01
02
00
00
00
FC
00
FF
00
00
01
FF
FE
FB
00
00
00
FE
FD
FF
F9
FD
01
FF
01
FF
02
02
FB
00
02
FF
01
00
01
01
FD
FF
02
01
00
01
02
01
FF
00
00
FF
04
03
03
02
01
01
01
01
04
04
02
03
00
05
FF
00
04
05
04
04
02
00
FF
00
00
00
00
FF
FF
00
00
00
00
00
FF
00
00
00
00
01
FF
01
00
00
00
01
FF
FF
FF
FF
FF
00
00
00
FF
00
00
01
00
00
00
00
00
FF
FF
00
00
FF
FF
00
00
00
FF
00
00
00
00
FF
00
FF
FF
FF
FF
FF
FF
00
00
00
00
FF
00
00
00
FF
00
FF
00
FF
FF
FF
FF
FF
FF
00
FF
00
FF
00
00
00
00
00
00
01
00
00
FF
00
00
00
00
00
01
FF
FF
FF
00
01
00
00
00
00
FF
FF
FF
FF
FF
FF
FF
00
00
FF
00
00
01
00
00
00
00
FF
00
00
FF
01
01
00
00
FF
00
00
FF
00
00
00
00
00
FF
00
00
00
00
FF
00
00
FF
01
FF
00
00
00
FF
00
FF
00
FF
FF
01
FF
01
00
00
FF
FF
00
00
FF
FF
FF
00
00
00
00
00
00
FF
00
00
00
FF
FF
00
FF
FF
FF
00
00
00
FF
00
FF
FF
FF
FF
FF
00
FF
00
00
00
00
00
00
00
00
FF
FF
00
FF
00
01
00
FF
FF
00
00
00
00
01
FF
FF
00
00
FF
00
00
FF
FF
01
00
FF
00
00
FF
00
00
00
00
FF
00
00
FF
01
FF
FF
FF
FF
00
00
00
01
00
00
00
00
FF
00
FF
00
00
00
FF
00
00
FF
00
00
00
FF
00
00
FF
00
FF
00
00
01
00
FF
FF
00
00
00
00
FF
01
FF
FF
00
00
FF
00
00
FF
00
00
00
00
01
FF
FF
FF
00
FF
00
FF
00
00
00
00
00
00
01
00
FF
00
01
FF
00
01
00
00
00
00
00
00
FF
FF
FF
00
FF
00
00
00
FF
00
FF
FF
00
FF
00
01
01
FF
FF
00
00
FF
01
00
FF
00
01
00
01
FF
00
00
00
FF
00
FF
00
00
00
FF
00
00
FF
FF
01
00
00
00
00
01
00
00
01
00
00
01
FF
00
FF
FF
FF
00
00
FF
00
00
00
00
00
00
00
01
00
00
FF
00
01
01
00
00
FF
00
00
00
01
00
00
FF
00
00
00
00
00
00
00
00
FF
FF
00
00
00
00
00
FF
01
00
00
FF
01
00
00
00
FF
00
00
00
FF
00
00
00
00
00
FF
00
FF
01
FF
00
00
00
00
00
00
FF
FF
00
FF
00
FF
FF
00
00
00
00
FF
00
00
00
00
00
FF
00
00
00
00
01
FF
00
FF
01
00
01
00
00
00
00
00
FF
FF
01
01
00
FF
FF
00
00
01
00
00
FF
00
00
00
00
01
00
00
00
FF
01
FF
01
FF
01
00
00
00
00
00
00
00
00
FF
00
00
00
00
00
00
00
FF
00
00
00
00
01
00
00
00
FF
00
00
00
00
FF
00
FF
FF
00
00
00
00
00
00
FF
FF
00
00
00
00
00
FF
01
00
FF
01
00
00
FF
00
FF
FF
FF
00
00
00
00
00
00
01
00
FF
00
00
FF
00
00
01
00
01
00
00
00
00
00
FF
00
00
00
00
01
00
FF
00
01
00
00
FF
01
01
00
00
00
00
FF
00
00
00
00
00
01
00
00
00
01
00
FF
FF
FF
00
00
00
00
00
00
00
00
00
00
FF
00
00
FF
FF
01
00
01
FF
FF
00
00
00
00
00
00
00
00
FF
00
00
00
00
00
FF
00
00
FF
00
00
00
FF
FF
00
00
00
FF
00
00
FF
00
00
FF
00
00
01
00
00
00
00
FF
FF
00
00
00
00
FF
00
00
FF
00
00
00
00
00
00
FF
00
FF
FF
FF
00
00
FF
FF
00
FF
00
00
FF
FF
01
FF
FF
FF
00
FF
01
00
FF
00
00
00
FF
00
00
00
00
00
00
00
00
00
00
00
00
01
00
00
01
FF
00
FF
FF
00
FF
00
FF
FF
FF
FF
FF
00
FF
FF
00
FF
00
00
00
FF
00
FF
00
00
FF
00
00
00
01
00
00
00
00
FF
00
00
FF
02
00
00
00
00
FF
FF
00
01
01
01
00
FF
FE
00
00
FF
00
03
FF
FD
00
01
02
FE
FE
01
FE
FE
FF
01
03
FF
00
02
FD
FF
01
00
00
00
01
00
00
FF
02
FE
01
00
01
00
01
FD
01
FF
01
FF
01
00
01
FF
00
00
00
FE
00
FD
01
00
FD
01
01
FD
FC
FD
02
FF
FD
FE
FE
02
00
FF
00
FC
04
00
FF
00
00
01
02
FB
02
02
00
01
01
02
01
FF
00
01
01
02
FF
FF
FF
00
FD
FF
00
03
02
00
FF
FE
FF
FF
00
03
00
00
FE
FD
01
01
00
01
00
FF
FF
00
01
FF
00
02
00
00
00
02
00
FF
FE
01
00
02
FF
FF
00
01
FF
FF
01
02
00
FF
04
00
02
00
00
00
FF
02
FD
00
02
01
03
FE
01
FF
01
00
FF
01
02
00
01
FD
03
01
00
01
00
01
01
FE
02
01
01
00
00
02
03
FF
00
00
FE
03
01
FE
FF
00
02
FF
00
01
FF
00
00
00
FF
01
01
FE
01
00
01
00
01
03
00
FE
00
00
01
FF
FF
03
00
FD
FF
00
FF
FD
FE
00
00
02
00
FF
00
FF
00
FE
02
00
01
01
01
03
FF
00
FF
FF
00
00
01
01
00
00
FD
FF
00
02
01
01
00
00
FD
FD
FF
00
01
01
00
FF
FF
FF
00
02
01
01
02
00
02
FF
01
02
01
02
03
00
00
00
FF
00
02
00
02
02
FF
00
01
00
00
01
03
00
00
FF
00
00
FF
FF
02
FF
00
00
00
01
FF
02
FE
00
FD
00
00
01
FE
00
00
FD
00
02
01
FF
FF
FE
01
00
FF
00
00
01
01
FE
00
00
03
00
00
02
01
00
01
00
01
03
00
00
FF
FD
FF
FF
FF
00
00
FF
01
FF
00
FF
FF
00
00
00
00
00
01
FF
01
00
00
FF
00
FF
00
00
03
00
01
02
00
00
FF
00
FE
02
FE
01
00
FF
00
FF
FF
00
FE
FF
01
FE
00
00
FE
FF
00
00
01
FB
02
FF
02
FE
00
02
FF
FF
02
FF
00
FD
02
03
FF
01
FF
FF
FE
00
00
00
00
01
01
FE
FF
01
FE
FF
01
FE
02
00
FF
01
01
00
01
FF
00
02
00
00
FF
00
FF
FF
01
00
02
F9
00
01
FF
01
00
FF
FF
00
01
FE
00
01
00
01
FD
01
FE
FE
FF
FD
02
00
FF
01
FD
01
FF
00
01
00
FE
FE
FD
00
FF
00
01
FF
01
FD
00
00
01
01
02
FF
00
00
01
FE
02
01
FE
02
01
00
02
FE
00
01
01
00
FE
00
00
00
FF
02
FF
01
FD
00
01
FF
FF
FF
00
01
01
02
03
01
02
00
02
FF
02
02
01
01
02
02
FE
00
03
02
02
FE
01
00
02
01
FD
02
01
00
01
FC
02
00
FF
01
02
00
00
FB
02
02
01
02
03
03
01
FE
03
01
FF
03
00
01
FE
FF
FF
FE
FF
01
01
FF
00
00
FF
01
00
00
00
00
00
00
00
FF
00
00
01
00
00
00
FE
01
01
00
00
FF
FF
FF
FE
FF
FD
00
00
01
FE
FD
01
FE
00
01
00
02
FE
FE
01
FF
01
FF
FF
00
01
02
FF
00
FF
FF
01
01
FF
02
00
00
02
FF
00
00
00
01
FE
00
FA
FF
00
01
FF
FE
FF
00
FA
FE
00
02
FF
01
FF
FF
FE
FE
00
02
03
02
FD
FF
FF
FE
00
01
FF
01
FD
FF
FF
01
00
FE
00
00
FF
FE
FF
00
00
FF
01
FE
00
00
00
01
01
00
01
FF
01
01
01
01
00
FF
00
00
01
03
01
00
00
01
00
01
00
00
02
02
00
00
01
02
03
00
01
01
00
FE
01
00
00
01
00
01
00
01
FF
FF
01
01
01
01
FF
01
01
FF
01
01
03
FF
00
FF
02
01
01
00
04
FF
00
02
03
02
04
01
FF
00
01
01
FC
FF
00
01
00
FE
00
00
FE
FD
01
FF
01
FF
00
FF
FF
FD
FF
FF
02
FD
FE
01
FF
FF
FD
00
02
FD
00
02
FE
01
FE
FF
00
00
FE
00
FE
FF
01
00
00
FD
01
00
00
FE
FE
FF
02
00
00
FF
FF
FD
FE
FF
FE
FF
01
FE
00
00
FC
00
00
FE
FC
01
01
01
FB
00
FF
FF
03
FF
02
00
01
03
FF
00
03
01
02
FF
02
02
01
01
01
01
01
00
01
03
01
02
00
FE
FE
00
FE
FE
00
04
FF
FD
FB
FF
FC
FD
00
02
02
02
FF
00
01
03
FF
01
00
01
00
FF
00
02
00
00
00
00
00
01
00
00
FF
01
01
01
01
01
FF
00
02
FE
00
FF
FF
00
01
FF
03
01
02
FF
00
03
FE
01
00
01
02
00
01
00
00
FE
00
01
01
01
00
00
00
02
00
FF
01
02
01
01
FF
02
04
FD
03
01
02
01
FD
00
FE
00
00
FE
FF
FE
01
00
FF
02
00
FF
FF
FF
FF
02
FF
00
00
FF
FF
FF
01
01
FE
01
FF
00
00
FF
00
FF
FF
01
00
FF
FF
FE
FE
00
FF
FF
00
00
00
00
FF
00
02
01
00
FE
00
01
00
00
01
FF
00
FF
00
FE
01
00
FE
00
00
FF
FF
FE
FF
00
FE
01
00
00
FF
01
FE
00
02
00
00
00
02
FF
02
01
02
00
01
02
03
02
01
02
02
00
FF
01
02
00
01
02
FF
01
00
01
00
FE
02
FF
00
03
00
FE
FF
FD
01
FF
01
02
01
02
FF
00
01
01
02
01
00
00
01
FF
01
01
00
02
00
FF
00
FF
02
01
00
00
00
00
01
FE
FF
01
02
FE
00
03
02
00
FB
01
01
02
00
00
02
01
03
FF
00
01
00
01
FF
01
02
FE
01
FF
00
FF
00
01
00
FF
02
00
00
00
01
00
00
02
04
02
00
00
02
01
01
02
FF
FF
00
00
00
00
FF
FF
01
FF
00
00
00
00
FF
00
00
00
00
00
01
00
00
00
00
00
00
FF
00
FF
01
00
FF
00
FF
00
00
00
01
00
FF
00
00
00
01
01
00
00
FF
FF
00
FF
00
FF
00
FF
01
FF
00
FF
FF
FF
00
01
01
00
00
FF
00
00
00
FF
FF
00
01
FF
01
00
00
00
FF
00
00
00
00
00
01
01
00
00
00
00
00
00
00
00
01
00
01
00
00
FF
FF
00
00
FF
01
FF
00
FF
00
01
00
01
FF
00
00
00
00
FF
00
00
01
00
00
00
00
00
00
00
00
00
FF
00
00
00
FF
FF
FF
00
FF
00
00
00
00
FF
00
00
00
00
00
FF
00
FF
FF
00
00
00
01
00
FF
00
00
00
FF
00
00
00
00
00
FF
00
00
00
00
FF
01
00
00
00
00
00
00
00
00
00
00
FF
00
00
01
00
00
FF
01
FF
FF
00
00
FF
00
00
FF
FF
01
00
FF
00
01
00
FF
FF
FF
00
00
00
FF
00
01
00
00
FF
FF
00
FF
00
00
00
FF
00
00
01
FF
00
00
FF
00
FF
01
01
01
00
00
00
00
00
00
FF
00
FF
01
FF
00
00
00
00
00
FF
00
FF
00
FF
00
00
00
00
00
FF
00
FF
00
00
FF
00
FF
01
00
FF
00
FF
00
00
00
00
FF
FF
FF
00
FF
00
FF
FF
00
01
00
01
FF
FF
00
00
00
FF
FF
FF
00
00
00
00
00
00
01
FF
01
00
FF
00
00
00
FF
00
00
00
00
FF
00
FF
00
00
00
00
FF
FF
00
00
00
01
00
00
00
00
00
00
FF
01
FF
00
FF
FF
00
FF
00
00
FF
FF
00
FF
00
FF
FF
00
FF
FF
01
00
01
FF
00
FF
00
00
FF
00
00
00
00
FF
00
00
01
00
00
00
FF
00
00
00
01
FF
00
FF
00
00
FF
00
00
00
00
00
00
00
01
01
01
00
02
00
01
02
FD
01
01
01
00
00
01
01
FC
00
00
02
02
00
01
03
FE
00
01
01
02
01
01
02
FF
01
01
00
00
01
00
00
FE
00
00
FF
01
FE
00
02
FF
00
FF
00
00
FF
01
02
FE
FE
01
02
02
01
02
01
01
FF
00
02
03
00
00
01
00
01
01
FD
00
01
FF
02
00
00
FF
03
FE
00
01
00
00
00
FE
FE
00
00
00
00
FF
02
02
FF
01
00
FF
FF
FF
02
01
02
03
00
02
00
FF
FF
00
FF
02
01
02
03
02
FE
00
FF
FE
02
01
FE
FE
FE
00
FF
FD
FD
01
FF
FF
00
00
00
FE
FF
00
00
FE
00
FE
00
00
00
FF
FF
FF
01
FE
FE
00
01
FE
01
FC
FE
00
FF
01
FD
03
00
FE
FE
FB
01
FE
FF
FE
FE
01
FF
FD
01
FC
04
FE
FD
02
02
FF
00
FA
02
FE
FD
00
FF
01
FE
FB
02
00
FE
01
FC
00
01
01
01
00
01
01
FC
FF
02
02
02
00
FF
00
FD
01
01
01
01
00
00
00
00
FF
00
01
01
02
01
FE
FD
00
02
01
01
01
00
00
FF
FF
03
02
02
FF
FF
FF
FD
00
02
00
01
00
FF
02
01
00
00
00
00
02
01
02
01
FF
00
01
01
02
01
FF
00
01
01
02
00
02
00
FE
FF
01
FF
00
02
FF
01
FF
00
00
FF
FE
00
00
FF
FF
01
00
00
FD
00
00
FF
01
01
00
00
FF
00
FF
00
FF
FF
00
01
FF
00
FE
01
00
FE
00
FC
FF
FD
01
00
00
01
FF
01
01
00
02
FF
01
01
00
01
01
03
01
FE
FE
02
00
00
FF
02
01
FF
FE
02
00
FD
00
00
FF
00
FB
FD
FF
01
01
00
FE
FE
FD
01
01
FF
FD
FD
FC
FE
FF
02
01
FE
FC
FC
FD
00
00
02
00
FD
FF
FC
FE
01
FE
01
00
FC
FD
FB
FC
FF
01
FE
FF
00
FE
FE
FF
FF
01
01
00
FE
00
00
00
FE
02
FF
02
FC
01
00
01
00
FF
00
FF
FD
00
00
01
FE
01
02
00
FE
02
FD
01
00
00
FE
FF
FE
00
FF
00
01
00
00
00
01
00
00
00
00
00
FE
02
00
01
FF
FC
00
01
FF
01
00
FE
FD
01
00
FE
00
01
03
FE
FD
02
01
00
FF
00
00
01
00
FF
FE
00
00
00
01
00
01
FF
FF
00
01
00
00
FF
01
02
FF
FF
01
01
00
00
FE
01
00
FF
FE
FF
04
FF
FE
02
00
01
01
02
FF
02
01
FD
02
00
01
00
FF
02
00
FE
03
00
01
01
FF
00
FF
00
01
FF
02
FF
FD
00
FE
01
FF
FC
02
FD
00
00
FD
03
FD
01
00
01
00
00
01
01
02
FF
02
01
FF
01
FD
02
00
FB
01
00
FE
00
FC
02
00
FB
01
FC
FF
00
FC
01
01
FC
00
FA
FF
FF
FB
03
FE
FF
01
FF
00
FF
00
FD
00
00
01
00
00
FF
00
FE
FE
00
00
00
00
FF
FF
FE
FF
FF
00
01
01
FF
01
00
00
03
FF
00
00
00
02
02
FF
01
FE
00
FE
FF
FE
FF
00
00
00
00
FF
01
00
FE
03
00
FF
FF
00
00
00
FE
00
00
FE
00
02
01
01
00
00
02
FB
00
00
01
00
02
01
01
00
00
FF
FF
FF
FD
00
FF
00
00
00
00
FF
FE
00
00
FF
00
00
00
FF
FF
FF
01
FC
00
01
00
00
FF
01
01
FE
01
00
02
00
02
00
00
02
00
FF
02
00
00
00
01
00
00
FF
01
01
00
01
00
FD
00
01
02
01
00
01
00
FE
00
02
01
02
01
FF
00
FD
00
00
FE
01
FF
FF
00
00
00
FF
01
01
00
02
00
FF
00
01
00
01
00
00
01
FC
FF
01
01
01
01
00
00
FD
01
01
00
01
01
FF
FA
FE
01
00
00
01
01
FE
FF
03
FF
01
01
00
00
00
FF
01
FF
00
01
00
FF
02
00
02
00
03
02
FF
02
FF
00
02
02
01
00
00
04
FF
FE
00
00
01
FE
FF
01
FF
00
01
FF
00
FF
FD
03
FE
00
03
FE
01
FE
00
03
FF
02
01
FF
02
FE
FF
03
FF
00
00
FE
01
FE
00
03
FE
FE
FA
FE
FF
FE
FE
02
FF
FE
00
FE
00
FF
FB
02
FF
FE
FF
00
00
01
FF
01
02
02
FD
00
FF
01
01
00
00
FF
FE
01
FE
FF
02
02
00
FD
FC
00
02
00
FE
04
00
00
01
00
FF
01
FF
FF
04
01
00
01
01
02
FF
00
00
00
01
00
00
00
00
00
02
02
00
01
FF
FF
00
00
01
FD
02
00
02
FF
FD
03
00
01
02
FF
FF
01
00
FE
01
02
03
01
FF
00
02
02
00
FE
02
00
00
00
FE
04
00
00
FF
01
00
01
FE
04
00
FE
01
02
02
00
FD
04
01
FF
FF
00
02
FF
02
00
FF
02
FF
01
01
FF
01
00
01
01
FF
00
FF
00
02
02
00
02
FE
00
FF
FF
FF
00
01
01
FC
01
FD
FF
FF
FE
01
FF
FF
00
02
FD
00
01
FE
01
FD
00
03
01
01
02
FF
01
FE
00
03
02
03
00
00
FE
FD
00
04
FF
02
FF
00
00
FF
01
00
FE
01
01
FF
FF
FF
00
05
00
00
00
FE
00
FD
00
03
01
02
00
00
00
FF
00
02
03
01
FF
03
FE
FE
FF
02
01
02
FE
00
FE
FF
FF
01
FF
01
00
FE
01
00
FF
01
01
01
FF
01
FE
FF
00
00
00
02
01
FF
02
00
01
FF
00
01
00
03
02
FE
01
00
00
01
FF
02
01
FF
00
00
FF
01
03
00
00
00
01
00
00
FF
01
00
FF
FE
01
FF
00
FF
02
01
00
FE
00
00
FF
00
01
FF
02
FF
00
FF
01
FF
02
02
00
FD
00
03
03
03
02
01
FD
06
FF
FF
02
FF
02
FF
FF
00
FE
01
01
FD
01
00
FF
FE
FF
02
01
00
00
01
00
FF
FF
01
02
00
FF
00
FF
FF
01
03
03
FF
00
02
FD
00
FE
00
00
FC
03
FE
00
00
FD
00
00
FE
03
FF
00
01
FE
01
FF
00
00
FE
00
00
FF
02
FE
FF
FF
FF
01
00
FF
01
FF
02
FD
FF
FF
FF
FE
FF
FD
FB
02
FF
00
01
FE
00
FB
00
00
FE
00
01
00
FF
FE
00
01
00
00
00
00
00
FF
01
00
FF
FF
03
01
00
01
01
00
FF
FF
00
FF
01
FF
FD
02
01
01
00
00
FF
01
00
02
00
FE
FF
00
00
02
FF
00
03
FF
00
00
FC
01
00
FE
02
FE
02
00
FE
01
FF
01
00
FF
FF
FE
00
FF
FF
00
01
01
00
01
FF
00
FF
01
01
FF
01
01
01
00
FD
00
01
FF
03
00
01
00
FF
FE
01
FD
03
00
02
FF
FD
01
01
00
FE
FF
FE
FE
02
02
FF
02
FE
01
FF
01
02
00
02
00
00
01
00
01
00
02
00
01
FF
00
FF
00
FF
01
01
02
01
FF
00
00
00
00
02
FF
FE
00
02
00
01
01
FD
FF
00
00
02
FF
00
01
FE
FF
00
00
01
01
01
00
FF
00
01
00
01
00
01
00
00
00
04
00
FD
FF
FF
00
00
FE
FD
00
01
FE
FF
02
FF
FF
FF
FF
00
01
02
00
00
FF
FD
00
02
01
00
FE
01
FF
01
00
00
01
FF
FD
FF
FF
03
01
FF
FF
FF
FE
00
00
FE
00
01
FF
02
00
01
00
01
FF
02
01
02
00
01
02
00
00
01
02
02
00
03
FF
01
00
01
03
01
02
01
FF
FF
01
01
02
00
04
FF
00
00
FF
FE
FF
01
00
FE
FF
00
FF
00
FE
00
01
FE
00
FF
01
FF
01
FF
02
FF
01
01
01
02
00
FF
01
01
01
FD
00
03
00
00
00
00
FF
02
01
00
00
FF
02
FE
FB
FE
00
03
00
FE
02
01
FF
FC
FE
04
00
00
00
01
00
FF
FE
02
FF
00
FF
01
01
FF
01
01
FD
00
FD
01
00
FF
00
FF
FF
00
00
FF
00
FE
FF
01
FF
FF
00
FE
00
01
00
00
FF
FF
00
FF
FF
01
00
01
FF
00
FE
01
FF
FD
FC
03
00
FE
FD
FF
01
FF
02
00
FE
01
FE
FE
01
FF
00
FF
00
01
00
FF
00
01
01
FE
00
00
00
00
00
04
02
00
FF
FF
00
00
FF
02
01
FE
FF
FF
01
FF
00
FF
01
02
FE
00
FF
01
01
FF
00
FF
01
FE
FF
FE
FF
02
01
00
FF
01
FE
FF
FE
02
FF
00
FE
FE
00
03
FF
00
FE
01
FE
FF
00
01
02
FF
00
01
FF
00
FF
FE
02
00
01
00
02
FE
02
FF
00
00
04
00
02
FE
00
02
FE
00
FF
00
02
FF
FF
02
FF
00
FE
01
03
00
FF
01
FE
00
01
FE
FF
01
04
FF
FE
00
00
FF
FF
01
01
01
00
FF
00
FE
02
01
02
01
01
01
00
00
01
00
01
03
01
FE
01
FF
00
01
FF
00
FF
01
01
00
00
00
01
FE
FF
00
00
FF
FF
00
01
FF
00
00
01
FF
00
00
01
00
FE
01
00
02
01
00
02
FF
FF
FF
00
00
00
01
00
00
FF
03
00
FF
FE
FF
00
FE
00
01
00
FD
00
FF
FF
01
02
FF
FF
00
02
FE
01
02
01
01
01
03
03
00
03
02
01
01
00
03
04
01
01
01
00
01
01
FE
FE
FE
FE
00
00
01
01
FE
FD
FF
00
FE
FF
00
01
00
FF
FE
01
01
02
00
01
02
02
01
00
02
03
FD
00
02
03
00
FF
02
FF
01
01
FE
00
FF
00
FF
00
00
00
FE
00
FF
00
FF
02
FF
FF
FF
01
FF
01
00
00
00
01
00
00
00
FF
00
FD
00
00
FF
FD
FE
FF
FF
02
FE
00
00
FC
01
FE
FE
02
02
02
FF
00
02
FE
FE
01
01
00
FF
00
00
FF
01
FC
04
00
FE
02
01
01
FF
FC
05
FF
FF
01
FF
02
00
04
FE
02
FF
01
01
00
00
01
00
01
01
01
01
00
FE
01
02
01
00
FF
FF
00
FF
FD
02
FF
FF
FD
FF
02
01
FB
03
FF
02
FF
FC
03
00
01
FC
01
FF
01
FE
02
01
01
FF
02
00
02
02
00
00
00
FF
00
FE
01
02
FF
01
FE
01
00
00
FE
00
00
01
FF
00
FF
02
FD
FD
03
01
FF
01
FF
00
00
FD
01
00
00
02
01
01
01
01
FF
01
FF
00
00
00
00
00
FF
00
FF
FF
00
FF
01
FF
00
00
FE
FE
FE
FF
FF
FE
01
01
00
00
01
FF
FF
00
FF
00
01
02
02
FF
01
01
FF
01
FD
00
01
FF
02
FC
FF
01
FD
FE
FE
00
01
FE
FE
01
FD
FF
FC
FF
01
FF
FE
01
01
03
00
FE
FF
00
FD
FE
00
01
00
FF
FF
FF
00
FE
FF
00
00
00
FF
01
01
FF
FF
02
00
00
FF
00
03
FE
00
01
FF
00
01
02
03
FD
01
01
00
FE
00
00
FE
01
FF
00
00
01
00
01
00
01
00
FF
FF
01
01
FF
01
00
FF
FE
FF
01
00
00
01
00
01
FD
00
02
01
02
03
00
03
00
00
01
00
02
00
01
FF
00
01
00
01
01
00
00
FF
01
FF
03
01
00
00
00
01
FD
FF
03
03
00
00
03
01
FC
00
03
02
03
00
01
00
02
01
00
00
01
01
FE
FF
02
00
FE
FE
FF
01
FF
00
FF
FF
FF
00
00
FF
00
01
FF
FF
01
01
02
FF
02
00
FD
00
01
01
00
FF
01
01
01
00
FE
FF
FF
FF
00
01
01
FF
FF
02
FF
01
FF
00
FE
FF
FF
00
FF
02
00
00
FF
00
00
FF
00
01
00
FD
FF
01
FD
FF
FF
FF
FF
FF
FF
01
FF
00
FF
00
01
00
00
FF
00
00
01
00
00
00
01
00
00
FF
00
00
FF
FF
01
00
00
00
00
00
00
FF
01
00
00
FF
00
00
00
FF
00
FF
FF
00
00
FF
00
FF
00
FF
FF
00
01
00
00
00
FF
01
FF
00
00
00
FF
FF
00
FF
00
00
FF
FF
00
00
00
FF
00
FF
FF
00
00
00
00
00
FF
00
00
FF
00
FF
FF
01
00
00
00
FF
00
00
00
01
00
FF
00
00
00
FF
FF
FF
FF
00
00
FF
00
00
00
FF
00
00
00
00
FF
00
00
00
00
00
FF
01
00
00
00
FF
FF
00
00
FF
FF
00
00
FF
00
00
00
FF
00
00
FF
00
FF
00
00
00
00
00
00
00
00
FF
00
FF
FF
00
00
01
00
00
00
00
FF
FF
FF
00
00
FF
FF
FF
FF
FF
00
00
FF
00
00
FF
FF
00
00
00
00
00
FF
FF
00
00
00
00
00
FF
00
FF
FF
00
00
01
FF
00
FF
FF
00
FF
01
00
FF
FF
00
FF
00
00
FF
FF
FF
00
00
FF
00
00
00
01
FF
00
00
FF
00
01
00
FF
00
FF
00
00
00
00
00
00
FF
00
00
00
FF
FF
00
00
00
00
00
00
FF
FF
00
01
FF
FF
00
00
00
FF
00
00
FF
00
00
00
FF
00
FF
00
00
FF
00
FF
00
FF
FF
FF
00
00
00
00
00
00
00
00
00
01
00
00
00
00
00
00
00
00
FF
FF
00
00
FF
00
00
00
00
00
00
FF
FF
00
01
00
FF
FF
01
00
FF
00
FF
00
00
00
01
FF
FF
FF
00
00
FF
FF
00
FF
00
00
00
00
01
00
01
00
00
00
00
FF
00
00
FF
FF
00
00
FF
01
00
FF
FF
FF
00
00
00
01
00
FF
00
00
00
00
01
00
00
00
FF
00
00
00
00
00
00
00
00
FF
00
00
01
FF
FF
00
01
00
00
00
00
01
FF
FF
00
01
00
01
00
00
01
00
FF
03
00
00
FF
FF
01
FF
FF
02
01
00
02
FF
00
01
FE
01
03
02
00
02
03
03
FD
FE
04
00
00
01
03
05
FF
FF
00
FE
FE
00
00
04
00
FF
00
FF
00
01
00
03
00
01
01
00
02
00
00
05
FE
FF
03
FF
FF
FE
02
04
FD
FD
02
00
FF
FF
FE
05
FD
FE
00
FD
00
00
FD
00
FE
00
00
FF
00
FF
02
00
FF
01
00
FF
01
FE
02
01
01
FF
FF
00
01
FE
00
02
01
FC
FE
00
02
FF
FE
04
02
FF
00
00
FF
00
FE
00
01
FF
01
00
00
00
00
00
00
01
FF
02
01
01
00
03
01
00
FD
00
FF
01
00
02
00
FD
FC
FE
00
FF
FD
01
02
FE
00
FE
00
00
FF
01
00
01
00
FF
FF
00
00
03
01
00
01
FF
FF
01
01
02
FE
FE
00
FD
01
00
FF
02
FE
FE
01
FD
00
FE
FD
01
FF
01
FF
00
FE
01
03
FD
00
03
FE
00
00
00
01
00
01
02
00
00
01
00
00
01
FD
00
03
01
FF
FE
00
02
FF
00
00
00
FD
FE
FF
00
FD
01
FD
00
00
FF
03
FE
FF
FE
FD
00
04
00
04
01
FE
FF
00
FF
04
01
02
FF
FD
FF
00
00
02
FE
01
00
FE
02
FE
FF
00
FF
01
02
FE
01
FE
00
06
00
04
01
FE
00
FD
00
03
01
03
01
FE
00
00
FF
02
00
04
02
00
00
FF
00
02
02
02
FF
02
01
FD
01
02
01
02
FE
FF
00
FE
00
02
01
01
FF
01
FF
FE
00
00
01
01
01
00
00
FF
00
FF
00
02
01
01
02
FD
FF
02
01
03
FF
02
FE
FE
00
00
00
03
01
00
FF
FE
01
FF
FE
00
00
00
FF
FF
01
FF
00
00
01
01
FF
00
00
FF
00
FF
01
FF
FE
00
00
01
FE
FF
02
FE
FE
FF
00
FF
FE
01
FE
FF
FD
FF
01
01
01
FE
01
02
FD
00
00
00
01
FB
00
00
FB
00
FF
01
00
00
00
00
FE
00
FE
FE
FF
00
FC
01
01
01
FF
FF
FC
FD
FC
01
02
01
FF
01
00
01
FC
FF
01
02
02
01
00
FF
FC
00
00
FE
01
FF
01
FF
00
02
FE
01
00
FF
03
00
FF
01
FF
FE
FE
FF
02
FD
FF
00
00
01
00
00
FF
00
FE
01
00
00
03
02
01
FD
FF
00
03
00
02
01
03
01
FE
FF
00
04
01
FF
01
00
FD
FE
FE
03
00
FC
FD
FE
FF
FF
FF
FF
FD
FF
00
FD
02
FE
00
FF
FF
00
FE
FD
01
FD
02
02
00
00
FE
01
00
FF
01
03
00
02
00
00
FF
01
01
01
FF
02
01
FF
01
00
FE
FD
FE
FE
FE
FF
02
00
FF
FF
FF
FE
00
FF
04
01
00
FE
01
FF
FF
02
00
00
01
FF
FE
01
02
01
FE
FE
03
FF
00
FD
00
00
FC
FE
00
FF
00
FE
01
00
04
01
FD
01
FF
FF
00
00
03
FF
FF
FF
01
02
02
01
02
02
FE
FF
00
02
01
00
01
FF
FE
FC
00
FF
FF
FF
FF
00
00
02
01
FC
FF
FD
03
00
02
01
FF
FD
00
FD
FF
00
00
01
01
FC
FF
FB
01
01
00
00
FF
FF
00
00
FF
01
FE
FD
00
01
FF
00
FD
FF
03
01
00
FE
02
02
FF
01
04
00
00
00
01
00
01
01
03
03
FF
FE
FF
00
03
01
00
01
FF
FE
FF
00
02
00
00
00
00
FF
00
FE
FF
FF
01
FD
00
02
00
03
00
FF
01
FE
00
02
01
01
01
FE
01
02
FF
FF
00
FF
01
FF
00
00
00
00
FF
FD
FF
01
00
00
00
FF
FF
FC
FB
01
FF
FE
00
02
00
02
FF
FF
00
FF
00
02
00
01
00
01
00
01
00
02
01
01
02
01
FF
01
FF
00
00
00
00
01
00
02
00
FF
00
FF
FF
02
FC
02
FF
01
FC
FD
01
01
FF
FD
FE
FE
FF
FC
02
FF
FF
00
FF
FE
01
FD
00
FD
01
FF
FE
02
FD
FE
FC
00
01
FE
00
03
FC
FE
FC
00
FF
FF
FE
00
FE
FD
01
00
02
FE
01
FE
00
00
FE
FF
00
01
02
00
00
FF
FD
FF
01
FF
00
FE
00
01
FE
02
03
FB
FE
01
00
00
FC
FF
FE
FE
FF
00
01
FD
01
02
00
02
02
01
00
00
01
04
00
FF
FF
01
01
00
01
03
02
FE
FF
FD
FF
02
FD
FE
01
01
FF
FD
00
FF
FF
FB
FF
01
FE
FF
00
00
00
FF
00
02
01
02
FF
01
00
00
FF
01
FF
01
00
01
01
01
00
02
01
01
01
01
01
00
00
03
FF
01
02
00
04
FE
01
01
01
00
02
03
00
FF
02
01
00
FF
00
02
00
FF
00
00
00
00
00
00
00
00
01
FF
01
01
FF
FF
00
01
01
02
01
03
01
FF
00
00
FD
FC
00
00
FD
FE
00
FF
01
FF
FF
FE
FE
FF
00
02
FE
00
01
00
00
01
01
00
00
FF
01
00
00
FF
00
00
01
02
01
FF
00
FE
FF
01
FE
FF
00
00
00
FF
FF
00
02
01
00
00
00
01
00
00
01
FF
00
FE
00
FF
FE
00
FE
FE
00
FD
FE
FE
FD
01
FE
00
00
FE
FE
FE
FA
00
00
00
00
FE
00
FF
01
01
02
01
00
01
05
02
00
03
01
00
01
00
02
01
01
01
FE
FF
00
FD
FE
FD
01
FE
FF
04
00
FC
FB
FD
00
FF
FF
01
00
00
FD
FF
00
FF
00
01
00
01
02
FF
00
01
FF
02
00
01
00
01
02
FF
FE
00
00
FF
FF
FF
00
FF
00
02
00
02
00
01
02
FF
01
02
01
00
02
01
00
FE
00
03
01
00
00
01
02
00
FF
00
00
00
00
03
01
FF
01
FF
00
00
02
02
02
00
02
00
00
03
03
02
04
01
01
05
01
00
00
03
01
FF
00
FE
FF
FE
00
FF
00
01
00
FD
00
FF
00
01
00
01
01
FB
01
00
00
01
FE
00
03
FC
01
01
FF
01
FF
00
FE
FE
00
01
FF
00
02
02
FF
FF
FE
FF
00
FD
02
01
01
FF
FF
00
00
FF
FE
01
00
FF
01
00
00
02
FE
FF
01
00
FE
01
FF
01
FD
01
FE
FD
FF
01
FF
FF
FE
01
00
FF
FF
00
FF
00
00
00
00
02
00
FF
FF
00
00
02
FF
FF
00
00
02
01
00
00
FF
FF
03
FF
02
01
FE
00
00
01
00
02
00
02
00
01
FF
00
00
02
00
02
01
FF
00
FF
00
FF
02
01
00
01
FF
00
01
01
01
FF
01
03
01
02
FF
00
02
00
00
02
01
01
00
02
00
01
FF
00
02
03
02
01
00
02
00
FF
01
02
02
00
01
FD
02
01
00
02
00
02
01
FE
05
02
00
04
00
02
00
FF
02
01
01
FD
00
01
03
02
02
03
02
FE
00
00
01
01
FF
02
01
FE
00
00
00
FF
FE
FE
00
00
01
00
FF
FF
FE
FF
00
04
00
01
00
FF
FD
FF
01
FF
00
01
01
02
01
02
00
FF
01
01
00
01
00
02
FF
00
00
FF
00
02
00
FF
FE
00
01
FE
FE
00
FF
FF
00
02
00
FE
FF
FF
FC
01
FD
FF
FF
FD
FE
FC
00
FF
00
01
00
FF
FF
FE
00
01
00
FF
01
FF
00
FF
FF
01
00
00
00
00
01
01
01
00
02
02
00
00
01
00
03
00
00
02
00
FF
00
00
01
01
01
02
00
FF
FF
01
FF
FF
02
01
00
02
FF
01
FF
03
01
FF
00
01
03
01
01
01
01
00
FF
02
03
02
03
01
01
02
FF
00
00
01
00
00
00
03
00
01
FF
00
01
FF
00
FF
00
00
01
00
01
FF
02
00
00
00
00
00
00
01
FF
00
00
01
00
00
02
00
FF
00
FE
FC
FE
00
02
FB
00
01
FC
FE
FE
01
02
FD
FE
FF
00
01
00
FD
FF
00
FE
FF
FE
FE
00
FD
01
01
02
00
FE
FE
01
FE
01
00
02
FF
FF
FC
FF
02
01
00
00
FF
02
FD
00
01
02
00
FF
00
02
FE
04
FF
03
01
FE
01
FE
FE
03
FE
00
01
02
03
01
00
03
FF
FF
01
02
FF
01
FF
02
FF
01
01
FE
FF
02
00
01
FE
03
02
FE
FD
00
01
01
FE
02
00
FD
03
FF
FF
00
FF
01
FE
00
01
FD
01
00
FF
03
00
FD
00
FE
00
FC
FC
03
FF
FD
FE
FB
02
FC
FD
01
FE
01
02
FC
00
FC
FF
00
FF
FD
04
FD
01
FD
01
FE
FC
FF
03
FF
FF
00
00
02
FD
FD
FC
FC
FE
02
FD
00
00
00
01
FC
FD
FC
03
FE
FE
05
03
FF
FB
F9
04
00
F9
FE
01
01
FF
F9
FF
04
F9
FE
FF
01
00
FC
FB
04
FD
FF
01
00
FD
FE
FF
FC
FF
00
FD
01
00
FE
FE
01
FF
FF
FE
01
01
FF
00
FF
FF
00
FD
00
01
00
00
01
00
FF
FF
00
02
01
01
01
00
00
01
01
FF
00
FE
FE
00
01
FF
01
02
FF
FF
FE
00
02
FE
00
01
01
00
FF
00
FF
00
01
02
FF
00
01
00
FF
03
01
01
01
03
01
00
00
00
01
00
02
00
02
02
02
FF
00
01
02
02
01
00
02
01
00
00
00
01
02
00
FF
00
00
FF
00
01
01
FE
00
00
00
01
00
00
FE
00
FF
FC
00
00
02
00
00
00
00
00
FF
02
FF
FF
00
01
01
01
00
00
FF
FF
00
FF
FF
01
01
FB
FD
FF
00
FD
00
02
01
F9
FD
00
00
FE
FB
01
01
00
FD
FF
FE
FD
FB
02
00
FD
FC
FA
FB
FE
FD
01
00
FF
FE
FE
FD
FC
00
FE
01
FF
00
01
FD
FC
06
FC
00
00
00
01
FE
01
FB
FB
FE
FD
02
FF
01
FE
F6
FC
FF
FE
FD
FA
01
FF
02
FC
02
FE
00
FF
02
FF
FE
02
03
01
01
01
01
02
02
04
FF
00
00
00
01
04
FA
FF
FE
FF
00
FD
03
00
FB
FE
01
01
FF
F9
01
02
00
FE
FE
01
00
01
01
00
02
02
FF
00
01
02
00
01
03
02
00
FF
FF
02
04
03
01
FE
02
01
01
01
01
00
FF
FD
FF
00
00
FD
FE
00
01
FF
FD
02
00
02
FD
FE
04
01
00
FE
FF
01
FD
FD
03
00
FD
FF
00
03
FF
FE
00
FF
02
02
01
00
00
01
00
00
FF
02
01
03
00
FE
01
02
FF
01
01
02
01
FD
00
01
01
00
01
00
00
FB
02
00
02
FE
00
03
FE
FE
00
01
01
01
02
01
04
00
00
01
FF
00
FF
03
00
FC
01
01
01
FE
FE
02
FF
FC
00
01
FF
00
FE
00
03
FF
03
00
01
FD
FA
02
00
FD
FC
FF
01
01
FF
00
FD
FE
FE
FD
01
FF
FC
FE
FE
FE
00
00
00
FF
FF
FF
FD
FF
FF
01
01
02
02
02
00
FF
01
02
FF
02
03
04
03
02
FF
FC
01
FF
FE
01
00
01
FC
FE
FF
01
01
01
00
FF
FE
02
00
00
FF
FF
00
00
FF
01
00
FE
FE
FE
FE
00
02
01
00
FF
00
FF
FF
02
02
00
01
03
04
03
FE
01
FD
01
00
02
01
01
01
FB
FD
03
00
FD
FD
FF
01
FE
FF
02
01
FA
F8
FD
FD
FD
FF
01
00
FB
FB
FC
FD
FC
01
00
00
FF
02
FD
00
02
FF
01
00
FD
FF
FC
FF
00
FE
02
00
FB
FC
FC
FD
FC
01
01
FF
FD
FA
FD
FC
FC
FE
02
00
FC
FC
FE
FC
FB
00
02
01
01
01
00
FF
02
FF
02
01
FC
FF
FF
00
02
FF
01
00
01
FF
FF
FE
02
FF
FF
00
FF
FF
FE
FF
FF
04
00
01
FD
FF
FE
FF
FF
01
03
00
01
FD
FC
FF
00
02
02
00
04
FC
FE
02
00
04
02
00
01
FE
02
03
00
04
00
01
00
00
02
02
FF
01
01
00
FD
01
01
00
FF
00
FD
FF
FF
00
FF
FF
FF
01
FF
FF
FC
00
00
01
FD
00
00
00
FE
FF
02
01
FE
00
00
00
01
00
FF
01
01
01
02
03
FF
00
01
01
00
00
FF
00
00
00
00
FD
FF
02
FD
02
00
01
02
FC
02
FF
00
02
01
01
00
FB
01
FE
FF
00
FF
00
01
01
03
01
FC
01
02
01
01
02
01
00
FF
00
00
03
00
FE
00
01
00
04
FD
03
00
01
FE
FE
00
02
02
02
00
00
01
00
FE
FF
FF
FF
01
FE
02
00
FC
03
01
00
FF
00
FF
00
03
FF
02
FF
FE
04
01
FF
03
00
FF
00
00
05
02
FF
01
FD
00
FE
00
04
FF
00
01
FE
FE
FF
01
FF
00
00
00
01
03
FF
FE
02
FF
FF
02
FF
00
FD
FD
FE
FF
00
00
00
FE
FE
FE
FF
02
02
00
00
01
FF
FF
FF
02
00
01
00
00
00
01
FF
01
FE
01
00
00
00
00
01
00
FE
FE
FF
01
FE
FF
FD
FF
FD
FF
FF
00
FF
02
FD
FE
00
00
00
02
FE
01
FF
FF
02
00
01
01
02
01
01
01
01
FF
00
01
02
00
02
FF
00
FE
00
00
01
00
FF
FD
01
02
00
00
00
01
FE
02
FF
FF
01
03
03
04
00
00
00
FE
01
05
02
03
FE
00
03
FB
01
03
01
02
FE
02
01
00
00
00
04
03
00
00
01
00
00
00
00
00
02
FF
01
00
00
FF
01
FE
02
02
01
FF
00
01
01
01
00
01
01
FD
00
FE
01
01
01
01
01
FF
00
FF
FE
FF
01
01
01
FF
FF
03
FF
FF
01
02
00
00
00
01
FF
FE
00
FE
FF
01
00
FE
FE
FF
FF
00
04
FF
00
FC
00
FF
00
00
01
FE
01
01
FF
02
FF
FE
02
01
FF
FF
00
02
FE
00
03
FF
00
00
00
00
FF
FF
FF
01
FF
FF
FF
00
04
FF
FE
03
FD
00
FE
FF
06
FF
02
FE
02
FE
01
02
00
01
FF
00
01
FF
FF
00
00
01
01
00
01
00
FF
FF
00
00
FC
FF
FF
FF
FE
FF
00
00
FD
FF
FE
00
00
FD
02
FF
01
00
01
01
00
01
01
02
FF
FF
FF
02
01
FF
FF
00
02
FE
00
FE
FF
03
FE
01
FF
00
00
01
00
00
FE
01
FF
00
01
04
FF
FF
FF
02
FF
00
01
00
FE
FF
FF
02
FF
02
00
00
FF
00
FE
FF
01
00
FF
FF
00
02
FF
FD
00
00
00
00
FF
FE
00
FF
FF
00
FE
FF
FE
FF
01
00
00
00
01
FF
FF
02
FD
00
01
00
01
01
00
01
FE
00
00
FF
02
FE
01
FF
00
FE
FE
FE
FE
FF
02
FF
FF
00
FD
00
FC
00
01
00
00
FE
FF
01
01
01
01
00
FB
00
01
01
01
01
FF
FF
FF
00
00
00
FF
00
FF
00
00
FF
FE
01
01
00
00
01
FF
00
00
01
00
00
00
00
01
FE
00
01
00
FF
02
02
FE
02
00
FF
00
03
01
03
00
01
FE
FE
00
01
00
02
FE
FE
00
FD
FF
00
00
01
00
00
01
FF
FF
02
02
02
03
00
00
00
01
00
FF
FE
FF
01
00
FF
FF
FF
FF
FF
00
01
FE
01
00
FE
00
FF
00
00
01
FD
01
00
00
FF
01
01
01
FF
01
01
02
01
03
01
00
00
00
FF
01
FE
FF
00
FE
01
FF
FD
FF
FF
00
FE
FF
FF
00
FD
FE
01
FE
FF
01
FD
01
01
00
00
00
01
00
FE
00
01
00
FE
00
00
00
00
00
FE
FF
FE
00
01
00
00
00
FD
01
FF
00
00
00
FF
00
FF
00
FF
01
FF
FE
FF
00
01
FF
00
01
FE
FD
FF
01
FF
FD
00
FE
FC
04
00
01
FF
01
02
00
FF
00
00
00
FF
00
02
FF
00
01
00
00
FF
FF
03
00
FE
FF
03
00
00
01
02
04
FE
FE
03
01
FF
02
03
06
FF
02
FF
01
FF
00
01
FE
00
00
FF
FE
FE
FF
01
FF
00
00
FE
FF
00
01
02
02
00
FF
01
00
00
01
FE
03
00
00
02
03
FE
01
FF
02
FE
02
01
00
00
00
04
FD
FF
02
FF
FF
FF
01
03
FF
FF
00
01
01
FF
FF
00
02
FE
00
01
00
02
00
00
00
03
01
FF
01
05
00
00
01
04
01
00
00
00
00
00
FF
00
01
FF
00
FE
FF
FF
01
00
FE
FF
01
00
00
FF
01
00
FE
FE
FE
00
00
FF
02
02
00
FB
FE
FF
02
FF
FE
00
FE
02
00
02
00
FF
02
00
00
00
00
FE
02
FE
00
FF
FE
01
00
FF
01
FD
00
01
FD
02
FE
FE
00
FF
FE
02
FC
02
FC
FC
00
FF
FE
FE
FF
03
00
03
00
01
FE
FF
FE
00
01
01
01
00
FE
FE
FF
02
00
00
FE
FF
FF
FC
00
02
00
FE
FE
FF
00
FF
FF
00
00
FE
FF
FF
01
FF
FF
01
FF
00
FF
FF
FE
FF
FC
01
FF
FF
FE
FF
FE
FF
00
01
FF
03
00
03
FE
FD
01
00
01
02
01
01
01
00
01
01
00
01
03
00
04
FF
02
00
01
00
00
00
FE
01
FF
00
01
00
FE
FE
FF
FF
FF
FE
FF
01
FE
00
02
FE
02
FF
00
01
02
01
01
01
02
FC
01
02
01
02
FF
04
00
01
00
00
00
00
01
00
FF
FF
00
01
00
01
FF
01
00
FE
00
02
01
02
00
FF
00
00
00
02
02
02
FF
00
FD
00
00
FE
FF
FF
FF
00
FF
FF
FF
FE
FE
FE
FF
02
01
FF
00
FF
FE
FE
FF
00
02
01
01
FF
01
00
01
01
FF
01
00
01
02
00
01
FF
FB
02
00
FD
FE
00
FF
FE
02
00
00
FF
01
00
00
00
00
FB
03
FD
00
01
00
02
FF
00
00
FF
00
01
02
01
FF
FF
02
02
01
FF
01
01
03
00
03
00
00
00
02
01
00
FC
01
FF
02
FF
01
01
FF
FE
FF
00
FF
04
02
04
FD
FF
02
00
01
00
00
00
03
FD
02
02
01
FF
03
01
03
FE
03
FF
FF
03
FD
00
02
00
02
01
02
05
FA
FF
00
00
FD
FD
FD
03
FD
FF
FF
00
FF
00
FB
FF
00
FF
01
01
FF
01
FF
01
00
00
02
FE
01
02
00
01
FF
00
03
03
03
01
02
05
FF
00
00
00
FF
FE
FF
01
00
FF
FE
FD
FE
FF
00
FE
FE
00
00
00
FF
01
00
01
02
01
01
FF
FE
FF
01
02
FD
00
00
03
01
01
01
02
03
01
01
FE
00
01
00
FE
FF
01
FF
01
FE
01
FF
FF
02
FF
00
01
FD
FF
01
01
01
00
00
03
FD
FF
00
02
00
00
03
FC
00
02
00
01
FD
03
00
FF
01
01
01
01
00
00
FF
FF
01
01
FF
01
FF
FF
01
00
00
00
00
00
FF
00
03
02
00
00
00
01
FF
02
FE
01
01
05
00
01
FD
FE
01
01
00
FF
FF
00
FE
02
03
01
01
01
01
02
FF
02
01
00
00
00
00
02
00
01
02
04
00
FF
02
01
00
02
FD
03
01
FC
00
FC
01
01
FE
02
FF
FD
FB
FD
FF
FE
03
01
00
FC
FE
FD
FC
03
00
00
01
FE
00
FF
FD
00
02
02
00
FC
01
FF
FD
01
00
03
01
FC
FF
FC
01
FF
FF
FF
00
FF
00
01
FE
FD
01
01
00
01
01
01
FE
01
01
02
01
01
01
02
FF
00
00
03
00
01
00
02
FF
02
00
FF
01
02
01
FF
00
01
FF
00
01
FE
00
FE
00
00
00
FF
01
FF
FF
FE
00
01
FF
01
00
FD
FF
00
01
FF
FD
05
01
FA
FC
FD
01
FF
04
FE
01
00
FC
05
FE
FF
04
FC
00
FF
FD
07
FF
00
02
00
FF
FC
FC
03
FF
00
02
02
FC
01
FD
02
04
FD
02
01
FE
01
00
02
04
FE
01
FC
FF
01
00
01
FF
01
02
FC
02
FC
01
02
00
FF
FE
FE
FD
FC
00
02
FE
FF
FC
00
00
FE
00
01
00
00
01
03
FF
FE
01
01
01
00
01
FD
01
01
02
01
FE
FF
01
00
01
00
01
01
FF
01
FF
00
02
00
00
01
FE
00
FE
01
FF
01
02
00
FD
02
01
02
00
00
00
FF
FF
01
00
00
00
03
00
00
FE
01
02
00
01
00
00
02
FE
00
01
01
01
01
01
03
00
FF
01
02
01
00
FE
00
00
00
02
00
00
FE
FF
FE
00
FF
FF
01
FF
02
FE
FF
00
00
01
00
00
02
01
04
FE
FE
01
00
03
00
01
01
FF
01
FF
FF
01
FF
FF
FE
00
01
00
FF
00
FD
FF
FF
02
01
01
02
00
02
01
FE
FB
03
FE
02
00
FF
00
FA
FA
FF
FF
02
FF
FE
FB
FD
FA
00
FF
02
01
FE
FD
FE
FC
01
00
06
01
00
00
01
FF
FF
01
01
00
FF
FE
FF
FB
02
FD
01
01
FB
FE
FE
FE
FE
FC
01
00
FF
FE
01
FE
FD
FD
03
00
00
01
00
FE
FE
01
04
00
01
02
02
01
01
01
00
01
FB
00
FD
01
01
00
01
01
FD
FF
FF
02
00
FF
02
00
FE
00
00
01
FF
00
00
00
01
02
01
02
01
00
00
FF
01
01
FF
03
01
00
02
FF
00
00
00
01
01
01
02
00
FE
FE
FE
FF
02
01
02
01
00
00
FF
00
01
00
FF
00
00
01
01
00
01
FF
FE
00
00
00
01
FF
01
01
02
00
01
01
00
01
01
02
02
FF
00
FF
00
FE
00
02
01
00
00
02
01
00
00
02
00
FF
01
02
02
00
02
00
FF
00
FF
00
FE
02
01
FF
02
00
00
02
01
00
00
FC
01
FF
02
01
FF
01
01
01
FF
FF
02
01
FE
00
02
05
FE
01
01
FE
00
FA
00
02
FE
02
02
00
FF
FF
FF
01
02
03
FF
00
04
FC
01
00
01
FE
00
FE
01
01
FD
FF
00
FC
02
FF
00
FF
00
05
FD
02
FE
FF
01
FA
01
03
00
04
FE
01
01
03
00
00
02
00
01
01
04
01
FD
01
00
FE
FF
FD
01
01
FC
FF
FF
FD
00
00
00
FE
FA
02
FD
FF
FC
02
01
00
FF
00
FC
03
00
03
00
01
FF
FE
02
01
00
FF
02
FF
FF
02
FE
FF
02
FF
01
FF
FD
01
00
02
00
FF
00
00
00
FE
FE
FD
00
00
01
02
00
FF
FF
FF
02
01
01
01
FD
FF
FD
FF
01
00
FF
FB
FE
03
FE
00
01
01
01
FE
00
04
FF
02
00
03
00
01
01
01
01
02
FF
00
FF
03
02
FE
02
FE
02
04
01
03
02
FE
04
FF
00
FF
00
02
FE
01
00
FF
00
00
01
00
02
02
FF
00
01
01
01
FF
03
00
00
00
00
01
FE
FF
FF
01
FE
00
FF
FE
FD
00
00
FF
03
FF
FE
FE
FD
FF
FE
FF
01
FF
FE
FB
FD
00
FE
02
02
00
FB
FD
FB
FC
03
FF
02
00
FC
FF
FD
FB
01
FD
FE
00
01
00
00
FC
FE
00
01
FF
FF
FD
FF
00
FF
FC
02
FE
FE
FE
FF
FF
FD
FF
FF
00
FF
00
FF
FD
FF
FF
FF
01
FA
FD
FC
FF
00
00
FE
00
FD
00
01
02
FF
FF
FF
FF
FF
FF
FF
FF
00
FE
02
00
00
FF
00
FE
01
01
FF
00
02
01
01
FE
03
FC
FF
01
01
FE
FF
FE
FB
02
01
00
FD
FD
FD
01
FE
01
01
FF
FB
FC
FE
FF
FF
01
01
00
FD
FF
FD
FF
01
03
FF
FF
00
01
FF
FF
03
00
01
00
02
02
03
FF
01
02
02
00
03
00
01
00
00
FF
FE
02
FF
01
FF
FF
01
01
00
FF
03
FE
FE
01
00
01
02
00
01
FE
02
FD
01
01
02
02
FF
00
02
FD
00
04
00
01
FE
01
00
FF
FF
FF
01
FF
00
01
01
FF
00
01
FF
FF
01
00
00
00
00
01
FE
FF
FF
FF
01
01
FF
FF
FF
01
FF
01
01
01
00
01
04
FF
01
01
02
FF
00
00
FF
00
FF
02
01
FE
FF
01
FF
02
00
02
01
FF
01
00
FE
02
00
02
00
01
00
01
00
01
FF
01
00
01
01
00
03
FF
FE
01
00
00
00
01
FF
00
00
00
01
03
FE
FF
FF
00
00
00
00
01
FF
FF
00
00
01
01
01
00
FF
FF
00
00
02
03
01
FE
01
02
FF
00
01
01
02
FE
00
FE
FF
FF
FF
FF
FE
02
03
FF
FE
FD
00
FE
00
FE
00
01
FE
FD
01
FE
06
FD
FF
01
00
FC
01
FE
02
FE
FD
02
00
FF
00
FD
01
FE
FE
03
FE
00
00
00
FF
02
02
01
FD
00
01
02
00
01
01
01
00
00
01
00
FF
FF
02
00
00
00
00
00
00
01
FF
00
03
00
01
01
01
01
01
FF
00
00
00
FF
02
FF
02
FE
00
FF
FF
FD
FF
FD
FE
01
01
00
FD
FE
FC
FF
00
01
02
01
FC
FE
FE
FF
FF
FF
01
00
FF
FF
FF
00
01
03
00
FF
FD
00
01
00
00
02
02
01
FE
01
00
00
02
00
02
00
FF
FF
00
01
00
FE
01
FF
01
00
01
02
00
FF
00
FF
01
00
00
01
FF
01
00
00
02
01
02
01
00
02
00
FF
02
00
FF
02
FF
00
00
FF
00
01
00
01
FD
FF
01
00
FF
00
FF
01
00
00
00
00
FE
01
00
FF
FF
FF
FE
01
03
03
02
02
01
FF
00
00
02
00
00
00
FF
FD
02
01
FF
FF
00
00
FE
FE
02
00
FF
FD
FF
FF
FE
FF
02
00
FC
FD
FC
FE
00
00
FF
FF
FF
FF
02
00
FE
FE
FE
FF
00
FF
FD
01
FF
FD
FC
00
FF
FE
FE
03
00
FE
FD
00
FE
FF
FF
02
FF
02
01
00
02
02
FF
FD
01
FD
FF
00
00
03
00
02
01
FC
FD
01
FF
02
FC
01
02
F9
FE
FD
FE
01
FC
FF
FF
01
FF
FE
00
00
01
00
00
02
03
01
01
FE
02
00
00
FE
01
00
00
01
FE
00
FD
FD
00
FC
00
01
FD
FE
FF
FD
02
FB
00
FF
01
00
02
FF
01
FE
FE
00
01
01
00
00
FF
FA
00
00
00
01
FD
00
02
FF
FE
FF
01
00
01
FF
01
00
00
00
02
01
00
FF
FF
FE
00
01
FF
FF
00
00
02
FD
FD
01
00
FC
01
FD
03
FF
FE
FF
00
FC
FA
02
FF
01
00
02
02
00
01
01
01
01
FE
01
03
01
01
FF
02
FD
01
00
00
00
FC
FC
02
FD
01
FF
00
FF
FE
00
01
FF
FE
FD
FD
00
FF
00
FE
00
02
00
01
00
FF
FF
FE
01
00
FF
FE
FF
00
FF
FE
00
00
FF
FF
FC
00
FE
01
00
00
FE
00
00
FD
02
05
FF
01
01
02
02
02
02
FE
01
01
00
03
01
04
00
FC
00
01
02
01
FE
02
FC
01
00
00
FF
FF
00
00
FF
03
00
FD
FE
FF
FF
00
03
02
00
FF
00
00
FD
03
00
FE
00
FE
FF
FF
02
01
FE
00
00
FD
FD
FE
02
FE
00
03
01
FE
00
FE
FF
02
FD
00
00
FF
FE
FD
FD
FD
00
01
00
FC
FA
FD
FC
01
FE
01
00
02
01
00
02
FF
FE
01
00
00
FE
00
02
FB
00
00
01
FF
FD
FE
01
00
FE
01
00
FB
FF
FE
02
00
FB
02
00
FE
FE
FC
FE
FB
01
02
00
01
01
04
02
01
00
01
01
FE
01
00
02
FF
FD
00
00
FF
FE
FE
01
FD
00
FF
00
FB
FD
FB
FF
FF
00
00
00
FC
FF
FF
FD
FF
00
05
02
FF
00
03
01
01
FD
02
FE
00
02
01
00
02
01
FF
FF
02
02
00
01
00
02
00
02
03
00
02
01
01
FF
FF
00
00
FF
03
FF
00
FF
02
00
FE
02
FE
02
FF
FE
03
FC
00
00
FE
03
FD
FF
01
FD
02
FF
FF
03
FF
00
00
00
00
FF
02
01
FF
FE
FF
FE
FE
FF
00
01
FF
FE
01
FD
FF
FD
FB
03
FD
FE
00
FE
00
FE
FE
01
FF
01
FF
FE
FE
00
00
01
01
FF
01
00
FE
FF
01
00
FF
FB
00
FD
FF
FF
FF
01
FF
FC
FE
FE
00
FF
FD
00
00
FE
FE
00
01
00
FC
01
FD
01
02
01
00
01
00
01
01
00
FF
02
FF
00
00
FD
01
FD
00
FF
FF
FF
FC
00
01
00
FF
00
00
01
FE
FE
01
FE
02
FF
00
01
FF
01
FF
01
01
01
01
01
01
01
FE
FF
FF
00
01
01
00
FF
FE
FF
FF
02
00
00
FD
FF
03
FF
FE
01
FF
00
00
01
01
02
00
01
FE
FF
00
01
01
02
01
00
FF
00
01
01
02
01
01
00
00
00
01
00
02
FF
FF
01
FF
FF
FF
FC
00
00
FF
00
01
FF
03
02
00
FE
FF
00
03
01
03
04
FD
FE
01
01
01
FD
01
02
FF
02
02
00
FE
FE
FF
FF
01
FE
00
00
FE
FF
00
01
FF
FE
FE
FF
02
FD
FF
01
FD
FF
FD
00
01
FF
02
01
FF
FF
00
01
01
00
02
00
01
FE
00
FF
01
01
01
FF
FF
00
00
00
00
FF
00
00
FE
FF
FC
00
03
00
02
FF
00
FF
FF
00
00
00
01
01
FF
02
02
00
FF
FF
00
01
02
02
FF
00
02
03
02
00
03
FF
FB
FF
04
01
01
00
00
FF
00
00
00
01
01
00
01
FE
00
00
FF
FF
02
00
FF
00
FF
01
01
FF
FF
00
FE
01
FF
01
02
01
FE
01
01
00
FD
00
02
01
02
00
02
01
00
00
00
FF
00
FF
00
00
00
FF
FF
00
00
00
00
00
FF
00
00
00
00
00
00
00
00
FF
00
FF
00
FF
00
00
00
FF
01
00
00
00
00
00
FF
00
00
00
00
00
FF
FF
00
01
01
FF
00
00
01
01
00
00
FF
00
00
00
00
01
00
FF
00
00
FF
00
01
00
00
00
FF
00
00
FF
00
00
FF
FF
00
00
00
FF
00
00
00
00
00
00
00
00
FF
FF
FF
FF
FF
00
00
FF
00
FF
FF
00
FF
00
00
00
00
FF
00
00
00
00
FF
FF
00
00
00
00
00
01
00
FF
FF
00
00
00
FF
FF
FF
00
00
00
FF
00
00
00
FF
00
FF
01
00
01
01
00
FF
FF
FF
00
00
01
00
00
FF
00
00
00
00
FF
00
00
01
00
00
FF
00
01
00
00
00
FF
00
00
00
FF
01
00
FF
01
00
FF
00
01
00
00
00
00
FF
00
FF
00
00
FF
FF
FF
FF
00
00
01
00
00
FF
FF
00
00
00
01
00
FF
FF
00
00
00
FF
01
FF
01
00
00
01
00
00
01
FF
01
01
00
FF
00
00
01
00
00
FF
00
00
FF
FF
01
00
FF
00
00
00
00
FF
00
00
FF
00
00
01
FF
FF
01
FF
00
01
00
00
FF
FF
00
00
00
00
FF
00
00
01
FF
01
FF
00
01
01
00
FF
FF
FF
01
FF
00
00
00
00
00
FF
00
01
00
01
FF
FF
00
00
FF
00
FF
FF
FF
00
00
00
00
FF
00
01
FF
00
00
FF
00
FF
00
FF
FF
00
FF
00
FF
00
FF
00
00
FF
FF
00
00
FF
00
00
00
00
00
FF
00
01
FF
00
00
00
00
00
00
00
00
00
FF
00
00
FF
FF
00
00
00
00
FF
01
00
00
00
01
00
FF
00
00
FF
00
00
FF
00
FF
00
01
00
00
00
00
00
FF
01
00
FF
01
00
00
01
00
01
01
00
00
00
00
FF
01
02
00
00
01
02
FF
00
FF
00
01
00
01
FF
00
02
FF
02
00
01
01
00
02
02
01
00
01
00
01
01
00
01
03
00
02
01
01
01
FE
02
01
01
FF
00
01
00
00
00
00
01
FE
02
00
02
01
01
00
FF
FD
03
FF
00
00
01
04
FE
02
02
FE
02
00
00
03
FF
00
FF
01
02
00
01
02
FF
FF
01
FF
01
01
FE
01
00
FD
FF
FD
02
FF
00
00
00
00
FE
FF
00
FF
FE
01
00
00
FE
01
02
02
FF
FF
FD
FF
03
02
01
03
FF
00
01
FE
FF
00
00
01
FF
FF
FF
FF
00
FE
FF
FF
FF
FF
FE
FD
FE
00
FF
00
00
00
FD
FF
FE
01
01
01
00
FD
00
FE
FE
01
FF
FE
01
00
00
00
02
00
00
FE
00
01
FF
00
00
FF
02
FB
02
01
00
01
FF
FF
01
FE
FE
FF
02
FE
01
00
01
01
FE
FE
02
FE
02
FD
FE
01
01
02
FE
00
01
00
01
01
01
01
00
01
02
02
01
02
00
02
02
FF
00
02
02
01
FF
04
01
01
00
01
01
01
01
02
02
FF
01
01
01
01
02
00
01
FF
02
FF
01
00
FE
FE
00
01
00
FD
FF
00
00
00
01
00
FF
FE
FE
FF
01
00
02
00
FE
00
FE
FE
01
01
02
00
FF
FF
FF
FE
00
FE
01
01
00
FD
00
00
01
FE
01
FF
FE
FD
FE
FF
FF
FD
01
01
FF
FE
FF
FB
FE
FE
01
01
FD
FC
FF
FC
FF
00
FF
01
FD
FC
FD
FE
00
FF
00
FF
FF
FF
01
01
FF
FF
00
FF
FF
00
02
00
FF
00
FF
01
02
00
04
FF
FE
FF
01
00
00
FE
02
00
FC
FE
00
00
FF
00
02
02
FE
FE
01
FF
FE
FD
FE
FE
00
FF
01
01
FD
FF
FE
FD
FF
FF
FF
01
01
00
00
FF
FE
FE
00
FF
FE
FE
FF
02
FD
FE
00
00
FD
FD
FB
FF
FF
FF
FD
02
03
FB
02
FF
01
04
FD
01
00
FF
02
FD
00
04
01
02
FE
FC
01
02
FF
FE
00
02
03
FB
FF
01
00
FF
03
FF
00
FE
FB
02
FF
FF
FC
FD
02
FE
FE
FE
00
03
FE
02
FF
00
03
00
FF
03
00
01
FE
FF
01
00
01
01
01
01
00
FC
01
01
00
00
FD
FF
FF
FC
FB
03
00
01
FE
00
01
FE
FF
FF
FD
FF
FE
00
02
FF
FE
FF
01
01
FD
FF
00
01
00
00
01
00
FC
02
00
FE
01
FB
00
00
FC
FE
00
FC
FD
FF
02
01
FF
02
FF
01
02
FE
01
FF
00
FE
00
FC
FE
FD
00
01
FE
01
FF
FF
01
FC
FC
01
FC
01
FE
01
01
00
FD
FF
FD
03
FE
FE
01
FF
00
01
FF
01
FE
FE
03
FE
01
FF
FF
FE
00
FD
FE
01
00
01
FE
00
00
FE
01
FF
FD
00
FD
01
00
00
01
00
FD
04
00
03
FD
01
02
01
00
FF
FB
01
FF
01
FD
FD
00
02
00
01
FE
FF
FF
02
04
04
FF
01
02
02
00
00
02
04
FD
00
01
01
00
00
FF
02
FD
00
FE
FD
FE
01
FF
FF
FC
01
FB
FF
FE
FD
01
02
01
00
00
00
02
FE
03
03
00
00
05
01
03
FE
02
FB
FD
00
02
00
03
FE
FE
FF
00
00
00
FC
FD
FE
01
00
FE
00
FC
00
FE
FE
FC
01
FE
01
FE
FE
00
FE
02
01
00
00
FE
00
00
FC
01
FC
FC
01
00
00
03
FE
00
FF
FE
00
01
FE
FE
FD
FB
00
FF
00
FE
01
00
FE
01
FF
FF
00
00
03
00
FF
FE
01
01
01
FF
FE
01
FE
FF
02
FD
00
FF
FF
FE
FD
03
00
00
00
FF
01
FF
FF
FF
FE
FE
FF
FE
FE
FE
FD
FE
FD
00
00
FD
FE
02
FC
FE
FF
01
00
FE
FE
02
FE
FF
FF
00
00
00
FE
01
00
FF
01
01
00
FF
FF
FE
FF
02
00
02
00
00
02
01
01
01
FF
01
FF
00
00
00
FF
02
FE
01
FE
FF
FF
00
FF
00
00
FF
02
00
FF
00
00
FE
02
FE
01
FE
00
FF
01
FE
00
03
03
01
01
00
02
00
FF
02
00
00
00
FF
00
03
00
00
FE
01
FF
00
01
00
01
FE
FF
00
01
00
02
FF
01
FD
FF
FE
01
00
00
FF
FF
03
01
01
01
FF
01
02
FE
01
FF
00
00
FF
00
02
FF
FF
00
FF
00
FF
00
02
FF
FB
00
00
03
01
01
01
00
FE
00
FF
04
01
FF
01
00
01
01
00
FE
00
FF
FE
FF
00
FE
00
FD
FF
00
FF
FE
FE
FD
01
FD
FE
FE
FF
00
FE
FD
01
FE
FF
00
FF
01
01
01
01
FF
03
FD
02
01
FE
00
00
00
00
FD
01
02
FB
00
FE
FE
00
FB
FF
02
FE
FE
FE
FE
01
FD
FE
02
FE
00
FF
FE
02
FE
FC
00
FF
02
FF
FF
02
00
FE
01
00
00
02
01
02
00
00
00
FE
FF
02
01
01
FF
FF
00
00
00
01
FF
00
FF
00
02
00
00
FF
00
00
FF
00
01
FF
00
00
FF
01
FD
01
00
01
FF
04
02
02
00
01
00
FE
01
02
02
03
01
01
02
FF
00
02
02
03
00
01
00
FF
01
01
00
02
FF
00
01
02
00
FF
00
02
02
FF
01
FF
00
02
02
00
01
02
01
FE
FF
02
00
01
00
02
00
FE
01
01
01
01
01
00
00
00
00
FF
00
02
02
00
FF
02
00
00
00
03
01
FF
00
FE
FF
FF
FF
FE
00
00
00
FD
FF
00
FF
FF
00
00
FF
FF
00
00
FE
01
00
FE
00
01
00
FE
FB
FF
00
FF
00
03
00
FB
FE
FF
FF
00
00
FD
FF
FD
FE
FC
FC
01
FE
FF
FF
FE
FE
FE
FE
FF
FC
00
00
FD
FD
FF
FD
FE
FD
03
00
FF
FB
00
FD
FD
02
01
01
00
FF
FD
FC
FE
FD
FD
00
01
FC
FB
01
00
FE
01
01
00
01
FF
01
FE
00
01
01
00
01
FE
02
FD
FE
02
FE
00
FF
FF
01
00
00
03
01
00
FF
FE
FF
02
00
FC
01
01
00
02
FE
00
02
FF
01
01
FF
FF
FE
00
01
00
03
FF
FF
FF
FD
02
00
00
00
FF
00
FD
FF
02
FF
01
02
05
00
FF
FF
02
03
FF
03
01
00
04
FE
00
03
FF
03
00
01
01
00
FF
01
00
01
FF
FF
01
00
FE
00
01
FF
00
FF
FF
FF
01
02
FE
FE
02
FF
00
FE
FF
02
FE
02
00
00
02
FF
01
00
00
01
00
02
00
FF
01
FF
00
00
01
00
01
FF
00
00
00
FE
FE
FF
01
00
00
FF
00
FE
01
FF
00
FD
FC
02
01
02
01
01
03
00
00
00
01
01
00
01
00
00
01
FE
02
00
00
01
00
01
00
FE
00
FB
FE
01
00
FF
FF
00
FE
FD
FD
00
00
FF
FE
FD
00
00
FF
FE
FD
FE
FE
FD
01
00
FF
FE
FE
01
FE
FE
01
00
FF
FF
00
02
FF
01
02
00
00
01
00
01
01
02
FF
00
01
03
02
04
01
FF
FF
FF
FD
FF
FD
FF
00
02
02
00
FE
02
FF
FE
03
01
00
FF
FF
02
FF
FF
01
00
FF
00
02
01
00
02
01
05
FE
00
02
01
FF
02
03
02
01
00
FE
01
FE
FD
01
01
01
01
FE
00
FF
FD
03
00
FF
00
00
FF
FE
00
00
02
FE
00
01
FE
FE
01
01
02
FF
00
00
00
FE
FF
01
02
01
FF
FD
00
FE
FF
00
00
01
01
FF
FF
FF
01
00
FE
00
00
FE
FE
FF
01
FF
FF
01
01
FF
00
FE
01
FF
FE
00
01
FE
FC
FC
FB
FE
01
00
01
FF
01
01
02
00
02
01
01
01
01
01
01
01
FF
FE
00
FF
FF
00
01
FF
FE
FF
00
FF
FE
FF
00
FF
FD
00
00
FB
FD
FD
FE
FE
FF
FF
00
FE
01
FE
01
02
FA
03
01
03
01
FB
04
01
FC
00
FF
04
01
FF
03
01
FC
00
FF
02
00
FE
03
02
FE
01
03
01
00
FD
00
02
00
00
01
FE
00
00
FF
03
FF
00
00
00
01
FF
FF
FF
FE
FF
00
01
01
00
01
02
FF
01
FF
02
01
FE
01
01
FF
FF
00
01
01
FE
FF
01
01
00
FF
01
FD
01
FE
00
01
FF
00
FF
00
FF
FF
FF
FE
00
FF
00
01
00
01
FE
00
03
FF
02
FF
00
FF
02
FF
00
FF
FF
FF
00
00
02
02
FE
FF
FF
00
02
FF
00
00
00
FF
FE
00
FF
FF
FE
01
03
01
00
FF
02
00
FE
FF
00
FF
01
00
00
FE
FF
00
FF
00
02
FE
00
FF
00
FD
00
FF
FF
00
FE
03
00
FD
01
F9
01
FE
FC
02
FE
00
00
FD
02
FC
02
FF
FD
00
00
FF
01
FB
01
FF
FD
03
FE
00
FC
FC
01
FD
00
FD
FF
00
00
00
FF
00
01
FE
FC
00
01
01
00
02
FE
00
FF
FF
02
02
02
02
02
02
FF
FF
02
03
01
02
03
FF
FB
FF
01
01
02
02
01
FF
00
FF
00
02
00
00
00
FE
00
00
00
01
01
00
00
00
00
00
00
01
00
03
01
01
FF
FF
03
02
02
03
01
02
FD
00
02
01
00
03
01
00
00
00
FD
FE
FF
FF
00
00
03
00
FE
FE
FE
FF
FF
FF
01
00
FF
FE
FF
02
FD
02
01
FF
00
FF
00
00
02
FE
FF
00
01
00
FF
00
00
FF
00
00
FD
FE
FD
00
FF
01
01
00
00
00
FF
02
FF
FF
01
00
02
FF
01
01
FC
02
01
01
00
FD
FF
00
FF
00
01
00
FD
00
FE
FD
00
FC
FD
00
02
00
01
01
FD
FE
00
00
00
FC
FF
00
FE
00
01
00
FF
FC
FC
00
00
FF
00
00
FF
FE
FD
FE
00
00
FF
00
FD
FF
FE
FC
01
01
05
FF
00
02
03
02
FE
01
01
00
03
01
03
00
01
03
FF
FF
03
01
03
02
01
03
FC
00
FF
01
00
02
FF
03
FD
01
FF
01
02
03
FF
00
01
02
FF
02
FE
03
01
FF
00
FF
00
00
00
04
03
01
00
00
01
00
FF
03
02
02
FF
02
01
00
00
FF
00
FF
00
FF
00
01
01
FD
FF
01
00
FF
02
FE
00
03
00
01
02
FD
FF
FE
02
FF
01
01
01
FF
FF
FE
00
FF
01
01
00
01
02
FF
00
FF
01
FF
03
02
02
00
01
FF
00
01
01
FE
01
FF
02
00
FC
00
01
FE
00
FF
01
FE
00
00
FF
01
FF
FF
00
FE
FF
00
00
00
00
FF
FE
00
00
00
00
00
FF
FF
00
02
04
02
FE
01
00
FF
06
FE
01
02
FF
02
01
00
01
FC
00
00
FF
03
FF
01
FE
FF
FE
00
FE
00
00
03
00
FF
02
FE
FF
00
01
00
02
01
03
01
00
00
03
01
03
FF
00
02
01
00
01
02
02
FF
00
02
00
FF
01
00
01
FF
01
02
02
FF
FF
00
01
FF
00
01
03
00
01
00
01
FD
00
01
01
FF
03
03
04
00
FE
01
00
01
04
01
05
01
01
01
FF
00
03
03
04
00
02
00
01
01
00
01
01
00
01
FF
03
00
FF
00
02
01
FF
FF
FF
00
FF
FE
FD
01
01
FF
00
00
FE
FF
FF
FF
02
00
FF
00
FF
FF
00
FF
02
02
01
00
00
00
FE
00
01
FF
04
00
00
02
02
03
02
FE
00
00
FD
F9
FC
FF
FC
FF
01
00
FA
FA
FC
FE
00
FF
00
01
FF
00
02
FE
00
01
00
01
02
02
04
01
00
00
01
00
03
03
03
02
02
FF
03
00
FD
FF
FD
FD
00
FE
03
00
FD
00
FE
FD
00
FF
FF
01
FE
FF
FE
FD
FF
00
FF
00
00
FD
FD
FD
00
FF
00
00
00
FF
FE
FE
FF
FE
FF
01
FF
01
FE
00
02
00
FE
01
00
01
FC
01
01
00
FE
02
01
02
04
FF
01
FD
FE
00
FE
02
00
FF
02
FE
01
00
FE
00
FF
01
02
00
00
FF
00
00
FF
FF
FD
FE
FE
00
01
FF
00
00
FF
02
FD
01
00
01
00
01
00
FF
FF
01
FF
02
00
FF
01
FF
03
01
00
00
FF
FE
00
02
00
FF
00
FE
00
00
FE
00
00
01
00
00
01
FE
FD
03
00
FF
00
FF
01
01
FC
01
03
02
00
FD
FF
FF
01
00
03
03
01
FD
01
FE
02
01
FE
02
FF
00
00
01
01
FF
00
FF
01
FF
FE
00
FE
02
01
00
01
FF
00
01
FF
01
FE
00
02
00
00
02
01
01
FC
FF
00
FF
02
FF
01
00
00
02
FF
01
FF
04
02
FD
01
FF
00
00
FD
05
00
FF
01
FE
00
01
FD
02
02
FF
00
FD
FF
02
FF
FE
FF
01
00
FB
FE
00
02
FA
FE
01
FE
00
FE
01
01
02
FF
01
FE
00
01
00
01
01
01
FF
00
01
02
01
01
01
00
FF
FE
00
01
00
01
00
FF
FF
FD
00
00
FF
FF
FF
00
00
FF
01
FE
FE
FF
01
FD
01
00
FF
FF
FD
FE
01
01
01
00
00
00
00
00
01
00
01
00
FF
00
01
01
00
01
FF
01
00
00
01
FF
01
FE
02
00
FF
01
01
03
FE
00
00
00
00
00
00
FF
01
FD
02
02
FF
FF
FD
FF
03
FF
03
02
00
00
02
FE
01
01
02
FD
FF
01
02
FF
FD
02
00
FF
00
02
03
02
00
00
00
FE
00
03
00
01
00
00
00
FF
00
01
00
FD
00
01
01
00
00
02
02
00
FF
01
01
FE
01
01
FF
FC
FC
00
00
FE
00
04
01
04
00
00
01
FD
00
03
01
02
01
01
01
FF
FF
00
00
FF
00
00
FF
02
01
00
FF
FF
00
01
FD
03
00
FF
FD
FF
FD
FF
FF
01
FF
01
01
FF
FF
00
FF
03
00
02
01
FF
01
01
FF
01
01
03
02
00
03
00
FF
02
00
FF
02
01
04
00
FD
03
00
FF
00
FE
02
00
00
FE
01
FE
02
FE
00
01
01
00
FE
01
02
00
03
00
FF
FF
00
02
00
01
02
00
01
01
00
00
01
FE
04
00
FD
01
01
00
00
FD
02
00
00
00
FD
01
FD
FC
00
FE
02
01
FF
00
FF
00
FF
FE
00
00
FF
00
01
01
FF
FD
FE
01
FF
01
00
FF
02
02
FF
FD
00
03
02
FF
03
03
00
00
FF
FF
FE
FE
00
01
00
00
FF
00
00
FE
FF
FF
FF
01
01
00
FE
00
FE
FF
FE
FF
FE
FF
FE
FF
01
01
FE
00
FE
03
00
FF
FF
02
00
FF
FE
00
FF
00
01
01
01
00
00
00
00
FF
02
01
FF
00
FF
00
00
00
00
FF
FE
00
FE
FF
FF
00
00
00
FD
01
FC
01
FD
FF
02
FE
00
00
00
01
00
02
FE
FF
01
FF
00
03
02
02
01
00
01
00
00
01
01
01
01
00
00
01
00
01
02
01
01
01
00
FE
FF
00
FF
01
02
FE
FF
FE
00
01
01
02
01
FF
FE
00
00
03
FF
02
02
FF
01
00
00
02
01
03
00
00
04
FF
00
04
01
01
02
02
01
FC
00
01
02
02
04
FE
00
FF
01
02
FE
01
FF
FF
FE
01
FF
00
FF
00
FF
FF
FE
00
00
02
FF
01
00
FF
02
FE
01
03
00
01
FE
01
03
FC
00
02
01
02
FF
02
FF
FE
FF
00
01
02
00
FD
00
FF
FF
00
FF
01
02
FF
00
FF
01
00
00
01
01
01
01
FE
01
02
00
03
02
01
00
FF
00
00
FF
01
02
01
FE
00
00
00
FE
FF
FE
00
00
FF
00
01
FF
00
FE
00
FF
01
01
00
00
FE
00
01
FF
00
00
00
FE
FE
00
FF
FD
00
00
FF
FD
FE
FE
FE
02
FB
01
00
FD
00
FE
FF
04
01
01
FC
FF
05
00
FE
02
02
02
FD
FE
FF
FF
FE
00
02
FF
00
01
00
01
FF
FF
01
00
00
03
FF
02
FF
03
00
02
00
02
03
FD
04
02
FE
02
FF
02
01
00
02
FF
00
02
FE
00
00
FD
01
FF
01
FF
FE
FF
FF
00
02
00
02
01
04
FF
00
01
00
00
01
02
FF
04
01
00
01
00
01
00
FF
00
00
01
04
00
FF
01
03
FE
01
FE
02
01
FF
FF
00
FE
02
FE
00
02
FF
FE
02
FE
00
00
FE
01
03
00
FF
00
01
01
00
FF
01
00
01
00
00
02
01
01
FF
FF
01
00
FF
01
01
02
00
01
00
01
02
00
FD
00
00
01
00
01
00
FF
FE
01
00
01
FF
01
01
FF
01
FE
FF
01
FE
02
FF
FE
01
FF
FF
FF
FE
FF
00
FE
00
00
00
00
FE
FF
00
FF
FF
FF
FE
00
00
00
00
02
00
FE
03
FF
01
FF
FD
FB
FE
FE
01
00
00
FE
FE
FB
FE
FE
02
00
FF
FE
00
FE
FD
FF
01
00
FF
FE
00
01
00
FF
03
FF
00
01
02
03
FF
FF
01
FF
FE
01
FE
FC
02
00
02
01
FF
00
FE
FE
FF
01
FF
00
00
01
00
01
01
00
00
00
01
01
00
00
02
01
FF
00
01
01
01
02
01
02
00
01
FE
FF
FF
01
01
00
01
00
00
01
00
01
02
01
FF
01
01
02
01
00
00
00
FE
01
00
FF
00
FF
01
00
00
FF
FE
FF
FE
00
00
FF
01
00
00
FE
FF
02
FF
FF
FF
00
FE
FF
FF
FF
00
00
00
00
FF
FE
FF
00
FE
00
FF
00
FE
FF
FF
FF
00
FF
00
00
00
FE
00
FF
00
02
01
01
FF
00
00
02
01
01
01
00
00
01
00
01
00
FF
01
00
FF
FF
01
01
FF
FF
FF
00
01
FF
01
00
FE
01
FE
00
00
00
00
01
FF
01
00
FE
FF
00
FF
00
FF
FF
00
00
FE
01
00
00
00
FD
FF
FF
FF
00
00
FE
FE
FF
FF
FE
02
00
00
FF
FF
01
01
01
02
FF
FF
FF
01
00
01
01
FF
FF
00
01
FF
FE
01
FF
00
FF
FF
01
01
FE
00
00
FF
00
FF
00
01
FD
01
FE
00
01
FE
01
FF
FE
FE
FE
FF
02
00
FF
00
01
FF
02
FD
03
01
01
01
FD
01
02
FF
03
FF
FF
00
FF
FF
FD
FF
00
FD
FF
FF
FF
FE
FF
00
FF
FF
FF
01
FE
FF
00
01
01
FF
00
FF
00
01
FF
00
00
FF
00
FE
FF
00
FF
00
FF
FF
FE
FF
00
00
FF
00
FD
00
00
00
01
FF
FF
02
FF
01
FE
FE
FF
00
FF
03
00
01
00
00
01
02
00
FF
01
01
00
FF
FF
FF
FF
FF
00
FF
00
FE
FF
FF
FE
00
00
00
FE
FF
02
00
00
FE
FF
01
00
00
FF
00
00
00
FE
00
FF
FF
01
FF
00
02
00
01
00
01
00
00
00
01
FF
00
02
FE
FF
FF
00
01
FF
00
02
FD
01
00
01
00
FF
00
01
00
00
FE
FF
00
01
00
01
01
FF
FF
00
00
FF
00
01
00
01
FF
00
01
FE
FE
01
FF
00
FE
FF
02
FF
FE
00
FF
FF
FF
00
01
FF
00
FF
FE
00
01
00
FF
00
00
FE
00
00
00
FF
02
01
00
00
01
FD
FF
01
02
00
01
00
FE
FD
FE
00
00
FF
00
00
FE
FF
FF
00
FF
FF
FE
01
FF
00
00
00
FF
FF
FF
02
FF
00
02
00
FF
FD
FE
01
00
00
FF
01
FF
00
00
01
00
FF
FE
00
00
00
01
FF
01
FD
00
00
02
00
FF
FE
FE
FF
FF
00
00
FF
00
FF
FE
FE
00
01
00
FF
FD
00
00
FE
FF
00
FE
FE
FF
FF
FE
00
01
00
FE
FF
FF
00
02
01
FF
01
00
01
00
01
00
00
FF
01
01
01
00
00
FF
01
02
01
00
01
01
01
00
00
01
01
02
01
FF
00
FF
FC
02
FE
04
01
00
FF
01
00
00
FF
00
00
01
FE
01
00
02
FE
FF
FF
00
FF
FF
FF
00
00
00
02
FE
01
FE
FF
01
02
02
01
FE
FE
01
01
FF
FF
01
00
FF
01
00
FF
01
00
FF
02
02
00
FF
FF
02
FD
FD
02
FE
00
FE
FF
02
FE
FF
FE
FB
03
00
FE
01
01
02
02
FC
00
00
01
00
FF
00
03
00
FF
01
01
02
02
FF
00
00
00
FF
FD
03
00
01
FF
FE
01
02
FF
FF
FD
FF
FD
FE
02
FE
01
00
FF
00
FE
FE
01
FE
01
03
01
FF
00
01
02
FD
01
02
01
01
01
FF
02
01
FD
03
FE
03
00
FF
03
01
00
FC
FE
FE
FF
FF
01
00
02
FD
00
FF
FF
03
01
01
00
FF
02
FE
00
02
FE
00
02
FF
00
01
02
01
FF
FF
FF
00
01
FF
01
00
FE
FE
03
FF
00
FD
01
02
04
02
00
00
00
01
01
01
02
01
FE
FE
00
FF
00
00
02
00
FF
FF
00
FF
00
FE
01
00
FF
FD
01
FF
FF
FE
FE
01
01
FF
00
FE
00
00
04
FF
02
FF
FF
01
01
01
02
01
FE
00
01
FF
00
FE
02
FE
FF
01
FF
00
FE
01
00
FE
FE
01
01
01
00
01
00
FE
02
FF
FF
00
00
03
01
01
02
FF
01
03
04
02
02
FF
00
01
00
FF
FE
FF
03
00
00
00
00
FE
01
FF
04
00
02
FE
00
01
01
00
03
00
00
FF
00
02
FF
02
FF
FF
01
00
00
01
02
01
01
FF
FF
01
00
00
FE
FF
00
00
00
00
00
01
00
00
01
00
FF
00
FF
03
00
FF
00
00
FE
01
00
03
00
FF
FF
FF
00
FF
00
00
00
01
00
01
01
01
00
00
00
01
01
01
00
01
FF
02
01
00
01
01
FE
01
00
02
01
00
FF
01
FF
FE
01
00
00
FF
FE
01
03
03
03
00
02
01
00
01
02
04
04
00
02
01
01
01
FE
01
01
FC
01
01
01
01
FE
01
FF
FE
03
FE
02
FE
01
FF
01
FE
02
00
FF
FD
FF
02
00
00
01
01
02
FF
00
01
00
00
00
01
03
FF
FE
00
00
FF
00
FF
01
01
FF
01
03
01
01
FD
02
FE
00
01
FF
FF
00
FC
00
FE
FF
03
02
01
01
00
FF
FE
02
00
00
01
01
01
01
FF
FD
00
FF
00
FE
00
01
01
00
FF
FF
04
FD
FD
04
00
FD
00
FC
FD
01
FA
04
00
00
01
FF
00
01
00
00
FF
01
FF
00
00
FE
01
00
00
FE
FE
FF
00
FF
FF
02
01
FE
FB
FF
02
00
FD
05
FF
FC
01
FD
FE
FF
FC
03
00
00
01
FF
FF
FF
FF
02
FF
FC
FF
FE
00
00
02
01
00
FE
FD
FE
01
00
FE
00
00
00
FE
FE
FF
FE
FE
00
00
02
01
FF
FE
00
00
FF
00
02
00
00
00
01
FF
00
01
01
00
00
00
01
00
01
FF
FF
FE
FF
01
00
02
02
FE
FF
01
00
00
FF
01
01
FE
01
00
00
FF
FE
01
FE
FF
FE
00
00
02
FE
FF
01
FE
FF
FF
00
01
FF
01
01
FF
03
FC
00
01
01
01
00
02
01
FC
01
FF
01
01
03
FF
02
00
00
00
FF
02
02
FF
FF
00
FF
01
00
FF
01
FE
00
00
00
02
FF
02
00
00
00
FE
FF
01
01
01
FE
01
02
FA
00
02
01
01
FF
01
00
FF
00
03
01
04
01
FE
00
FE
FF
01
01
01
02
FF
00
00
00
01
01
01
00
01
01
FC
00
02
02
04
FF
02
01
FD
00
03
01
01
FE
02
00
FE
00
04
00
03
01
00
FF
FE
00
02
01
02
02
FF
FF
00
FF
00
FF
FF
01
00
01
FE
00
01
00
00
00
02
00
01
FF
01
02
03
00
02
00
FF
01
01
01
03
00
00
01
FF
FE
FE
00
01
FE
FF
02
01
00
FE
FF
01
02
FD
FF
01
01
FF
FF
02
04
FF
01
00
FD
FC
00
00
04
FF
FE
FF
00
00
FF
01
00
01
FE
00
FE
FF
00
00
01
FD
01
00
FF
00
00
01
02
FC
FF
01
FF
FE
00
01
04
FF
00
FF
00
FE
FF
FF
00
01
FE
FF
FE
00
FE
00
FF
01
FF
FE
FC
02
00
FE
FE
01
01
00
00
FF
00
01
FE
FF
FE
00
FE
FF
01
01
FF
FE
01
00
FE
03
FF
FE
FE
02
FC
FF
FE
FF
00
FC
FF
00
00
FF
00
01
01
02
00
FE
02
02
00
FE
02
01
02
00
FE
01
FF
01
02
00
02
00
FF
FF
00
FE
FE
FE
01
00
FF
FD
FE
01
00
FD
FF
FE
01
FF
00
01
00
04
00
FD
01
00
00
FD
01
01
FE
FE
00
00
02
01
01
00
03
FF
FF
00
01
00
FF
FF
00
01
FC
FF
00
01
00
FF
FD
FF
FF
00
00
FF
FD
FF
FF
00
00
02
FF
FE
FE
FE
FD
FF
FD
00
01
01
FE
00
FD
FE
FE
01
00
FF
FF
00
FE
FF
01
FF
00
01
00
02
00
01
FE
FF
01
01
01
01
02
FF
FE
02
01
FF
FF
00
00
FF
00
01
00
00
FE
03
FE
02
FF
01
FF
01
02
03
00
01
00
FE
01
00
FF
FF
00
00
FF
00
00
FE
FE
00
00
00
FF
01
00
FD
FF
02
FF
FF
00
01
00
FE
FF
01
FE
00
03
01
01
FF
00
FF
00
01
FF
FF
01
FF
FE
FD
FD
01
FE
01
00
FF
FE
