0000001E
0000012F
00000116
00000171
FFFFFFFE
000001ED
00000000
00000000
000000C3
FFFFFF6A
FFFFFFA8
00000082
00000062
00000007
000000D6
FFFFFFB1
FFFFFFA7
FFFFFF5C
0000009F
FFFFFF8F
00000085
00000039
FFFFFF7A
0000005A
FFFFFFB5
00000000
00000000
00000000
00000000
00000000
00000000
00000000
00000012
00000000
00000000
00000000
00000000
00000000
00000000
00000000
FFFFFF97
00000000
00000000
00000000
00000000
00000000
00000000
00000000
00000004
00000000
00000000
00000000
00000000
00000000
00000000
00000000
0000002E
00000000
00000000
00000000
00000000
00000000
00000000
00000000
FFFFFFF9
00000000
00000000
00000000
00000000
00000000
00000000
00000000
0000002D
00000000
00000000
00000000
00000000
00000000
00000000
00000000
FFFFFFEC
00000000
00000000
00000000
00000000
00000000
00000000
00000000
FFFFFFFA
00000000
00000000
00000000
00000000
00000000
00000000
00000000
FFFFFFD5
00000000
00000000
00000000
00000000
00000000
00000000
00000000
0000005B
00000000
00000000
00000000
00000000
00000000
00000000
00000000
00000021
00000000
00000000
00000000
00000000
00000000
00000000
00000000
00000056
00000000
00000000
00000000
00000000
00000000
00000000
00000000
00000007
00000000
00000000
00000000
00000000
00000000
00000000
00000000
FFFFFFFD
00000000
00000000
00000000
00000000
00000000
00000000
00000000
00000020
00000000
00000000
00000000
00000000
00000000
00000000
00000000
00000063
00000000
00000000
00000000
00000000
00000000
00000000
00000000
FFFFFFD7
00000000
00000000
00000000
00000000
00000000
00000000
00000000
FFFFFFAF
00000000
00000000
00000000
00000000
00000000
00000000
00000000
000000B8
00000000
00000000
00000000
00000000
00000000
00000000
00000000
00000003
00000000
00000000
00000000
00000000
00000000
00000000
00000000
00000021
00000000
00000000
00000000
00000000
00000000
00000000
00000000
FFFFFFA2
00000000
00000000
00000000
00000000
00000000
00000000
00000000
FFFFFFF0
00000000
00000000
00000000
00000000
00000000
00000000
00000000
FFFFFF82
00000000
00000000
00000000
00000000
00000000
00000000
00000000
0000005C
00000000
00000000
00000000
00000000
00000000
00000000
00000000
00000047
00000000
00000000
00000000
00000000
00000000
00000000
00000000
00000006
00000000
00000000
00000000
00000000
00000000
00000000
00000000
0000006B
00000000
00000000
00000000
00000000
00000000
00000000
00000000
0000003B
00000000
00000000
00000000
00000000
00000000
00000000
00000000
00000008
00000000
00000000
00000000
00000000
00000000
00000000
00000000
0000003B
00000000
00000000
00000000
00000000
00000000
00000000
00000000
00000055
00000000
00000000
00000000
00000000
00000000
00000000
00000000
00000038
00000000
00000000
00000000
00000000
00000000
00000000
00000000
00000022
00000000
00000000
00000000
00000000
00000000
00000000
00000000
0000009A
00000000
00000000
00000000
00000000
00000000
00000000
00000000
00000078
00000000
00000000
00000000
00000000
00000000
00000000
00000000
00000016
00000000
00000000
00000000
00000000
00000000
00000000
00000000
0000007B
00000000
00000000
00000000
00000000
00000000
00000000
00000000
FFFFFFAE
00000000
00000000
00000000
00000000
00000000
00000000
00000000
0000003E
00000000
00000000
00000000
00000000
00000000
00000000
00000000
00000033
00000000
00000000
00000000
00000000
00000000
00000000
00000000
00000050
00000000
00000000
00000000
00000000
00000000
00000000
00000000
FFFFFFF0
00000000
00000000
00000000
00000000
00000000
00000000
00000000
0000005D
00000000
00000000
00000000
00000000
00000000
00000000
00000000
0000003D
00000000
00000000
00000000
00000000
00000000
00000000
00000000
FFFFFFD6
00000000
00000000
00000000
00000000
00000000
00000000
00000000
00000037
00000000
00000000
00000000
00000000
00000000
00000000
00000000
FFFFFFDB
00000000
00000000
00000000
00000000
00000000
00000000
00000000
FFFFFFAD
00000000
00000000
00000000
00000000
00000000
00000000
00000000
00000073
00000000
00000000
00000000
00000000
00000000
00000000
00000000
00000023
00000000
00000000
00000000
00000000
00000000
00000000
00000000
00000031
00000000
00000000
00000000
00000000
00000000
00000000
00000000
FFFFFFE2
00000000
00000000
00000000
00000000
00000000
00000000
00000000
00000059
00000000
00000000
00000000
00000000
00000000
00000000
00000000
FFFFFF8F
00000000
00000000
00000000
00000000
00000000
00000000
00000000
FFFFFFED
00000000
00000000
00000000
00000000
00000000
00000000
00000000
FFFFFFD5
00000000
00000000
00000000
00000000
00000000
00000000
00000000
FFFFFFAE
00000000
00000000
00000000
00000000
00000000
00000000
00000000
00000085
00000000
00000000
00000000
00000000
00000000
00000000
00000000
FFFFFFCB
00000000
00000000
00000000
00000000
00000000
00000000
00000000
00000032
00000000
00000000
00000000
00000000
00000000
00000000
00000000
FFFFFFC8
00000000
00000000
00000000
00000000
00000000
00000000
00000000
FFFFFFE9
00000000
00000000
00000000
00000000
00000000
00000000
00000000
00000016
00000000
00000000
00000000
00000000
00000000
00000000
00000000
00000028
00000000
00000000
00000000
00000000
00000000
00000000
00000000
0000004A
00000000
00000000
00000000
00000000
00000000
00000000
00000000
FFFFFFE8
00000000
00000000
00000000
00000000
00000000
00000000
00000000
FFFFFFEC
00000000
00000000
00000000
00000000
00000000
00000000
00000000
0000004F
00000000
00000000
00000000
00000000
00000000
00000000
00000000
000000AD
00000000
00000000
00000000
00000000
00000000
00000000
00000000
0000009B
00000000
00000000
00000000
00000000
00000000
00000000
00000000
FFFFFF84
00000000
00000000
00000000
00000000
00000000
00000000
00000000
00000097
00000000
00000000
00000000
00000000
00000000
00000000
00000000
00000023
00000000
00000000
00000000
00000000
00000000
00000000
00000000
00000029
00000000
00000000
00000000
00000000
00000000
00000000
00000000
FFFFFFDF
00000000
00000000
00000000
00000000
00000000
00000000
00000000
00000060
00000000
00000000
00000000
00000000
00000000
00000000
00000000
00000047
00000000
00000000
00000000
00000000
00000000
00000000
00000000
0000001F
00000000
00000000
00000000
00000000
00000000
00000000
00000000
00000083
00000000
00000000
00000000
00000000
00000000
00000000
00000000
FFFFFFA0
00000000
00000000
00000000
00000000
00000000
00000000
00000000
0000001B
00000000
00000000
00000000
00000000
00000000
00000000
00000000
FFFFFF9D
00000000
00000000
00000000
00000000
00000000
00000000
00000000
0000006E
00000000
00000000
00000000
00000000
00000000
00000000
00000000
0000008C
00000000
00000000
00000000
00000000
00000000
00000000
00000000
00000008
00000000
00000000
00000000
00000000
00000000
00000000
00000000
00000011
00000000
00000000
00000000
00000000
00000000
00000000
00000000
FFFFFF8B
00000000
00000000
00000000
00000000
00000000
00000000
00000000
00000024
00000000
00000000
00000000
00000000
00000000
00000000
00000000
FFFFFFCF
00000000
00000000
00000000
00000000
00000000
00000000
00000000
FFFFFFCA
00000000
00000000
00000000
00000000
00000000
00000000
00000000
00000069
00000000
00000000
00000000
00000000
00000000
00000000
00000000
00000027
00000000
00000000
00000000
00000000
00000000
00000000
00000000
0000004A
00000000
00000000
00000000
00000000
00000000
00000000
00000000
FFFFFFEC
00000000
00000000
00000000
00000000
00000000
00000000
00000000
00000021
00000000
00000000
00000000
00000000
00000000
00000000
00000000
FFFFFFC2
00000000
00000000
00000000
00000000
00000000
00000000
00000000
FFFFFFED
00000000
00000000
00000000
00000000
00000000
00000000
00000000
FFFFFFFB
00000000
00000000
00000000
00000000
00000000
00000000
00000000
0000004E
00000000
00000000
00000000
00000000
00000000
00000000
00000000
FFFFFFBE
00000000
00000000
00000000
00000000
00000000
00000000
00000000
0000006A
00000000
00000000
00000000
00000000
00000000
00000000
00000000
FFFFFFE8
00000000
00000000
00000000
00000000
00000000
00000000
00000000
0000003C
00000000
00000000
00000000
00000000
00000000
00000000
00000000
00000027
00000000
00000000
00000000
00000000
00000000
00000000
00000000
FFFFFFD5
00000000
00000000
00000000
00000000
00000000
00000000
00000000
0000006A
00000000
00000000
00000000
00000000
00000000
00000000
00000000
00000014
00000000
00000000
00000000
00000000
00000000
00000000
00000000
FFFFFFEC
00000000
00000000
00000000
00000000
00000000
00000000
00000000
00000042
00000000
00000000
00000000
00000000
00000000
00000000
00000000
0000008A
00000000
00000000
00000000
00000000
00000000
00000000
00000000
00000042
00000000
00000000
00000000
00000000
00000000
00000000
00000000
00000052
00000000
00000000
00000000
00000000
00000000
00000000
00000000
00000022
00000000
00000000
00000000
00000000
00000000
00000000
00000000
00000024
00000000
00000000
00000000
00000000
00000000
00000000
00000000
0000000D
00000000
00000000
00000000
00000000
00000000
00000000
00000000
FFFFFFBC
00000000
00000000
00000000
00000000
00000000
00000000
00000000
FFFFFFBE
00000000
00000000
00000000
00000000
00000000
00000000
00000000
0000003A
00000000
00000000
00000000
00000000
00000000
00000000
00000000
0000000D
00000000
00000000
00000000
00000000
00000000
00000000
00000000
FFFFFF2E
00000000
00000000
00000000
00000000
00000000
00000000
00000000
FFFFFF96
00000000
00000000
00000000
00000000
00000000
00000000
00000000
FFFFFF81
00000000
00000000
00000000
00000000
00000000
00000000
00000000
00000101
00000000
00000000
00000000
00000000
00000000
00000000
00000000
0000007A
00000000
00000000
00000000
00000000
00000000
00000000
00000000
00000004
00000000
00000000
00000000
00000000
00000000
00000000
00000000
FFFFFFC8
00000000
00000000
00000000
00000000
00000000
00000000
00000000
0000001F
00000000
00000000
00000000
00000000
00000000
00000000
00000000
00000005
00000000
00000000
00000000
00000000
00000000
00000000
00000000
00000011
00000000
00000000
00000000
00000000
00000000
00000000
00000000
FFFFFF38
00000000
00000000
00000000
00000000
00000000
00000000
00000000
FFFFFFA1
00000000
00000000
00000000
00000000
00000000
00000000
00000000
0000002A
00000000
00000000
00000000
00000000
00000000
00000000
00000000
0000003E
00000000
00000000
00000000
00000000
00000000
00000000
00000000
00000002
00000000
00000000
00000000
00000000
00000000
00000000
00000000
00000091
00000000
00000000
00000000
00000000
00000000
00000000
00000000
000000DD
00000000
00000000
00000000
00000000
00000000
00000000
00000000
00000029
00000000
00000000
00000000
00000000
00000000
00000000
00000000
00000033
00000000
00000000
00000000
00000000
00000000
00000000
00000000
FFFFFF78
00000000
00000000
00000000
00000000
00000000
00000000
00000000
0000006C
00000000
00000000
00000000
00000000
00000000
00000000
00000000
00000098
00000000
00000000
00000000
00000000
00000000
00000000
00000000
00000077
00000000
00000000
00000000
00000000
00000000
00000000
00000000
FFFFFFB7
00000000
00000000
00000000
00000000
00000000
00000000
00000000
0000002D
00000000
00000000
00000000
00000000
00000000
00000000
00000000
000000CC
00000000
00000000
00000000
00000000
00000000
00000000
00000000
FFFFFF66
00000000
00000000
00000000
00000000
00000000
00000000
00000000
00000100
00000000
00000000
00000000
00000000
00000000
00000000
00000000
00000032
00000000
00000000
00000000
00000000
00000000
00000000
00000000
FFFFFF35
00000000
00000000
00000000
00000000
00000000
00000000
00000000
000000C7
00000000
00000000
00000000
00000000
00000000
00000000
00000000
FFFFFFB4
00000000
00000000
00000000
00000000
00000000
00000000
00000000
000000C5
00000000
00000000
00000000
00000000
00000000
00000000
00000000
000000B4
00000000
00000000
00000000
00000000
00000000
00000000
00000000
00000022
00000000
00000000
00000000
00000000
00000000
00000000
00000000
0000007A
00000000
00000000
00000000
00000000
00000000
00000000
00000000
FFFFFFD4
00000000
00000000
00000000
00000000
00000000
00000000
00000000
FFFFFF78
00000000
00000000
00000000
00000000
00000000
00000000
00000000
0000000D
00000000
00000000
00000000
00000000
00000000
00000000
00000000
FFFFFF77
00000000
00000000
00000000
00000000
00000000
00000000
00000000
FFFFFFB0
00000000
00000000
00000000
00000000
00000000
00000000
00000000
00000076
00000000
00000000
00000000
00000000
00000000
00000000
00000000
00000009
00000000
00000000
00000000
00000000
00000000
00000000
00000000
FFFFFFDD
00000000
00000000
00000000
00000000
00000000
00000000
00000000
00000027
00000000
00000000
00000000
00000000
00000000
00000000
00000000
FFFFFF53
00000000
00000000
00000000
00000000
00000000
00000000
00000000
00000069
00000000
00000000
00000000
00000000
00000000
00000000
00000000
00000095
00000000
00000000
00000000
00000000
00000000
00000000
00000000
FFFFFFAF
00000000
00000000
00000000
00000000
00000000
00000000
00000000
000000E1
00000000
00000000
00000000
00000000
00000000
00000000
00000000
FFFFFFDA
00000000
00000000
00000000
00000000
00000000
00000000
00000000
00000084
00000000
00000000
00000000
00000000
00000000
00000000
00000000
FFFFFFE5
00000000
00000000
00000000
00000000
00000000
00000000
00000000
0000008E
00000000
00000000
00000000
00000000
00000000
00000000
00000000
00000008
00000000
00000000
00000000
00000000
00000000
00000000
00000000
00000070
00000000
00000000
00000000
00000000
00000000
00000000
00000000
0000004C
00000000
00000000
00000000
00000000
00000000
00000000
00000000
FFFFFF50
00000000
00000000
00000000
00000000
00000000
00000000
00000000
FFFFFFB0
00000000
00000000
00000000
00000000
00000000
00000000
00000000
000000C6
00000000
00000000
00000000
00000000
00000000
00000000
00000000
00000049
00000000
00000000
00000000
00000000
00000000
00000000
00000000
FFFFFFCA
00000000
00000000
00000000
00000000
00000000
00000000
00000000
FFFFFF76
00000000
00000000
00000000
00000000
00000000
00000000
00000000
00000045
00000000
00000000
00000000
00000000
00000000
00000000
00000000
FFFFFFD6
00000000
00000000
00000000
00000000
00000000
00000000
00000000
00000012
00000000
00000000
00000000
00000000
00000000
00000000
00000000
0000001F
00000000
00000000
00000000
00000000
00000000
00000000
00000000
00000071
00000000
00000000
00000000
00000000
00000000
00000000
00000000
00000024
00000000
00000000
00000000
00000000
00000000
00000000
00000000
FFFFFF19
00000000
00000000
00000000
00000000
00000000
00000000
00000000
000000CA
00000000
00000000
00000000
00000000
00000000
00000000
00000000
FFFFFFB1
00000000
00000000
00000000
00000000
00000000
00000000
00000000
0000000B
00000000
00000000
00000000
00000000
00000000
00000000
00000000
00000070
00000000
00000000
00000000
00000000
00000000
00000000
00000000
000000B8
00000000
00000000
00000000
00000000
00000000
00000000
00000000
FFFFFF9D
00000000
00000000
00000000
00000000
00000000
00000000
00000000
FFFFFF5C
00000000
00000000
00000000
00000000
00000000
00000000
00000000
FFFFFF9B
00000000
00000000
00000000
00000000
00000000
00000000
00000000
000000BF
00000000
00000000
00000000
00000000
00000000
00000000
00000000
FFFFFF98
00000000
00000000
00000000
00000000
00000000
00000000
00000000
000000E3
00000000
00000000
00000000
00000000
00000000
00000000
00000000
FFFFFF83
00000000
00000000
00000000
00000000
00000000
00000000
00000000
FFFFFFBA
00000000
00000000
00000000
00000000
00000000
00000000
00000000
00000042
00000000
00000000
00000000
00000000
00000000
00000000
00000000
FFFFFF57
00000000
00000000
00000000
00000000
00000000
00000000
00000000
FFFFFFE3
00000000
00000000
00000000
00000000
00000000
00000000
00000000
FFFFFF17
00000000
00000000
00000000
00000000
00000000
00000000
00000000
000000B1
00000000
00000000
00000000
00000000
00000000
00000000
00000000
FFFFFFF7
00000000
00000000
00000000
00000000
00000000
00000000
00000000
FFFFFF6B
00000000
00000000
00000000
00000000
00000000
00000000
00000000
0000001E
00000000
00000000
00000000
00000000
00000000
00000000
00000000
0000009B
00000000
00000000
00000000
00000000
00000000
00000000
00000000
FFFFFFB4
00000000
00000000
00000000
00000000
00000000
00000000
00000000
