FD
02
02
03
03
03
00
00
00
02
00
03
00
FE
00
00
FB
02
FF
05
03
FF
00
00
FE
04
04
06
FE
00
00
00
01
04
00
03
04
FC
00
00
02
02
02
02
00
FE
00
00
FE
03
00
06
03
FE
00
00
01
00
05
02
05
F8
00
00
FE
02
02
05
00
FA
00
00
00
06
03
01
05
FB
00
00
00
00
FE
04
00
FD
00
00
FF
FF
04
02
FF
FD
00
00
01
02
02
FD
05
FD
00
00
FE
04
00
01
05
02
00
00
FF
03
02
FE
FF
FF
00
00
01
FC
FC
01
02
FB
00
00
00
FB
FE
FC
FF
FC
00
00
06
FA
04
FA
00
FF
00
00
06
FC
04
FB
01
00
00
00
04
05
02
FC
01
03
00
00
02
FF
01
00
02
FF
00
00
03
FC
00
FF
FC
01
00
00
04
FB
04
FF
00
00
00
00
03
FB
03
FD
03
04
00
00
05
03
00
FD
00
06
00
00
00
01
00
02
FE
00
02
FF
FF
00
01
01
FE
00
02
01
02
00
00
FD
FE
01
02
03
00
FF
00
FD
01
00
00
01
00
FF
00
FE
00
FF
FF
01
FF
03
00
01
FE
FF
FF
00
FE
03
FE
00
FD
FE
FF
00
FE
03
FE
00
FF
FF
00
00
01
04
FD
00
00
00
FE
00
FE
01
FF
02
FE
00
FF
00
FC
FD
FF
02
01
00
00
FE
FB
01
00
03
00
FD
FE
FD
FB
00
01
01
02
00
FF
FE
FD
00
00
02
01
00
01
FD
FB
01
FF
03
01
00
00
FF
00
FE
FD
00
01
02
00
FF
FD
FF
00
00
01
01
00
FE
FD
FE
01
01
01
FE
00
FF
FE
FE
02
00
00
00
FF
00
FF
00
FF
FF
01
FF
00
02
01
01
FF
FE
00
03
00
02
02
02
FE
FD
FD
00
FF
00
02
FF
FF
FD
FF
FE
FF
FF
02
01
02
FE
00
00
FE
00
03
00
FF
FF
FF
FE
01
01
00
FD
FF
FE
FF
01
00
FF
FE
FF
FD
FF
01
01
FE
FF
FE
FD
FE
00
01
02
00
FE
00
00
FF
03
00
01
01
FC
00
00
FF
03
FD
FF
FF
FD
02
00
FE
01
FF
FF
FF
01
01
FF
FE
00
01
01
FF
00
FF
FD
FF
FF
01
04
02
00
00
FB
00
00
FE
03
02
01
00
FE
00
FE
FE
FE
FE
00
01
03
02
02
FF
00
01
04
03
04
FF
01
00
01
FF
04
03
04
FC
FD
03
02
03
01
02
02
FE
FC
FF
03
02
01
01
FF
02
FC
FE
FF
FD
01
FD
02
01
02
FF
FE
01
01
FF
02
01
01
01
FF
00
00
01
04
00
00
01
01
02
FF
00
05
00
00
00
02
03
FE
FE
02
01
01
FF
01
FE
FD
FC
FF
02
01
01
00
00
FC
FE
FD
03
02
00
FF
01
FD
FF
00
02
00
01
00
02
FE
FE
01
02
01
01
02
01
FE
FF
FF
01
01
01
01
00
FF
01
01
02
00
FE
FF
02
FF
00
FF
01
FE
FD
01
02
00
00
FF
01
FF
00
01
00
01
01
FD
01
FD
03
02
FF
01
00
FD
FE
00
00
01
FF
00
02
00
01
00
FD
FF
00
01
01
01
01
01
FD
FF
00
00
02
00
00
FF
02
00
01
01
FF
00
FF
FF
02
00
01
01
00
FD
00
FF
00
02
01
01
00
01
01
FF
FE
00
00
FF
00
01
01
00
00
FE
01
00
01
02
00
01
00
FF
01
FF
FE
00
FE
00
01
02
01
01
FE
02
FE
01
00
02
01
00
FF
FE
01
01
FF
00
FF
00
FD
00
01
01
FF
00
00
FF
FD
FF
FF
00
01
FF
00
FF
FD
02
FF
01
01
00
01
00
FD
00
FE
00
01
02
01
FF
FF
FE
FE
00
01
00
FF
FE
FE
00
00
FF
00
00
FF
FE
FD
FD
00
01
00
FF
FF
FF
FF
00
01
FF
01
01
01
FF
01
00
00
FE
02
02
02
FF
FF
FE
FE
00
02
FF
FF
FF
FF
03
FF
02
01
FD
FE
FE
00
03
01
01
FB
FF
00
FD
00
01
02
01
FF
FD
00
FF
01
00
02
01
03
FF
00
FF
00
00
FD
02
03
00
FE
FD
02
FD
01
00
FE
02
00
FC
00
FC
04
FF
FC
02
01
FF
02
FB
03
FE
FF
FD
FD
02
02
FD
02
FE
02
FD
FE
03
03
01
FE
FE
03
00
FE
03
01
00
FF
FD
FD
FF
00
02
03
01
FF
FD
FD
FE
FE
03
03
FF
01
FE
00
FD
FE
03
03
FF
03
FF
02
FC
FD
01
00
00
00
00
00
00
FF
02
00
02
00
FE
FE
00
FE
02
02
03
FF
FF
FE
00
00
00
01
03
00
03
FF
FF
FE
FF
FF
00
01
04
FE
00
FF
FF
FE
FF
FE
00
01
01
00
FE
00
FF
FF
02
01
02
01
FE
FD
00
00
01
FF
01
01
FE
FD
FF
03
03
00
FF
FF
FF
FE
FF
00
03
00
00
FF
01
02
00
01
FF
FE
FF
01
01
01
00
00
FF
FD
01
00
FF
01
FD
00
FE
FF
00
01
FF
01
FD
FF
FF
02
00
FF
00
01
FC
01
FE
02
FF
FF
01
01
01
02
FF
FE
01
00
FF
01
FF
02
01
FF
01
01
02
00
00
FF
FE
01
02
02
00
01
FF
FF
FD
00
03
01
02
01
FE
00
FF
00
01
01
01
FF
00
00
01
FF
FE
01
01
01
03
00
01
FF
FE
01
00
01
02
FF
FE
00
00
00
02
FF
02
FE
00
02
02
00
00
00
02
00
00
00
03
00
00
FD
01
01
01
FF
00
01
FE
FD
00
02
01
FF
FF
00
FE
FE
02
01
02
01
FF
02
FF
FE
03
FF
02
02
01
01
00
FE
02
00
02
02
00
02
00
FE
00
00
00
01
01
00
FF
FD
FD
01
00
00
FF
FF
FE
FD
FD
02
02
FF
00
01
00
FD
00
00
01
00
02
03
FF
FF
02
00
01
02
02
02
FF
01
00
FF
00
00
02
FF
FF
FF
00
03
00
01
01
00
01
02
02
02
00
01
FE
00
02
04
01
FF
FF
01
FD
00
02
04
00
FF
FD
00
FC
00
01
FC
01
FF
FE
FF
01
01
FF
FF
00
00
FF
01
FC
FE
FE
01
01
FE
00
01
FB
FC
FD
01
01
01
01
00
FC
FF
FF
00
FE
00
01
FE
FB
00
FE
FE
FF
FD
FF
01
00
FF
FB
01
FE
FC
FE
01
FE
FC
FD
01
FB
FF
FF
FF
FC
FB
FF
00
FC
00
01
FE
FC
FC
00
02
FB
02
02
01
FA
FC
00
04
FF
FB
FD
01
02
FF
01
03
FC
F9
FD
00
01
00
04
02
FB
FC
FE
FB
01
FD
05
03
FC
FD
FF
FB
FC
FB
05
02
FC
00
FF
FD
FB
FD
01
04
01
FE
FE
01
02
02
03
02
02
FB
FE
FE
02
01
03
02
02
FA
FE
FE
03
FE
02
03
FF
FD
FF
FD
00
FD
01
02
FD
FE
FF
FD
FD
FD
01
00
00
FE
FE
00
FF
00
FE
02
00
FF
FE
01
00
00
FE
01
02
02
01
01
00
01
FD
FE
02
01
00
FF
02
FF
FD
FE
02
FE
02
FD
01
00
FD
00
01
FE
01
FE
FE
00
02
01
00
01
00
FF
FF
FE
02
FF
01
02
00
02
00
FF
04
FC
00
FF
00
01
01
00
03
FD
01
FD
00
00
FF
FF
00
00
02
FF
02
FE
01
00
02
00
FF
02
00
FC
00
FF
01
FF
FD
00
FF
FE
00
01
02
FF
FE
FE
FE
FF
FF
00
00
01
FE
FB
FF
03
00
00
01
00
00
FF
FF
FF
01
00
01
00
FE
02
FD
FE
FF
FF
01
FF
FF
FF
FD
FE
FD
FF
00
FF
FE
FC
FE
FD
FF
FF
FF
01
00
FC
FE
FF
00
00
01
FF
FF
02
00
00
FE
FF
01
FF
FF
01
01
01
FD
FF
FF
00
01
FF
01
02
FE
00
00
00
01
FC
03
00
00
FF
00
01
00
00
02
FF
FF
FF
FF
03
00
00
02
FF
01
01
FF
FF
01
01
01
00
02
00
01
FC
FF
00
FD
FE
FF
01
01
FF
FF
00
FC
FD
FE
FF
01
01
FC
00
FC
FE
FF
00
02
02
FD
00
FE
02
02
00
FC
FE
FC
02
FD
00
02
00
FE
FD
FD
FF
FD
00
FE
00
FE
00
01
FE
FE
FD
FF
00
FE
02
00
FF
00
FE
FF
00
FF
01
FF
00
FF
03
01
FE
FD
FE
FD
02
FF
03
FD
FF
00
FD
01
FF
FF
03
FF
FE
01
FF
03
FF
FF
04
00
FF
01
00
02
00
00
01
00
FE
00
01
00
01
02
FF
FE
00
FF
FE
FF
00
03
02
00
FF
01
00
01
FF
00
01
01
FF
02
00
01
FF
00
04
00
01
02
01
FF
00
01
04
FF
FF
00
FF
01
FF
FE
FE
01
00
FF
00
00
FF
00
FD
01
FF
00
01
FE
FF
FF
FE
00
FE
02
00
00
01
FE
FE
00
00
00
01
00
FF
FD
FF
FF
00
FF
01
FE
FE
FE
FF
01
00
FD
01
01
00
01
01
FF
01
FE
03
02
01
01
FF
01
FF
FD
FF
02
01
01
FF
FF
FF
FE
FE
01
00
FF
FD
01
FF
00
00
FF
00
00
01
FF
FF
FE
03
02
01
02
00
01
FF
FF
01
01
01
02
02
00
00
FE
FF
01
FF
00
00
00
FF
FE
FF
00
FE
01
00
00
FE
FF
01
02
FF
01
01
01
FF
01
03
01
01
00
00
01
FE
01
00
00
01
00
01
01
01
01
FF
FF
01
00
02
00
00
FF
FD
FF
FE
00
01
00
00
00
01
02
FF
01
FD
02
FF
03
03
00
00
00
FF
FF
00
00
00
FF
01
FE
FF
01
FF
00
00
FE
FE
FF
00
00
FF
02
00
FE
FF
FE
01
01
00
01
02
00
01
FE
FD
01
FF
03
02
FF
01
FE
FF
01
00
02
00
FF
01
FF
FE
FF
00
00
FF
FE
FF
00
FF
00
FF
00
FE
FE
FE
FF
00
01
00
FF
FE
FD
FF
02
01
03
00
00
FC
FC
01
FE
00
00
FF
01
FF
FE
FF
FF
FE
FF
01
FF
02
00
00
FE
02
FD
FF
02
03
00
02
01
03
FE
FF
03
FC
FD
00
FD
FF
02
01
FD
FB
FE
FE
FF
FF
FF
00
FD
01
00
FF
FF
FD
FF
00
FD
03
03
01
01
FD
FE
01
FD
00
03
00
00
FE
FF
01
FD
FA
FD
00
FD
02
FD
FF
00
FE
02
FC
01
00
FD
01
01
02
02
01
02
01
FF
00
FF
00
03
02
01
00
01
01
FF
00
00
01
00
FE
00
00
01
FB
01
FC
04
01
FE
00
01
FF
03
FD
04
00
00
00
02
02
01
01
03
01
00
01
01
00
00
02
03
03
01
FE
02
FF
00
FF
FF
04
FF
FF
00
FE
01
FF
03
FF
02
00
00
00
00
FF
00
FF
01
01
FF
00
FF
02
FF
00
00
FF
02
01
00
02
00
00
FE
00
00
FF
FE
FE
FE
02
02
FE
01
FE
FE
00
00
FE
00
FF
FC
02
FE
00
01
01
FF
FF
FE
02
00
00
00
00
00
FF
FD
01
00
00
FF
FE
00
01
FD
00
01
FF
00
FF
FF
FF
FF
00
00
FE
FE
00
FF
01
FD
02
02
00
01
02
FF
FF
FE
02
02
01
FF
00
02
01
FD
02
02
01
01
00
01
FF
FD
FE
01
FF
01
00
01
01
FF
01
01
FE
00
01
FF
01
01
01
02
00
01
01
00
FF
00
02
01
00
00
00
02
00
FF
00
02
00
01
02
01
00
00
FD
00
FD
01
02
00
FF
00
01
01
FF
02
FE
01
00
02
00
01
00
02
FF
02
00
00
02
FF
02
00
01
00
FF
00
01
FE
00
01
02
00
FF
00
FE
FF
FE
FF
01
01
01
FF
00
FF
FF
FD
FF
02
FF
02
02
FF
02
FD
FE
01
00
01
FF
FF
01
FF
FD
01
FF
FF
FF
FE
FE
FE
FE
00
01
01
00
FF
FD
00
FF
02
FF
01
01
01
01
FF
01
FF
01
01
02
00
03
FF
01
00
00
FF
00
FF
01
00
FF
00
01
00
FF
FF
01
FF
00
02
FF
00
00
00
01
01
01
01
00
FF
01
04
02
02
FE
00
FF
02
01
02
03
00
FE
02
00
02
FE
FF
01
00
00
01
01
02
FF
FD
00
01
FF
00
01
02
02
FC
01
02
FF
FF
00
01
FE
04
01
FF
FD
02
FF
03
FB
01
02
00
FD
01
00
01
FC
00
FF
FF
FE
FE
00
00
00
FD
FF
FE
FC
FF
00
FF
02
00
03
FD
FD
FE
00
01
FD
FE
03
FB
00
00
00
01
FB
FC
02
FE
FF
FE
FF
00
FE
FE
00
03
FE
FD
FE
FF
FF
02
01
04
FD
FE
FF
00
00
00
03
00
FD
FD
FF
FF
FC
FB
01
01
03
FC
FE
FD
FC
FE
00
04
04
FE
01
FB
FF
FF
FF
04
05
FE
00
FD
00
01
02
02
04
FE
00
FF
FF
00
00
02
03
FE
01
00
01
00
01
FF
FF
00
00
00
01
01
02
00
00
01
00
00
01
01
00
01
00
FF
01
01
01
01
FF
01
00
00
00
01
01
FF
00
00
01
01
01
00
01
FF
FF
FF
00
01
01
00
00
FF
FF
00
00
01
FF
00
00
01
FD
FF
00
00
FF
01
01
02
FF
00
01
00
00
01
01
02
00
01
01
00
FF
01
01
00
FE
01
FF
00
00
00
00
00
FE
FF
01
FF
FF
00
FF
FF
00
FF
00
FE
FF
00
01
00
00
FE
02
00
FF
FF
01
00
FF
FE
01
00
00
01
00
FF
FE
FF
01
01
01
00
FE
FE
01
00
00
FF
FF
FE
01
00
00
01
00
FF
FE
FF
01
01
FF
00
00
FE
FE
00
00
01
FF
01
00
01
FF
00
FF
00
FF
00
01
00
01
01
00
FF
01
FF
01
FF
FF
00
00
FF
01
FE
00
FE
FF
00
01
00
00
FE
FF
FF
FE
01
01
01
FE
FD
FF
00
FF
01
01
00
00
00
01
FF
00
FF
FF
00
00
FF
01
FF
00
00
00
FE
00
FF
01
00
00
00
FF
FF
FF
01
00
01
01
00
01
00
01
01
00
02
00
01
FE
FF
FF
FE
FF
00
01
FF
01
00
03
FF
FE
00
00
FF
00
00
01
01
00
00
FF
00
00
00
01
00
01
00
00
01
00
01
00
02
01
00
01
01
FE
FF
FF
01
01
00
FF
01
00
00
02
02
FF
00
00
01
02
00
02
00
FF
FF
00
00
01
00
00
00
00
FE
01
FF
00
00
00
00
01
00
00
FF
FF
FF
01
FF
FF
00
01
01
02
00
04
01
FE
00
01
01
01
01
02
00
FF
00
01
01
FF
01
01
01
00
00
FF
FF
FF
00
00
FF
01
00
00
01
00
01
01
00
00
02
FF
01
03
00
04
00
FE
00
00
FF
01
00
01
01
FF
FF
00
FF
FE
00
FF
FF
FF
FF
00
FF
FF
00
00
FE
01
FE
FF
FF
00
FF
00
00
01
00
01
00
01
00
00
FF
01
00
00
01
FF
00
FF
00
00
00
00
00
00
00
FF
00
01
00
00
FF
00
00
FF
00
00
FF
00
00
FF
FF
00
00
00
FF
00
00
FF
00
00
FF
01
FF
FF
FF
FF
FF
00
00
00
00
FF
01
00
00
FF
00
FF
01
00
FF
00
00
00
FF
00
FF
FF
FF
01
FF
00
00
00
00
00
00
FF
00
00
FF
00
00
00
00
FF
00
01
00
01
00
00
00
00
FF
FF
00
FF
FF
00
FF
00
FF
FF
00
00
01
FF
00
FF
00
00
FF
FF
00
00
00
FF
00
00
00
FF
01
00
00
00
FF
FF
00
00
FF
FF
00
01
00
FF
00
00
FF
00
00
00
FF
00
FF
00
00
00
00
00
00
FF
FF
00
FF
00
00
00
00
00
00
00
FF
01
FF
00
00
00
FF
00
FF
00
00
00
FF
00
00
00
FF
01
00
00
FF
00
FF
FF
FF
00
FF
00
FF
00
FF
00
00
00
FF
01
00
FF
00
00
00
01
00
00
01
00
00
00
00
00
00
FF
00
FF
00
FF
01
00
00
FF
00
01
00
01
00
FF
FF
00
00
00
00
00
00
00
FF
FF
00
00
01
00
FF
00
00
00
00
00
FF
FF
00
00
00
00
FF
FF
00
FF
00
01
FF
00
FF
FF
00
FF
00
00
00
00
00
FF
01
00
FF
00
FF
FF
FF
00
FF
00
00
00
FF
FF
FF
00
00
00
01
00
01
00
00
00
00
01
FF
01
FF
00
00
00
FF
01
00
00
FF
00
00
00
00
00
FF
00
00
FF
00
00
FF
00
FF
00
00
00
00
FF
FF
00
00
00
FF
00
00
01
00
00
FF
00
00
00
00
FF
FF
00
00
00
00
00
00
00
00
FF
00
00
00
00
FF
FF
01
FF
00
FF
00
FF
00
FF
FF
00
00
FF
00
00
00
00
00
00
00
00
00
FF
00
FF
00
00
01
00
FF
00
00
00
00
00
01
00
FF
00
00
00
00
00
00
00
00
00
00
01
00
01
FF
00
00
00
FF
00
00
00
00
00
FF
00
00
01
00
00
01
00
00
00
00
01
00
01
00
FF
FF
00
00
01
FF
01
00
00
FF
00
FF
00
FF
FF
FF
00
00
FF
00
FF
00
00
01
00
00
00
00
00
00
00
00
01
00
00
00
FF
FF
00
FF
00
00
FF
00
00
00
00
00
FF
00
00
00
00
00
00
00
00
00
00
00
00
FF
00
00
00
00
00
00
FF
00
01
00
FF
00
00
00
00
01
FF
00
00
00
00
00
00
01
00
00
FF
00
FF
00
00
00
00
FF
FF
01
00
01
00
00
00
FF
00
01
00
00
00
00
FF
00
01
00
FF
01
00
00
00
00
00
01
00
FF
01
00
00
00
00
00
00
00
00
00
FF
00
00
00
00
00
00
00
00
00
00
00
00
FF
00
00
01
00
FF
00
00
FF
FF
00
FF
00
01
FF
00
FF
00
01
01
00
01
00
00
FF
00
00
00
00
00
FF
00
00
00
00
00
00
00
FF
01
00
00
FF
00
00
00
00
00
FF
FF
00
FF
00
00
FF
00
00
00
00
01
00
00
01
FF
00
00
01
00
00
00
00
01
00
FF
FF
00
01
00
FF
01
FF
00
01
00
00
00
FF
00
00
FF
00
FF
FF
00
00
00
00
00
00
00
FF
00
00
00
FF
FF
01
01
00
00
00
FF
FF
00
00
00
00
01
00
FF
00
00
00
00
00
00
00
00
00
FF
FF
00
00
01
00
00
FF
00
00
00
01
01
FF
FF
FF
01
00
00
00
00
00
FF
FF
00
01
00
FF
00
00
01
00
00
00
FF
00
FF
00
01
00
00
FF
00
00
00
00
00
01
01
00
00
00
FF
01
00
FF
FF
FF
00
FF
00
FF
00
FF
00
01
FF
00
00
00
00
00
00
01
00
FF
01
00
01
FF
FF
00
FF
FF
FF
01
01
01
00
00
FF
00
00
00
00
01
00
01
FF
01
01
01
00
FF
00
00
FF
02
01
00
FF
FF
01
FF
00
00
00
00
02
01
FF
01
FF
FE
00
02
00
01
FF
FF
00
00
FF
01
00
FF
00
FF
00
00
FF
01
00
00
00
00
00
01
01
00
FF
FF
00
FF
01
01
01
FE
01
FF
FF
00
00
00
00
01
01
00
FF
01
FF
00
00
01
FF
00
00
00
00
00
FF
FF
00
00
00
FE
00
FF
FF
FE
00
01
00
00
01
00
00
00
FF
FE
00
00
00
01
00
FE
FF
FF
00
FF
02
01
01
FF
FF
00
00
01
01
00
00
00
00
FF
00
00
FF
00
00
FF
00
00
01
01
00
00
01
00
00
01
00
00
01
01
01
FF
01
00
00
01
02
00
00
01
01
01
01
01
00
01
01
00
01
01
01
02
FF
00
01
01
00
01
00
03
00
01
00
00
FF
01
00
01
01
00
00
FF
00
00
01
01
00
00
01
00
01
00
01
00
00
01
00
FF
01
01
00
01
00
01
01
00
00
FF
00
FF
00
FF
FF
00
FF
00
02
00
FF
FF
00
00
FF
01
00
01
FF
FF
00
02
01
01
02
01
00
FF
00
FF
01
01
00
00
FF
FF
00
01
00
FE
01
FF
FF
FF
00
01
FE
00
01
00
FF
00
00
02
FE
00
FF
00
FE
00
FF
02
00
01
02
00
FF
00
01
01
00
01
01
00
FF
01
01
01
00
00
01
01
00
00
01
00
FF
FF
01
FF
FF
01
FF
00
01
00
FF
FF
FF
00
01
FF
01
00
01
01
00
01
00
00
00
00
01
FF
FF
00
00
00
00
00
FF
00
00
01
FF
01
01
00
00
01
01
01
00
00
01
00
FE
01
00
01
FF
01
01
01
FF
01
01
01
00
02
FF
FF
00
00
00
01
01
02
00
01
00
01
02
01
01
02
01
00
00
00
00
FF
00
00
02
02
01
00
00
00
00
01
00
01
FF
00
01
01
01
03
FF
01
00
01
01
02
00
01
FF
01
00
00
FF
01
00
FE
01
01
00
00
FF
FF
00
01
00
00
00
FF
00
00
FF
FF
FF
01
00
01
01
00
00
01
00
00
00
00
01
01
00
01
00
00
FF
FF
00
01
01
FF
00
FF
FF
00
FF
00
FF
FF
00
00
FF
FF
01
FF
FF
00
FF
FE
00
00
01
00
00
FF
01
00
00
FF
01
FF
00
00
00
00
01
00
01
FF
00
00
00
FF
00
FF
00
FF
FF
FF
FE
00
00
00
01
FF
01
FF
FF
FF
FF
FF
01
FF
00
FF
00
00
01
00
00
FF
00
FF
01
00
00
FF
01
FF
FF
01
FF
FE
01
FF
00
01
FF
FE
FD
FF
01
FF
01
01
01
FE
FE
FF
00
00
02
00
01
FE
FF
FF
01
FF
FF
FE
00
FF
01
FF
00
FF
FF
FF
FF
00
00
00
00
02
01
00
FF
01
FE
00
FF
02
01
01
01
00
00
00
00
02
03
01
01
00
01
00
01
00
02
01
00
00
01
00
00
FE
00
01
FF
01
FF
00
FF
01
01
00
FF
00
FF
00
00
00
00
00
FF
01
00
01
00
00
01
00
01
01
01
01
01
00
00
01
FF
00
01
01
02
00
00
00
00
FF
00
FF
01
00
FF
00
FF
01
00
00
02
00
FF
00
01
01
01
01
00
00
FF
00
00
00
01
01
01
01
FF
00
00
00
00
00
01
02
00
00
00
00
00
00
01
00
FF
00
00
01
01
00
01
FF
FF
00
00
00
01
01
00
FF
FF
01
00
00
01
01
00
FF
00
00
01
FF
01
01
00
01
01
01
00
00
01
FF
01
FF
FE
00
00
FF
02
00
00
FF
FF
00
00
FE
00
FF
00
FF
00
00
00
FF
00
00
01
FF
FF
00
00
FF
00
FF
00
00
FF
FF
00
FF
01
01
00
01
00
FF
FF
01
03
02
00
00
FF
FF
00
02
00
01
00
01
01
00
00
02
00
00
00
01
01
00
00
01
00
01
00
00
00
01
FF
00
02
02
FE
00
FF
FF
FF
03
02
02
FF
01
01
FF
00
03
01
02
FF
01
00
01
00
02
01
01
00
01
00
00
00
00
02
01
00
FF
FD
FE
FE
00
02
FF
FD
FE
FF
FF
FF
01
00
01
FF
00
01
FF
FF
01
01
01
00
FF
01
00
00
00
01
00
01
00
FF
00
00
01
00
00
00
00
FD
FD
00
00
00
01
FF
00
00
FF
FE
FF
02
01
FF
00
00
01
FF
00
02
00
00
00
00
00
01
00
01
00
00
00
00
01
01
FF
00
00
FF
01
FF
00
00
00
02
01
FE
02
00
FF
FF
00
00
FF
FF
01
FF
00
00
01
00
00
00
00
01
01
FF
FF
00
FF
00
01
01
FF
00
FF
00
FF
01
FF
FF
FF
01
00
FF
00
FF
02
03
00
FF
FF
FF
00
FF
02
02
01
00
00
FF
FF
00
01
01
01
00
FF
00
00
01
01
02
01
00
01
00
00
FF
FF
01
FF
00
00
FD
01
00
02
01
00
00
FF
FE
00
00
02
01
00
FF
00
00
01
00
02
00
00
00
00
00
00
00
00
00
00
00
01
01
01
FF
00
FF
FF
00
01
FD
FF
01
00
00
FF
00
01
FE
00
00
00
00
FF
00
01
01
01
01
02
00
00
00
FF
00
01
00
01
01
00
00
00
FF
FF
FF
FE
00
FF
FF
01
FD
00
00
00
01
00
00
02
FD
FF
00
01
01
00
00
00
FF
00
01
01
00
FF
01
00
01
00
00
00
00
00
00
FF
00
00
01
FF
00
00
00
01
FD
00
02
FF
FF
00
FF
02
FD
01
02
FF
FF
00
00
03
00
01
02
FF
00
00
FF
02
01
00
00
00
00
01
00
01
00
00
00
00
FF
00
00
00
01
00
01
00
00
FF
FF
03
FF
01
01
00
00
01
01
01
FE
01
00
FF
00
02
00
01
FF
01
FF
00
00
01
01
01
FF
00
00
01
00
02
00
FF
02
02
00
00
FF
FF
FF
02
FF
01
00
00
00
00
00
01
FF
FF
00
01
00
00
FF
00
00
00
00
00
FF
00
FF
01
00
00
00
00
00
00
FF
FF
02
00
FE
FF
FF
00
FF
01
FF
01
00
00
00
01
00
00
FF
01
01
02
01
FF
FF
FF
00
00
01
00
FF
FF
01
FF
02
00
00
00
00
FE
00
02
FF
00
00
00
00
00
01
FE
FF
FF
01
00
01
01
01
00
00
01
00
01
00
00
01
00
FF
02
01
00
FD
00
01
00
00
01
00
01
00
00
00
01
FE
00
02
01
01
00
01
00
00
00
02
01
01
00
01
00
FF
FF
01
02
00
00
01
01
00
FF
FF
00
FE
01
00
FF
01
FF
00
00
00
00
01
01
00
01
FE
01
02
00
00
FF
00
00
FF
01
01
00
00
00
00
00
FF
02
00
00
FF
FF
00
00
01
00
01
00
00
FF
02
FF
01
FE
01
00
00
FF
FF
00
FF
01
02
FF
00
01
FE
00
FE
00
01
FF
00
02
FF
FF
01
01
00
00
00
00
01
00
00
01
01
FF
00
FF
01
02
01
02
FF
00
00
FE
FE
FF
FF
FF
00
00
FF
02
FF
FF
FE
FF
FF
01
01
02
01
00
FF
01
00
01
01
00
00
02
00
00
00
00
FF
00
FF
02
FF
02
00
01
01
FF
FF
FF
00
FF
00
00
00
02
00
02
FF
00
00
02
01
00
02
01
FD
00
02
01
01
00
00
01
00
00
01
FF
01
00
00
00
00
00
01
00
00
00
02
FF
FE
00
01
01
FF
00
00
FF
FC
00
01
01
00
FE
01
00
FD
FF
FF
01
00
FE
FF
00
00
00
00
00
FF
FE
00
FF
01
00
00
01
00
00
00
00
FF
00
00
00
00
00
FF
01
00
00
01
FF
01
01
00
00
FF
00
FF
01
00
01
00
00
00
00
00
00
00
00
00
00
FF
FF
00
00
FF
00
FF
01
00
00
FF
FF
00
FF
00
00
01
FF
FF
00
01
00
FF
00
00
00
01
FF
00
00
FF
00
00
FF
00
FF
FF
00
00
00
FF
00
00
00
FF
00
FF
01
FF
00
FF
01
00
00
00
00
00
00
00
00
00
01
FF
FF
00
00
00
00
01
00
FF
00
00
00
00
FF
FF
FF
00
FF
00
00
00
00
00
00
FF
00
FF
FF
FF
00
FF
00
00
01
00
FF
FF
00
00
01
FF
01
00
00
FF
01
FF
00
FF
00
00
00
FF
FF
00
00
FF
01
00
01
00
00
00
FF
00
00
00
00
00
FF
00
00
00
00
00
FF
00
00
FF
00
FF
00
00
00
00
00
FF
00
01
FF
00
00
FF
01
FF
00
00
00
01
01
00
00
00
00
00
FF
FF
FF
00
00
FF
00
FF
01
00
01
FF
00
00
00
00
00
00
00
00
00
FF
00
01
00
00
01
00
00
00
00
FF
00
00
00
00
FF
00
FF
01
00
FF
00
00
01
00
FF
00
00
00
FF
00
00
00
FF
00
00
FF
FF
00
00
00
00
00
00
00
00
FF
FF
FF
FF
00
00
00
00
00
FF
00
FF
FF
FF
00
00
00
00
00
00
00
FF
FF
00
00
00
FF
FF
01
01
00
01
00
00
01
00
00
00
FF
00
FF
01
00
01
00
00
00
00
00
00
00
00
00
00
FF
00
01
00
01
FF
FF
00
FF
01
FF
FF
00
FF
00
00
00
00
00
FF
01
FF
00
FF
01
00
00
01
00
00
00
00
00
FF
00
00
00
00
FF
FF
FF
FF
00
00
00
FF
00
FF
00
FF
00
FF
00
00
FF
00
00
FF
00
FF
00
FF
FF
FF
00
FF
00
00
01
00
01
00
00
00
00
00
FF
00
00
FF
00
00
00
00
01
FF
00
00
01
01
01
FF
00
00
01
00
00
00
01
FF
FF
01
02
01
01
01
00
FF
01
00
01
02
01
00
00
00
00
02
FF
00
00
01
00
01
01
FF
FF
FF
00
00
00
00
00
00
00
01
00
00
00
00
01
00
01
01
01
00
FF
00
01
01
00
01
01
02
FF
01
02
01
FE
00
00
FF
00
00
01
00
00
FE
01
00
01
00
00
00
01
00
00
FF
FF
01
00
00
01
00
00
00
FF
02
00
00
FF
FF
00
00
01
01
01
FF
00
00
00
00
00
00
01
01
01
00
00
00
00
00
00
01
00
00
FF
00
00
01
FF
FF
FF
FE
FF
FF
01
01
FF
FF
00
FE
00
FE
02
00
00
FE
00
00
FF
01
00
00
01
00
01
00
FF
01
FF
FF
01
01
00
FF
00
00
FF
FF
00
01
00
FE
00
00
01
FF
00
00
00
FF
00
FE
02
00
FF
FF
FE
FF
01
FF
FE
01
00
01
00
01
FF
01
00
01
FF
00
00
00
FE
FF
00
01
FF
02
FE
00
FF
01
01
00
00
00
FF
00
FE
01
01
01
00
01
01
01
00
01
00
01
00
FF
01
01
00
00
01
00
01
00
00
00
00
FF
02
00
00
00
FF
00
FF
00
00
00
00
01
FF
00
FF
FF
02
FF
00
01
00
00
00
FF
00
00
00
FE
01
00
01
00
01
00
01
FE
00
00
00
00
FF
FF
00
FE
FF
FE
00
00
FF
FF
00
FE
01
FF
FF
FF
00
00
FF
00
00
01
FE
00
01
00
00
FE
00
00
FF
01
00
00
FF
FF
FE
00
00
01
00
FF
00
00
FF
00
01
00
FF
00
00
FF
01
00
00
00
00
01
00
FF
FF
01
00
01
00
00
01
FF
FF
00
00
FF
01
00
00
00
00
00
01
00
FF
01
00
01
01
01
00
00
FF
00
00
01
00
01
01
00
FF
00
00
00
01
FE
00
FF
FF
00
00
FF
00
FE
00
00
00
FF
FE
00
00
00
FF
00
00
FD
FF
FF
01
01
01
00
00
FF
FF
00
02
02
01
00
01
FF
FF
02
FD
FE
01
00
01
00
00
FC
FF
FE
01
01
01
00
00
FE
FF
FF
01
00
00
FF
00
FE
01
00
FF
FF
FF
00
FF
FF
02
00
00
00
FE
00
00
02
FF
FF
00
FF
01
01
00
FF
FF
00
02
01
01
01
00
FF
00
01
00
00
00
00
01
00
00
01
00
01
FF
FF
00
01
00
FF
00
FF
FF
00
FF
FF
00
00
00
FF
01
00
00
00
00
01
01
01
FF
00
00
FF
00
01
FF
00
00
01
01
00
FF
01
01
00
00
FF
FF
01
00
FE
00
FF
FF
00
00
00
00
00
FF
01
00
00
00
00
00
00
00
00
00
FF
00
00
01
00
FF
FF
FF
01
00
00
00
FF
00
FF
01
01
00
01
00
00
00
00
00
00
01
00
FF
00
01
FE
FD
00
FF
FF
00
02
00
00
FF
00
00
FF
00
02
00
FF
FF
FF
00
01
FF
01
00
02
00
FF
00
00
FF
02
00
02
01
00
00
01
01
FE
01
FD
FE
01
FF
FF
01
00
00
FF
FF
01
00
FF
01
00
00
FE
FF
01
01
00
FF
01
01
00
FF
01
00
01
FF
00
00
00
01
00
00
01
00
FF
00
FF
01
00
00
FE
02
00
FF
00
01
FF
00
FD
01
00
01
00
01
00
00
FF
FF
00
01
00
FF
00
00
01
FF
FF
00
FF
00
00
00
00
00
00
FE
01
00
00
00
FE
00
00
FE
01
00
FF
00
00
FF
01
02
00
00
00
00
02
01
00
01
01
01
01
00
01
00
FF
00
00
FF
00
FF
01
FE
00
FF
00
00
00
FF
00
FF
01
01
00
00
00
FF
01
00
01
02
FF
00
00
00
00
00
00
00
00
00
00
FF
00
00
FF
00
FF
FF
FF
01
FF
02
FF
00
00
00
FF
FE
01
01
01
00
01
00
00
01
01
00
02
00
00
FF
02
01
01
FF
02
00
00
FF
03
01
01
FD
00
01
FF
FE
02
01
FE
01
00
00
00
FF
FE
FF
00
00
01
FF
00
01
00
FF
00
FF
00
00
00
00
01
00
01
FF
00
FF
01
FE
03
00
02
FE
FF
00
00
FE
02
02
FE
00
FF
FF
00
00
FE
FE
01
FF
00
FF
01
FF
00
00
01
00
00
00
00
01
FF
00
00
00
FE
00
01
00
FF
00
01
01
FF
00
FF
01
FF
00
FE
FF
FE
00
01
01
00
00
00
00
FF
00
00
FF
FF
FF
01
00
00
01
01
FF
00
00
00
00
00
01
00
01
FE
00
FF
02
01
01
FF
01
FE
00
00
00
00
01
00
01
00
00
00
00
01
00
FF
00
00
00
01
00
00
00
FF
FF
01
00
01
01
00
00
00
00
01
01
00
00
01
00
02
FE
00
02
01
FF
02
FF
02
00
00
00
00
FE
02
FE
01
01
01
00
01
FE
01
FD
01
02
01
00
01
00
FF
FF
00
02
01
00
01
01
FD
00
FD
01
00
00
01
00
00
FF
02
01
00
00
01
FF
01
01
00
01
00
00
00
00
FF
00
00
00
00
00
00
00
FF
00
02
FF
01
01
FF
01
FF
01
FF
FF
00
00
FE
00
FF
FF
00
FF
00
01
02
FF
FF
01
00
00
00
00
01
00
FF
00
00
00
01
FF
01
01
01
00
02
FF
00
00
FF
00
02
00
03
FE
02
00
00
00
01
00
00
00
01
00
00
00
01
FF
00
FF
01
00
00
00
00
01
01
01
00
00
00
01
01
00
02
FF
02
00
00
01
01
FF
01
FF
00
01
00
01
00
FF
01
00
00
01
FF
00
00
00
01
00
FF
01
00
00
00
01
FF
00
FF
FF
00
01
00
01
FF
00
00
00
00
FF
FF
00
FF
02
00
00
01
00
01
01
01
01
00
01
01
01
00
00
00
01
FE
FF
01
00
01
FF
00
FF
FF
FF
01
FF
01
00
01
00
00
00
00
00
00
FF
01
00
01
00
00
FF
00
01
00
00
01
01
00
00
00
01
01
00
01
00
00
00
00
01
00
00
00
01
FF
01
00
00
00
FF
00
00
01
01
01
00
00
FF
01
00
02
00
02
01
00
00
01
01
00
00
01
01
00
00
01
00
00
00
00
00
02
FF
00
00
02
01
FF
00
00
00
00
00
02
01
00
00
FF
00
00
01
02
01
00
FF
00
FF
01
FF
01
01
01
FF
FF
00
00
FF
00
01
01
00
FF
00
FF
FF
02
00
00
00
00
00
FF
00
00
00
00
FF
FF
00
01
FF
FF
00
00
FF
00
00
00
FF
00
FF
FF
00
00
00
00
FF
FF
FF
FF
FF
FE
FF
00
00
00
FF
00
FF
FE
00
00
FF
FF
00
00
00
FE
01
FF
00
FF
00
00
FF
01
00
01
00
01
FF
01
FF
01
00
00
FF
01
FE
00
FF
00
00
01
01
00
00
FF
01
FF
01
00
01
00
FF
00
00
00
FF
00
00
01
01
00
FE
FF
00
00
00
00
01
00
00
00
00
01
FF
FF
FF
FF
FF
00
FF
01
00
00
FF
01
01
00
01
00
00
FE
00
01
01
02
01
01
01
01
00
FF
FF
00
03
01
00
FD
00
00
00
01
02
FF
01
FE
01
FF
01
00
01
00
00
00
00
01
FF
02
00
00
00
01
00
00
00
01
00
00
00
FF
FE
00
FF
00
02
FF
01
FF
FF
FF
00
00
01
00
FF
00
01
01
01
01
01
FF
00
00
00
00
00
01
01
00
00
01
00
FF
01
FF
FF
FF
00
01
FF
FF
00
00
FE
00
00
02
00
FF
02
00
FF
FF
00
00
01
00
02
00
FF
00
00
FF
01
00
00
FF
FF
00
FF
FF
FF
FF
01
FF
FE
00
00
FF
FF
00
00
00
00
01
01
FF
FD
FF
00
FF
01
02
01
00
FF
FF
00
FF
00
01
00
FE
FD
FE
01
00
00
00
00
FE
FF
FF
00
01
01
01
00
FF
FE
00
02
FF
01
02
01
FE
FF
FF
02
00
01
01
00
FD
FF
FF
01
01
01
00
01
FE
FE
FE
00
00
02
FF
FF
FF
00
FF
00
00
02
00
01
00
00
00
00
01
00
00
01
00
01
02
00
00
00
01
01
00
01
01
FF
01
00
00
01
02
02
FF
01
00
01
FF
00
01
01
00
01
00
FF
00
00
03
00
01
01
01
00
00
00
00
FF
01
01
00
FE
00
00
00
00
00
00
FF
01
01
FF
00
01
01
00
FF
02
00
00
00
FF
00
01
00
00
00
00
00
00
FF
02
FF
00
00
FF
00
FF
00
02
FF
FF
00
00
FF
FE
FF
00
FF
01
00
00
FE
FF
01
00
00
02
00
00
FF
FF
00
00
02
00
00
01
00
01
01
01
00
FF
00
00
00
01
00
01
FF
00
00
00
00
01
FF
03
FE
FF
FF
00
00
00
FF
00
FE
FE
FF
00
00
01
01
02
01
00
01
00
02
02
FF
FE
FE
00
00
00
FF
02
FF
01
FE
00
00
FF
00
01
FF
01
00
00
01
00
00
01
01
01
01
FF
00
00
FE
02
02
01
01
FF
01
00
00
01
00
FF
00
01
01
00
00
01
01
02
00
01
01
01
00
00
01
01
01
02
01
01
00
01
00
00
01
01
00
01
00
01
02
00
01
01
00
00
FF
02
01
03
00
00
01
00
00
02
01
03
01
FF
00
00
00
01
00
01
00
00
FF
00
00
00
01
00
00
01
00
00
01
FF
FF
01
FF
00
FF
00
01
03
00
02
01
01
FF
00
FF
02
FF
02
00
FF
FE
00
FE
00
FF
00
00
00
FE
FF
FF
00
FF
00
FF
01
FF
00
00
01
FF
00
00
00
00
01
00
00
01
FF
00
FF
00
00
00
FF
00
00
01
00
FF
FF
00
00
00
00
00
00
FF
FF
00
01
00
FF
FF
FF
01
00
00
00
00
FF
00
01
01
00
00
00
FF
FF
00
00
00
FF
00
00
00
00
00
FF
00
00
01
01
00
00
00
00
00
FF
00
01
FF
FF
00
FF
00
FF
01
00
00
00
FF
00
00
01
00
00
00
00
00
00
00
00
00
00
00
00
00
01
00
00
00
FF
00
00
00
01
FF
FF
00
FF
00
00
00
00
00
00
00
00
00
00
00
FF
00
00
00
01
00
00
00
FF
00
00
01
00
00
00
00
FF
FF
00
00
FF
00
01
00
01
00
FF
FF
00
01
00
FF
00
00
00
00
00
00
FF
00
00
FF
FF
FF
00
00
00
00
FF
01
00
00
00
FF
01
00
FF
00
00
00
FF
01
00
FF
00
00
00
00
00
00
00
FF
01
00
00
01
FF
00
00
FF
01
FF
00
00
01
FF
00
00
00
00
00
00
01
00
00
00
00
FF
00
00
00
FF
00
00
00
FF
00
00
00
FF
00
01
FF
FF
00
FF
00
00
01
00
00
00
00
00
00
01
00
FF
00
00
00
00
FF
00
00
00
FF
00
01
FF
FF
00
00
FF
FF
00
00
00
00
00
00
00
FF
00
00
00
00
00
01
00
00
00
00
00
00
00
01
FF
FF
00
FF
00
FF
00
01
00
00
00
FF
FF
00
00
00
FF
01
00
01
00
00
FF
01
00
FF
00
00
00
00
00
FF
FF
FF
00
00
00
00
FF
00
00
01
00
FF
01
00
00
01
00
01
FF
00
00
00
00
01
00
FF
00
00
00
00
00
FF
00
FF
00
00
00
01
01
00
01
00
00
00
FF
FF
00
01
FF
FF
FF
01
00
00
00
00
00
00
01
00
00
00
FF
00
00
00
00
FF
01
00
01
FF
00
00
01
00
00
00
FF
FF
00
00
00
00
00
01
01
FF
00
00
01
01
00
01
01
01
00
01
01
00
00
01
01
00
01
00
00
00
01
01
00
01
00
FF
00
00
01
02
00
FF
FF
00
00
00
01
01
00
FE
00
00
00
FF
02
01
01
FF
00
00
01
00
01
01
00
00
00
FF
00
FF
00
01
00
00
00
FE
FF
00
00
01
00
00
FF
FE
FE
FD
01
01
00
FF
FE
00
00
FF
01
02
01
FE
00
01
01
00
02
02
00
01
FF
00
00
00
02
00
00
01
FF
FF
FF
00
00
00
FF
00
00
FE
FF
FF
FF
02
01
FF
01
FE
FF
FF
FF
02
01
00
FF
00
00
00
01
01
00
00
FF
01
01
00
01
00
00
00
00
FE
00
00
FF
FE
FF
FF
01
FF
00
00
FE
02
02
FF
02
FF
FE
00
00
01
00
FF
01
FF
00
FF
01
01
00
FF
00
01
00
00
00
FF
00
00
00
01
01
00
00
FF
00
00
01
01
01
00
00
FE
FF
FF
00
01
FF
00
FF
00
00
00
01
01
00
00
01
01
00
00
01
01
FF
00
FF
00
00
FF
00
01
00
00
00
FE
00
FF
00
00
00
00
00
FE
00
FF
01
00
00
00
00
FF
00
FF
00
FF
01
01
01
00
01
02
00
01
FF
FF
FF
FF
00
FF
FF
01
00
01
01
FF
00
00
00
01
FF
00
00
FC
00
00
01
01
FF
00
FF
FE
FF
FF
00
00
00
FF
FF
01
01
00
01
01
FF
01
FF
FF
FE
FF
FF
01
FF
00
01
00
FE
00
FE
FF
FE
00
00
FC
00
01
00
01
FF
FF
03
FF
FF
00
00
00
00
00
02
00
FF
00
01
01
FF
00
00
00
FF
01
FF
00
00
00
00
FF
FE
00
FE
FF
01
00
00
FF
00
01
01
02
01
00
02
FD
01
00
FF
00
01
00
03
FF
00
01
01
01
00
00
03
FF
00
01
00
01
01
00
01
01
00
00
00
00
01
00
02
00
00
FF
00
01
00
FF
01
00
00
00
FF
00
FF
00
00
00
00
00
FF
00
01
00
00
00
00
00
FF
00
FF
00
FF
00
00
00
FF
00
00
00
FF
00
00
00
FF
FF
FF
00
00
00
00
FF
FF
FF
00
00
00
00
00
00
00
FF
FF
00
00
00
FF
FF
00
00
00
00
FF
00
FF
FF
FF
00
00
00
FF
FF
00
FF
00
FF
00
00
01
FF
00
FF
FF
FF
FF
00
01
00
00
00
FF
00
00
00
FF
FF
00
FF
FF
00
FF
FF
00
FF
00
FF
FF
00
00
FF
00
00
FF
01
FF
00
FF
FF
00
00
00
00
00
FF
FF
00
00
00
00
00
FF
00
00
00
00
00
00
00
FF
00
FF
00
00
00
00
FF
00
01
00
00
00
00
FF
00
00
00
00
00
01
00
00
00
00
00
FF
00
FF
00
00
FF
FF
FF
00
00
00
00
00
00
FF
00
00
00
01
00
FF
00
00
00
00
00
FF
FF
FF
00
00
00
00
00
FF
FF
00
00
00
00
00
00
FF
FF
00
00
FF
00
00
01
00
00
FF
FF
FF
00
00
FF
FF
00
FF
FF
00
00
00
00
00
01
FF
00
00
00
01
00
00
FF
00
00
00
00
00
00
00
00
00
00
00
00
FF
00
FF
FF
01
00
01
FF
00
00
00
FF
00
00
FF
FF
01
01
FF
00
00
00
01
00
FF
00
00
FF
FF
01
00
00
00
01
00
00
00
00
00
FF
01
00
00
00
FF
00
FF
FF
00
01
00
00
FF
00
00
00
00
00
00
FF
FF
00
00
00
00
FF
00
FF
00
00
00
00
00
01
FF
00
00
00
FF
00
00
FF
00
FF
FF
00
01
00
01
FF
00
FF
00
FF
00
00
FF
FF
FF
FF
00
FF
01
00
00
FF
01
01
FF
FF
00
00
00
00
00
00
FF
FF
00
00
00
00
FF
00
00
FF
00
00
00
FF
00
00
FF
FF
00
FF
00
FF
FF
00
FF
00
01
FF
FE
FF
00
00
01
01
00
FF
FE
FF
01
00
02
00
01
00
FE
00
00
00
02
FF
00
02
00
00
00
00
00
00
01
FF
00
01
00
00
01
02
FF
00
FF
00
FF
02
00
01
FF
00
00
01
FF
01
00
01
00
00
01
01
01
00
00
FF
01
FF
01
00
00
FF
00
FF
00
FE
03
01
FE
FF
00
00
FF
01
01
01
00
01
01
01
00
FF
00
00
FF
00
FF
00
01
01
00
FF
01
00
FF
00
00
00
00
00
00
01
FE
FF
FE
01
00
FF
FE
00
01
00
FF
00
00
00
00
FF
00
00
00
FE
01
01
00
FF
00
01
FF
00
00
FF
01
00
FF
01
FF
01
FF
00
01
00
FE
00
FF
00
00
FF
FF
00
FF
FF
FF
00
FF
00
FF
FE
FE
00
FD
00
01
FF
FF
00
00
00
FD
01
00
00
00
00
FF
00
FF
01
00
01
00
FF
FF
00
00
FF
FF
FF
00
00
00
01
00
FE
00
00
01
FF
00
00
00
FF
00
01
01
FE
00
FE
00
00
01
01
02
00
00
FF
00
01
01
01
00
00
FF
00
FF
00
00
FF
00
01
01
FF
00
01
00
00
00
00
01
FF
00
00
01
01
00
FF
01
00
00
01
01
FF
FF
00
00
01
01
01
01
01
01
01
00
00
00
00
00
00
00
02
01
01
00
01
FF
FF
FE
FF
FF
FF
FF
01
00
00
FF
01
FF
02
01
FF
00
01
01
01
01
00
02
00
00
01
01
01
00
01
02
FE
01
00
00
00
00
00
FF
01
FF
00
FE
00
00
01
FF
FF
00
00
00
01
01
01
00
00
FF
00
01
01
00
00
00
00
00
00
00
00
00
01
00
FF
FF
00
FF
FF
FF
00
FF
FE
FF
01
00
01
00
01
00
FF
FF
00
FF
01
FF
03
FF
FF
FE
00
FE
01
FF
00
FE
FF
FF
01
FF
00
FF
00
FF
00
FF
00
FF
00
01
00
00
00
00
00
00
00
01
01
00
FF
FF
FF
00
00
FF
01
00
FF
00
FF
00
02
00
FF
00
00
FF
00
01
02
00
00
FF
00
FF
00
02
02
00
FF
00
00
00
00
01
FF
00
FF
00
00
00
00
01
00
00
00
00
00
FF
FF
00
01
01
01
FF
FF
00
FF
FF
02
01
00
01
FF
FE
FF
03
00
00
FF
FF
00
00
FF
01
FF
FF
00
01
01
00
00
01
01
01
00
01
00
FF
00
FF
00
02
01
00
FE
FF
00
00
01
00
00
02
FE
01
01
00
FF
00
00
00
00
FF
00
00
01
FF
00
FF
00
00
00
01
01
00
01
00
FF
00
01
FF
00
00
00
01
FE
02
00
FF
FF
FF
FF
01
00
02
01
FF
00
00
00
02
01
01
01
00
00
00
FF
01
01
00
01
00
00
FF
01
01
FF
FF
00
00
01
FF
FF
00
00
01
00
00
01
FE
00
FE
02
00
00
00
00
01
00
00
01
00
FF
FF
01
FF
00
00
01
00
00
00
00
00
00
01
01
FF
00
FF
00
01
01
00
01
00
00
00
00
00
FF
01
01
FF
00
00
FF
01
01
00
FF
FF
FF
00
FF
FF
FD
01
01
00
00
00
00
01
01
00
02
FF
00
00
FF
01
FF
00
00
FF
00
02
FE
00
00
02
01
00
00
01
00
FF
01
FF
FF
00
01
00
00
FF
FE
FF
00
00
00
00
01
01
FF
01
00
00
FF
00
FE
01
FF
00
02
01
00
02
FE
FF
00
FF
01
00
00
01
FF
FF
00
FF
00
00
01
01
00
00
00
00
01
00
01
00
01
00
FE
00
01
00
01
00
FF
FF
01
FF
00
00
01
FF
00
00
FF
FF
00
00
01
01
FF
FF
FE
FF
01
01
FF
00
FE
01
FE
FF
01
01
FF
01
FE
01
FF
01
FF
02
01
02
00
01
01
02
FF
01
FF
01
01
01
01
01
FF
02
00
00
00
FE
00
FE
FE
FF
FF
FE
02
FF
FF
FD
FF
00
00
FE
02
FE
FF
00
00
02
00
FF
00
FE
01
01
00
00
FF
FE
01
FF
00
01
01
FF
FF
00
00
FF
00
FE
FF
FE
FF
FE
01
FE
FF
00
FF
00
FF
FF
00
FF
FE
FF
01
01
FF
FF
00
01
00
FF
02
FF
01
FF
00
00
01
00
01
00
00
00
FF
00
01
00
01
00
00
FF
01
00
FF
00
00
FF
FF
00
00
FE
FF
FE
01
FF
FF
01
00
FF
00
FD
01
00
01
FF
00
00
00
FF
01
00
FF
FF
02
02
00
00
00
00
01
00
01
FF
01
00
00
00
01
FF
01
FD
01
FF
00
FF
00
FF
01
FE
00
FD
FF
00
FF
FF
00
FE
FF
FF
02
00
00
FE
00
00
01
01
FF
01
01
01
01
FF
01
FE
01
00
01
00
01
00
01
FF
01
FF
00
FF
00
FF
00
00
FF
00
00
FE
00
FF
FE
FF
02
01
01
FE
FF
FF
00
FF
FE
FE
FF
FF
FF
FE
02
00
FF
FF
00
FF
00
FE
02
FF
00
FF
FF
FF
02
00
02
FF
FE
00
01
00
FF
02
01
01
FF
01
00
01
FF
FF
01
FF
FE
FF
00
FF
FE
00
00
FE
FE
FF
00
00
FF
FF
01
00
00
01
00
01
02
01
01
00
01
01
00
02
FF
01
00
FF
00
FF
FF
00
00
FF
01
FE
FF
01
01
01
FF
FF
02
00
FD
00
00
02
01
01
02
00
00
00
00
01
01
00
01
00
FF
00
00
00
00
00
01
FE
00
FE
00
FE
00
00
02
00
01
01
00
00
01
01
03
00
FE
01
01
FF
01
00
02
00
FE
00
00
FF
FF
00
FF
FF
FF
00
01
00
FF
FF
00
FF
FF
FF
00
FE
01
00
02
01
00
00
00
FF
01
01
01
00
00
01
00
FF
02
00
01
00
00
00
00
FF
00
FF
FF
FE
FF
FE
00
01
00
FF
01
00
FF
01
00
FF
00
FF
FF
00
FF
01
00
FF
FD
00
FF
FF
00
00
00
FF
FF
FF
00
FF
00
00
00
00
FF
00
01
00
FF
00
01
FE
00
00
01
00
01
01
01
00
FF
FE
01
FF
01
01
00
FF
00
FF
01
FF
01
02
02
FF
FE
FF
01
00
01
01
01
FE
00
FF
01
01
00
00
FF
FE
FF
00
00
00
FF
01
00
00
FF
00
01
FF
00
01
00
00
01
01
00
00
01
00
01
01
01
01
01
00
00
02
01
01
01
FF
00
00
00
FF
00
01
01
FF
01
FE
00
FF
00
01
00
01
00
01
FF
00
00
00
02
01
00
00
FF
FF
00
01
00
00
01
FF
00
00
00
02
01
00
01
FE
00
00
00
01
00
FE
FF
00
00
00
FF
FF
00
00
01
FF
01
FF
FF
FF
FF
00
00
00
00
00
00
FF
FF
FF
FF
FF
00
01
00
FF
FF
00
00
01
01
00
00
FF
00
00
00
01
01
00
00
FF
FF
00
00
FF
FF
00
00
00
01
01
00
FF
FE
00
00
01
00
00
01
FF
FE
00
00
01
01
00
00
FE
00
00
00
01
01
00
00
00
00
00
00
01
00
00
FF
FE
FF
01
00
FF
01
FF
FE
FE
00
01
00
00
01
FF
00
FF
00
01
01
FF
01
00
00
01
00
00
00
FF
01
00
00
01
00
00
00
00
00
00
01
01
01
01
00
00
FE
00
FE
00
01
00
FF
00
00
FF
01
01
01
00
01
00
02
01
01
01
00
00
FF
00
FF
01
FF
00
00
00
00
00
01
00
02
00
00
00
FF
00
00
02
01
00
01
FF
FF
00
00
01
01
01
01
00
00
FF
01
00
01
00
00
00
00
FF
FF
FF
00
FD
FE
FF
00
FE
01
00
01
00
FF
00
FF
00
02
00
00
FF
00
FF
00
01
00
FF
01
FF
FF
00
01
FF
00
FF
00
FF
FF
FF
00
00
00
FE
00
FE
FF
00
00
FF
01
01
00
00
00
00
00
00
01
00
01
02
00
00
00
01
00
02
01
00
00
00
01
00
FF
01
00
00
00
01
01
00
FD
00
00
00
00
02
01
FE
00
FF
01
01
FF
00
01
01
01
00
00
00
FF
FF
FF
FF
01
01
00
FF
FF
01
01
01
00
00
00
00
FF
00
01
00
00
FF
FF
00
00
02
01
00
00
FF
00
00
01
01
FF
01
FF
FD
00
FE
00
FF
FE
00
FE
FD
FF
FE
FF
FF
00
FE
00
FE
FF
FF
00
00
FF
FE
FF
FF
FF
00
03
01
00
FF
FF
FE
00
00
01
01
FF
01
FF
FD
00
01
00
FF
FF
FF
FF
FF
00
00
FF
FE
FF
FE
00
FF
FE
00
00
FF
FF
FF
01
01
00
00
01
FF
01
01
FF
FE
FF
FE
01
01
00
FE
FF
00
00
00
01
00
00
00
00
00
02
01
00
FE
00
FF
00
00
01
01
00
FF
00
00
01
00
00
00
00
FF
FF
01
01
01
00
01
00
02
00
01
01
00
00
00
01
01
01
00
01
00
FF
00
01
01
00
01
FF
FF
FF
00
00
01
00
01
00
FF
FF
FF
00
00
FF
01
00
01
00
00
00
01
00
FF
01
01
03
00
00
00
00
FF
01
00
01
00
00
00
00
01
00
01
01
00
00
FF
00
00
01
00
00
FF
01
FF
00
00
00
00
00
01
FF
00
FF
00
01
01
03
01
FE
00
00
FF
00
FF
01
00
FE
FE
FF
FF
00
FF
02
00
FF
FF
00
FF
01
FF
FF
00
FF
00
FF
00
01
00
00
00
FE
00
00
00
02
00
02
FF
FE
00
00
01
FF
00
01
00
FE
00
01
01
00
01
01
01
00
01
00
01
FF
00
FF
01
01
01
01
01
00
00
00
00
00
00
00
FF
02
00
FF
01
00
01
00
FF
00
00
FF
00
00
01
00
00
FF
00
00
00
00
FF
00
01
FF
00
00
01
01
FF
00
01
00
02
00
00
00
01
01
FD
00
01
00
01
01
01
01
FE
01
FF
00
00
01
00
00
00
01
01
01
01
01
FF
01
FF
FF
00
01
02
02
01
01
01
00
00
00
01
00
01
01
FF
FF
01
01
01
00
00
00
FF
00
00
00
00
00
01
01
00
01
02
00
FF
FF
00
00
00
01
02
01
00
00
01
01
02
FF
FF
FF
01
FF
00
01
00
00
FE
00
FF
00
FF
FF
00
00
FE
00
FE
FF
01
00
00
FF
00
00
FE
FF
01
00
FF
01
00
00
FF
02
03
00
01
FF
FE
00
00
01
00
00
00
FF
00
00
00
01
FF
00
00
FF
FE
FF
FF
FF
00
00
FD
FF
FF
00
00
00
00
FF
00
FF
FF
00
FF
02
00
00
FF
FF
00
01
01
01
00
01
01
FF
00
00
01
01
00
01
00
FF
FF
FF
01
00
00
00
00
00
FF
00
00
01
FF
FF
00
00
00
00
FE
01
00
FF
01
00
FE
00
FF
00
00
FF
00
01
FE
FF
FF
01
00
00
00
00
00
FF
FF
00
01
00
01
FF
FF
FE
01
00
01
00
01
FF
00
FF
02
00
01
00
00
00
FF
01
00
00
00
01
00
01
00
01
00
01
00
01
01
01
02
00
00
01
01
01
02
FF
01
01
00
01
00
FF
00
01
00
00
00
01
FF
FF
00
01
00
01
01
00
00
01
00
02
00
02
00
00
FF
FF
01
01
02
00
00
FF
FF
FF
FE
FF
FF
01
FF
FF
FF
00
FD
01
00
01
00
01
FF
00
FF
01
01
01
01
00
00
FF
FF
02
00
02
00
00
00
00
00
00
FF
00
FF
FF
FF
00
FF
FF
FF
01
00
FF
00
01
00
00
00
00
01
FF
00
00
FF
01
00
00
00
00
00
00
00
00
FF
FE
00
00
01
FF
00
FF
FF
FF
00
FF
00
00
01
00
01
00
01
00
00
01
00
00
01
00
00
00
FF
01
FF
00
00
FF
00
00
FF
00
00
00
00
01
FF
00
FF
00
00
01
00
00
00
00
01
01
01
FF
00
00
FF
00
00
FF
00
00
00
FF
00
00
00
00
00
FF
00
00
00
FF
01
00
FF
FF
FF
00
00
00
FF
FF
00
FF
00
00
FF
00
00
00
00
00
00
01
FF
01
FF
00
00
00
00
01
00
00
00
FF
FF
FF
FF
FF
00
FF
00
00
FF
00
FF
FF
00
00
01
00
00
00
00
00
00
00
00
00
FF
00
FF
FF
FF
00
00
00
FF
FF
FF
00
00
00
00
00
00
00
01
00
FF
00
FF
FF
01
00
00
00
00
00
01
01
00
FF
00
00
00
00
00
01
00
FF
00
00
FF
FF
FF
00
FF
FF
FF
FF
FF
00
00
FF
FF
01
FF
00
00
01
00
FF
00
00
00
FF
01
01
00
00
00
FF
00
FF
00
00
00
FF
00
00
00
FF
00
01
00
00
FF
00
00
00
00
FF
00
00
00
00
00
00
00
FF
01
FF
01
FF
00
00
FF
FF
00
01
00
00
FF
FF
00
FF
FF
FF
00
00
00
FF
FF
00
00
00
01
00
FF
00
00
00
00
FF
00
01
FF
00
00
00
FF
00
00
00
01
00
00
FF
00
00
00
00
00
00
00
00
00
00
01
FF
00
00
00
00
FF
00
00
FF
FF
00
00
01
00
00
00
00
00
00
00
00
FF
01
00
01
00
FF
00
FF
FF
FF
00
00
FF
00
FF
00
00
00
00
FF
FF
FF
FF
FF
00
01
FF
00
00
00
00
00
00
00
FF
00
00
00
FF
01
00
00
00
FF
00
FF
00
01
00
00
FF
00
FF
00
FF
00
00
FF
FF
00
FF
01
00
FF
00
FF
01
01
00
00
FF
00
00
00
01
00
FF
00
01
FF
01
00
00
01
00
FF
00
01
01
01
00
00
00
FF
00
01
00
00
00
00
00
01
00
FF
FF
00
FF
00
FF
FF
00
00
01
00
01
01
00
FF
00
01
01
00
00
00
01
FF
00
00
00
00
00
01
01
00
00
FF
02
00
FF
00
00
01
00
FF
02
01
00
FE
FF
00
00
00
01
00
FF
00
FF
FF
00
00
FF
FF
01
FF
00
FF
00
00
FF
FF
01
01
01
FF
FF
FF
00
00
00
FF
00
01
01
00
01
01
00
FF
FE
00
00
00
01
00
00
FF
FE
00
01
FF
FF
FF
00
00
00
00
00
00
00
FF
01
00
00
00
00
FE
00
FF
FF
FF
00
00
00
00
00
00
00
00
FF
FF
00
02
01
00
00
FF
FF
00
00
01
00
01
00
00
FF
00
00
00
00
FF
00
00
01
01
00
FF
00
00
FF
FF
00
FF
01
FF
00
FF
00
01
00
00
01
01
00
01
01
00
00
01
01
01
01
00
00
02
FF
01
00
00
FF
00
00
01
FF
01
01
FE
FF
01
FF
01
00
01
02
01
00
01
00
01
00
01
01
00
01
00
01
FF
01
01
01
00
00
00
FF
00
01
FF
01
01
00
FF
FF
00
00
01
FF
00
01
01
00
00
00
FF
FF
01
00
01
01
00
00
FF
FE
00
00
00
FF
FF
00
01
01
FF
00
00
01
FF
00
02
00
01
00
FF
01
00
00
02
00
01
01
00
01
00
00
00
00
01
00
FF
00
00
00
00
00
00
FF
00
01
00
00
00
00
FE
01
00
02
00
01
00
00
FF
01
01
02
00
00
00
00
00
00
01
01
FF
00
02
FF
FF
01
00
FF
01
FF
00
00
00
00
01
00
01
00
FF
00
00
00
FF
FF
00
01
FE
00
01
01
00
FF
00
00
00
00
01
00
FF
01
FF
00
01
00
00
00
00
FF
01
01
FF
01
01
00
00
00
00
01
FF
00
00
01
00
FF
00
00
FE
00
00
01
FF
01
00
FF
FF
00
00
00
00
01
FF
00
00
00
01
01
00
01
00
00
00
00
00
00
00
01
01
00
00
00
FF
00
01
FF
00
00
00
FF
00
00
00
01
FF
00
FF
00
00
FF
FF
00
00
FF
00
FF
00
00
00
00
FF
00
FF
FF
00
FF
00
FF
00
FF
00
00
00
00
00
00
00
FF
00
01
00
FF
00
00
00
00
00
00
01
FF
FF
FF
00
01
00
00
01
FF
00
00
00
00
FF
FF
00
FF
00
00
00
FF
FF
FF
00
00
FF
01
FF
00
00
00
00
FF
FF
00
00
FF
00
00
01
FF
FF
00
00
00
01
FF
00
00
00
00
00
FF
00
FF
01
00
FF
00
FF
FF
FF
00
FF
00
00
01
00
FF
00
00
01
FF
FF
00
00
00
00
FF
00
00
01
00
FF
01
00
00
00
FF
00
FF
FF
01
FF
FF
FF
FF
00
00
00
00
FF
00
01
00
01
FF
00
00
00
FF
00
FF
FF
00
00
00
00
FF
FF
00
00
00
00
00
00
00
FF
00
FF
FF
00
00
00
00
FF
00
00
FF
00
00
FF
FF
00
00
00
00
01
00
00
00
FF
00
00
FF
FF
00
00
FF
00
00
01
00
FF
FF
00
FF
FF
00
00
FF
00
00
00
FF
FF
00
01
FF
00
00
FF
FF
00
00
00
FF
FF
00
00
FF
00
00
00
00
FF
FF
00
00
00
01
00
00
FF
FF
FF
00
00
00
01
01
FF
01
FF
00
00
00
00
01
00
00
FF
00
00
FF
00
00
00
FF
00
FF
FF
01
00
00
00
FF
00
FF
FF
00
00
00
00
00
01
00
00
00
00
00
FF
00
FF
00
01
FF
00
FF
00
00
FF
00
00
00
00
01
00
00
00
01
FF
00
01
FF
00
00
00
00
00
00
FF
FF
00
00
00
01
00
FF
00
FF
FF
00
FF
FF
01
FF
00
00
FF
00
00
FF
01
FF
00
01
01
00
00
FF
FF
00
00
FF
01
FF
FF
00
00
FF
FF
00
FF
FF
FF
00
00
FF
01
FF
FE
00
FF
00
FF
FF
00
00
00
FF
00
00
00
00
FF
FF
00
FD
00
00
FF
00
FF
FF
00
FF
FF
FF
00
01
00
FF
FF
FF
FF
00
FF
02
00
00
00
FF
01
00
FF
00
01
01
00
FF
FF
00
00
FF
00
FF
00
FE
FF
00
00
FF
FE
00
00
FF
00
FE
00
FF
FF
FF
FF
FF
FF
FF
02
01
FF
01
00
FF
00
00
02
01
01
00
FF
01
FF
01
00
00
00
00
FF
00
00
01
00
FF
00
00
FE
01
01
01
00
FF
00
FF
FF
00
FF
01
02
00
FF
FF
00
00
FF
00
00
01
00
01
00
00
01
FF
01
01
01
01
FF
01
01
FF
FF
01
01
00
FF
01
00
00
FF
00
00
00
FF
01
00
02
00
FF
00
01
00
01
01
01
00
00
00
02
00
00
01
00
01
00
00
00
FF
00
01
01
00
00
01
00
00
FF
FF
FF
FF
00
01
00
00
00
00
00
FF
01
00
01
01
00
00
01
FE
01
00
01
01
00
01
00
00
FF
00
FF
01
00
01
FF
FF
FF
00
FF
00
00
01
FF
FF
FF
01
00
01
01
00
01
00
00
FF
FF
02
01
01
00
00
00
00
00
00
FF
00
FF
FF
00
FF
01
00
FF
01
00
FF
00
00
01
00
01
01
00
FF
00
00
00
FF
00
00
01
00
FF
FF
FD
00
00
00
00
FF
FF
00
FF
01
00
00
00
FF
01
00
01
01
00
00
00
01
00
00
00
00
FF
FF
FE
00
00
00
01
FF
FF
01
FF
00
02
FF
00
01
00
00
02
00
01
00
00
02
01
00
02
00
00
00
FF
02
00
FF
01
00
00
00
FF
00
00
FE
00
01
00
00
00
01
01
00
00
01
01
01
00
01
01
00
01
00
00
00
01
01
00
00
00
01
01
00
FE
01
00
FF
00
01
00
00
FE
FF
00
00
00
00
01
FF
FF
00
01
FF
01
00
00
01
FF
00
FF
01
01
01
00
01
00
00
00
FF
01
FF
FF
FF
01
FE
00
FF
FF
01
01
00
01
FF
01
00
FF
01
00
00
01
00
00
00
00
00
00
00
01
01
00
00
01
FE
00
FF
02
FF
FF
00
FF
00
01
FF
00
FF
00
00
00
00
01
00
00
FF
00
01
00
FF
01
00
00
00
FE
00
FF
00
00
00
FF
02
FF
FF
FF
FE
FF
FE
00
00
01
00
00
00
00
FF
00
FF
02
00
01
01
00
02
01
00
01
00
01
00
01
00
01
01
01
02
00
00
00
00
01
00
00
01
FF
FE
00
00
00
01
02
00
00
FF
00
00
01
01
01
00
00
00
00
00
00
00
02
00
00
01
02
01
02
FF
00
01
00
00
01
01
00
FE
FF
00
00
FE
01
01
FE
01
01
01
00
FF
FF
FF
01
00
00
01
00
00
FF
FF
00
FF
01
00
00
FF
01
00
FF
FF
00
FF
00
01
02
01
00
00
00
01
00
00
00
00
FF
FE
01
FF
01
01
00
01
00
00
01
FE
00
00
00
00
01
FF
00
00
01
00
00
00
01
01
00
01
01
01
FF
01
FF
01
00
01
01
00
00
01
00
01
00
FF
00
01
00
01
FF
FF
00
FF
FF
FF
00
FF
00
00
00
FF
00
00
01
00
00
00
00
FF
00
FF
00
00
FE
FF
00
01
01
FF
00
00
00
FF
00
00
00
02
FF
00
00
00
01
FF
01
02
00
FF
FE
00
00
FF
01
02
00
01
00
01
02
00
02
00
01
01
01
00
00
00
FF
00
00
00
01
FF
00
FF
00
02
00
00
01
FF
01
FF
01
02
00
00
01
00
00
00
01
00
00
FF
00
00
FF
00
01
01
00
00
FF
00
FF
00
FE
00
00
FF
FF
FF
01
00
00
01
00
00
01
FF
00
01
00
FF
FF
00
02
FF
FF
00
00
00
00
00
00
00
00
01
00
FF
00
00
FE
00
FF
01
FF
00
01
00
FF
FF
00
00
00
00
00
FF
00
FF
00
FF
FF
00
00
00
00
00
00
01
00
FF
00
00
00
FF
00
FF
01
00
00
FF
01
FF
00
01
00
00
FF
00
00
00
FF
00
00
00
00
FF
00
00
00
FF
FF
FF
00
01
00
00
00
FF
00
00
FF
00
00
00
00
00
00
00
FF
00
00
00
FF
FF
00
00
00
00
FF
00
00
FF
00
00
00
FF
FF
FF
00
00
00
00
00
00
00
01
FF
01
00
01
00
01
FF
00
FF
00
01
00
00
00
00
00
FF
FF
FF
00
00
FF
00
FF
FF
00
00
00
00
00
FF
01
00
00
FF
00
00
FF
00
FF
FF
01
00
00
00
00
00
FF
01
00
FF
00
00
00
00
01
FF
00
FF
00
00
00
00
FF
FF
FF
FF
FF
FF
00
00
00
FF
00
FF
FF
FF
FF
FF
00
00
FF
00
FF
00
01
00
00
00
00
00
FF
00
00
01
FF
00
00
00
FF
00
FF
00
00
00
00
00
00
00
00
FF
00
00
FF
00
00
00
00
FF
00
00
00
FF
FF
FF
00
00
FF
00
01
FF
00
00
00
FF
01
00
00
00
FF
FF
00
00
00
00
FF
00
00
FF
01
00
00
FF
01
00
00
FF
01
01
FF
00
00
00
00
FF
00
FF
FF
00
00
FF
00
00
00
00
00
00
00
01
FF
00
00
00
00
FF
FF
00
FF
00
00
00
00
FF
00
01
01
01
FF
FF
01
00
FF
00
00
00
00
FF
00
00
00
00
00
00
FF
01
FF
00
FF
00
00
00
FF
00
00
00
00
00
00
00
00
FF
00
01
00
00
00
FF
00
FF
00
FF
00
00
00
FF
00
00
00
00
00
00
00
00
00
01
FF
00
00
01
00
00
00
00
00
00
00
00
00
00
01
00
00
00
00
00
00
00
00
00
00
00
FF
FF
00
01
FF
00
00
01
00
FF
FF
00
FF
00
00
00
FF
FF
00
00
00
00
FF
01
01
00
00
01
00
FF
FD
FF
00
FE
00
01
FF
FE
FE
FF
00
FF
FF
01
00
FE
FE
FE
FF
00
00
00
FF
FE
00
FF
00
00
02
00
00
00
FF
01
00
00
01
01
00
FF
FF
FF
00
00
00
00
00
00
01
FF
FF
00
00
00
00
00
FF
FF
00
00
01
FF
FF
00
01
00
01
00
03
00
00
01
01
01
02
01
01
00
00
01
00
02
01
02
FF
01
01
00
FF
00
00
02
01
FF
FF
00
00
00
00
00
02
00
00
FF
01
01
00
00
02
00
FF
03
01
01
00
01
FF
01
00
01
FF
01
00
00
FF
01
01
FF
00
01
01
00
01
01
00
FF
00
01
01
FF
FE
00
00
00
00
01
00
01
01
01
00
01
00
FF
01
FE
00
01
00
00
FE
FF
01
FE
01
01
01
FE
FE
FF
01
01
01
01
01
FE
FF
00
FF
01
00
01
01
00
FF
00
FF
01
01
00
01
00
02
FF
FF
FF
00
FF
01
01
01
00
01
FF
FE
00
00
01
01
00
02
FF
FF
FF
00
00
02
00
01
FF
00
FF
00
FF
02
02
02
02
FF
01
FF
01
01
FF
00
00
00
00
01
00
02
00
00
00
FF
00
FF
00
FF
00
FF
01
FF
00
00
FF
01
FF
01
01
00
00
00
FE
01
02
01
03
00
01
00
FE
02
01
00
01
02
00
00
00
00
00
00
01
01
00
FF
00
00
FE
FF
00
00
FF
01
00
01
01
00
FF
01
01
FF
01
FF
01
01
02
01
01
00
FF
01
01
01
01
00
FF
00
00
01
00
01
00
01
00
00
FF
01
00
00
FF
01
01
00
00
00
01
00
FF
01
00
FF
00
00
01
00
FF
00
FF
00
00
02
FF
00
00
00
00
00
00
01
FE
FE
FF
00
01
00
FF
00
00
FF
00
FF
01
FF
FD
00
FF
00
00
FF
00
00
FE
00
00
01
00
00
01
FF
FF
00
00
00
00
01
02
00
FF
00
00
00
00
01
01
00
FE
01
00
00
00
FF
00
00
00
02
01
00
FF
00
00
00
01
01
01
00
00
01
FF
FF
01
FF
00
00
00
00
00
01
FF
00
FF
02
00
00
00
00
00
00
FF
00
00
00
00
00
01
01
01
00
00
00
00
00
00
01
01
FF
00
00
01
FF
01
00
FF
00
01
00
00
00
00
00
00
00
00
00
01
00
00
01
00
FF
01
00
00
FF
00
00
00
FF
FF
FF
00
00
FF
00
00
FF
00
01
00
FF
00
00
FE
FF
FF
00
00
01
FF
00
FE
00
00
00
00
01
00
00
FF
01
FF
01
00
01
FF
00
00
00
00
FE
FF
01
FF
00
FF
FF
01
00
FF
FF
FF
FF
00
02
00
00
01
00
00
00
00
01
00
01
00
00
FF
00
01
00
00
01
00
01
00
FF
01
00
03
00
01
01
00
01
01
01
03
00
00
01
01
00
00
01
FE
FF
FF
00
FF
01
00
01
FF
FF
FF
00
00
02
03
02
01
00
00
00
00
00
02
FF
01
01
FF
FF
01
FE
01
00
02
02
FF
FF
00
00
00
00
FF
00
00
FF
00
02
00
00
FF
01
00
00
FF
01
01
01
01
00
00
00
00
00
00
01
00
00
FF
00
02
FE
00
01
00
00
FF
00
00
FE
01
FF
00
FF
00
00
00
FF
01
00
00
FF
01
00
01
00
00
02
00
FF
00
00
01
00
00
01
FE
FF
FF
00
01
FF
FF
00
FF
FF
00
00
FF
00
00
01
00
FD
00
00
01
02
02
02
01
FE
01
01
01
01
00
00
00
00
01
00
FF
00
00
00
FF
FF
01
00
00
FF
FF
FF
01
00
00
01
00
02
FF
01
00
01
01
01
01
02
00
FF
01
00
01
00
FF
01
00
FF
00
01
01
01
00
FF
FF
FF
00
02
00
01
02
FF
00
00
01
01
01
01
02
00
00
FF
FF
FF
FF
00
00
FF
FF
00
FF
00
00
00
00
00
00
00
00
00
00
00
00
00
FF
FF
00
00
00
FF
00
00
FF
FF
FF
00
00
FF
FF
FF
01
FF
FF
00
00
00
00
FF
FF
00
00
FF
FF
FF
01
00
00
FF
00
00
00
00
00
01
00
00
00
00
01
00
00
FF
00
FF
00
00
00
FF
00
00
01
FF
00
00
00
00
FF
00
00
00
00
00
00
FF
00
FF
FF
FF
00
00
FF
00
01
FF
00
00
01
00
00
00
FF
00
00
FF
01
00
00
00
00
01
FF
01
FF
FF
FF
FF
01
00
FF
01
FF
00
00
00
00
FF
FF
00
00
00
00
00
00
FF
00
00
00
00
00
00
00
00
00
00
00
01
FF
00
00
00
00
00
FF
00
FF
00
00
FF
00
FF
00
FF
00
FF
FF
00
00
FF
FF
00
FF
00
01
00
FF
FF
00
00
00
00
00
FF
01
01
FF
00
00
00
00
00
FF
00
00
FF
FF
00
FF
00
00
00
00
00
FF
00
FF
FF
00
00
00
00
FF
00
00
01
00
00
00
00
00
00
00
00
00
00
00
00
00
00
00
00
FF
00
00
00
00
00
FF
01
01
00
00
FF
00
01
00
01
00
00
00
00
01
FF
00
FF
00
00
00
FF
00
01
00
00
FF
01
00
00
FF
00
FF
FF
FF
00
00
01
00
FF
FF
01
01
01
00
FF
FF
00
00
00
00
00
00
00
FF
00
00
00
FF
00
00
00
FF
00
FF
FF
FF
FF
FF
FF
00
00
01
01
00
00
00
00
00
FF
FF
00
00
00
00
00
FF
00
00
01
FF
00
00
FF
00
00
00
FF
01
00
01
00
00
FF
FF
00
00
00
FF
00
00
00
FF
00
FF
00
FF
FF
FF
00
00
FF
FF
FF
FF
00
00
00
00
00
00
FF
00
FF
FF
00
00
FF
FF
FF
FF
FF
FF
00
00
01
00
00
00
00
00
01
01
00
00
01
FF
00
00
FF
FF
00
00
00
01
00
FF
00
FF
FF
00
00
00
FF
00
00
00
00
00
FF
FF
00
01
00
FF
00
00
00
01
00
FF
FF
00
00
00
00
00
00
00
FF
FF
00
01
00
00
01
FF
00
00
00
00
00
00
00
00
00
FF
00
00
FF
FF
00
00
00
00
00
00
00
00
FF
00
00
00
00
00
01
00
01
00
00
00
00
00
00
00
00
00
00
00
FF
00
00
FF
00
FF
00
00
00
01
FF
00
01
00
01
00
01
FF
01
00
00
01
00
01
FF
00
FF
00
00
FF
FF
00
00
00
00
00
00
00
FF
00
00
00
00
00
00
FF
01
00
00
00
FF
00
00
00
FF
00
00
00
00
00
00
01
01
00
00
00
FF
00
00
00
00
FF
FF
FF
01
00
00
00
00
00
00
01
FF
01
FF
FF
00
00
00
00
00
00
00
00
00
FF
00
00
00
FF
FF
FF
00
00
00
01
FF
00
01
FF
FF
00
FF
00
00
00
01
00
FF
00
00
00
FF
00
00
00
00
00
FF
00
00
00
FF
00
00
00
00
01
00
00
FF
00
00
FF
00
00
FF
00
00
00
00
FF
00
00
00
00
00
FF
00
FF
00
00
00
FF
00
00
01
FF
00
FF
00
01
00
00
01
00
FF
00
00
FF
FF
FF
00
01
00
00
FF
FF
00
00
01
FF
01
00
00
00
00
00
00
00
01
00
FF
00
FF
00
FF
00
FF
FF
01
00
FF
01
FF
00
FF
00
00
00
FF
00
FF
FF
00
00
00
00
00
00
01
01
00
00
FF
00
00
00
00
00
01
00
00
00
00
FF
00
FF
00
00
00
01
FF
FF
00
00
FF
00
00
00
FF
FF
01
00
00
01
FF
00
00
FF
FF
00
FF
01
01
00
FF
FF
01
00
FF
FF
01
00
00
00
01
00
00
FF
01
00
01
00
00
00
00
00
00
01
FF
00
00
00
00
01
01
00
01
00
01
FF
FF
FF
02
01
00
FF
00
01
01
01
00
00
FF
00
00
01
01
01
00
00
00
FF
01
01
01
02
00
01
01
00
00
02
FF
FF
02
FF
01
01
01
00
FE
00
01
00
00
00
00
00
00
00
00
01
FF
FF
FF
FE
01
01
00
FF
FE
00
FF
FF
02
01
00
01
FF
00
FF
02
00
01
00
01
00
01
01
FF
00
01
01
01
00
01
00
01
01
00
01
FF
FF
00
00
FF
01
01
01
FF
FE
01
01
01
02
00
FF
00
FF
01
00
02
FF
00
00
01
FF
00
01
00
00
01
00
FF
00
00
00
FF
00
01
00
FF
FF
01
00
00
FE
00
01
00
FF
02
FF
00
FF
FF
FF
00
FF
01
00
FE
00
01
01
00
01
01
00
00
00
01
00
02
00
FF
00
00
00
00
FF
02
FE
01
00
FF
FF
FE
FF
01
01
FF
FE
00
FF
FE
FF
00
01
00
FF
FF
00
00
00
00
00
01
01
01
01
02
00
00
01
01
FF
01
00
01
FD
01
01
01
00
01
FE
00
00
01
00
00
00
FF
FF
00
FF
02
02
01
01
00
01
FF
FF
01
01
01
00
FF
01
FF
FE
FF
00
00
00
FE
00
00
01
FE
01
00
FF
00
FF
00
01
00
00
00
01
00
FF
02
00
02
02
00
00
00
FF
00
FE
00
02
00
00
00
00
00
00
00
02
FF
00
FF
01
00
00
00
00
00
00
00
00
00
FF
00
00
00
00
00
00
00
FF
00
01
00
01
FF
00
00
FE
00
01
00
00
01
00
01
FE
01
01
00
00
FF
00
FF
00
00
00
FF
00
FE
FF
00
01
FF
00
FF
00
FF
00
00
FF
FF
00
01
00
01
01
FF
FE
00
01
00
FF
FF
FF
FE
FD
00
01
00
00
FF
FF
00
FF
FF
00
00
01
FF
00
01
00
01
FE
01
FF
FF
01
01
00
01
FF
02
00
FF
FF
00
00
00
00
FF
FF
00
00
01
00
FF
00
00
FF
00
00
FF
FF
00
00
FF
FF
00
01
00
00
FF
00
FF
FF
00
01
00
01
00
00
FF
FF
00
00
01
00
FF
FF
00
00
00
00
FF
00
00
01
00
00
02
00
FF
01
01
00
FF
FF
00
01
02
00
00
FE
FF
FF
00
02
02
FF
00
FF
FF
FF
01
FF
FF
FF
FE
FF
00
01
00
FE
00
FF
00
01
01
00
00
00
01
00
01
00
FE
00
FF
00
01
01
00
FF
00
01
FF
00
00
00
00
FE
00
01
00
FF
00
FF
00
00
01
00
00
00
00
00
FF
01
01
00
01
01
01
00
00
01
01
01
00
00
01
01
01
FD
01
02
00
FE
00
FF
01
FF
02
00
FE
00
00
FF
01
01
FF
01
00
00
FF
FF
02
01
00
01
00
00
00
FF
02
FE
01
00
01
FF
FF
00
00
00
00
00
FF
00
FE
00
FE
02
00
FF
00
FF
00
01
FF
00
00
00
00
01
01
00
01
00
00
00
00
00
01
01
00
01
FF
01
00
00
01
01
01
01
00
00
01
FF
00
01
01
00
FF
01
00
00
00
01
01
FF
FF
00
00
01
00
FE
00
FF
00
01
00
01
01
01
01
00
00
00
00
FF
01
FF
00
01
00
00
02
FE
00
FF
01
01
00
01
00
01
FE
00
FF
00
FF
00
FE
01
00
FE
00
FF
00
01
FF
02
01
00
00
00
01
00
00
FF
00
FF
FF
01
00
01
01
FF
FF
FF
FF
00
00
01
01
FF
FE
FF
00
01
00
01
00
FF
00
00
01
00
00
00
FF
00
00
FE
01
02
01
00
00
FF
FF
00
FF
00
00
FF
FF
00
FF
00
FF
FF
00
00
00
FF
00
FF
FE
00
00
00
01
FF
00
FE
FF
00
01
01
01
FF
00
FF
FF
00
01
01
00
00
01
00
01
00
01
00
00
01
01
02
02
00
01
00
FF
01
00
00
01
00
FE
FF
01
01
02
00
00
00
00
00
02
FF
02
00
02
00
00
01
02
00
01
01
01
01
01
00
00
00
FF
FF
01
FF
01
01
FE
01
01
FF
00
00
00
FF
01
00
02
FF
00
00
01
01
01
00
01
00
00
00
01
01
02
FF
00
01
02
00
01
01
01
00
00
FF
00
FE
00
01
FF
01
00
00
FF
00
00
FF
01
01
01
FF
00
00
01
00
01
00
00
00
01
01
01
00
02
02
01
02
00
FF
FF
00
01
00
FF
01
00
00
FF
FF
00
01
00
FF
00
FF
00
00
00
02
00
00
FF
FF
01
FF
01
01
00
01
FF
00
01
00
01
00
FF
01
FF
00
00
00
00
FF
00
01
00
FF
FF
00
FF
01
01
00
00
00
FE
00
01
00
00
FF
FF
00
00
00
FF
FF
FF
FF
FF
00
00
00
00
00
00
00
00
01
00
00
FF
FF
00
FF
00
00
00
00
00
FE
FF
FF
01
01
01
00
00
00
01
FE
01
00
00
FF
01
FF
00
FE
01
01
01
01
01
00
00
FF
FF
01
01
00
01
01
FF
FF
FE
00
00
FF
00
FF
01
FE
02
02
00
00
00
FF
00
FE
01
01
01
00
01
00
FF
FF
00
01
01
01
00
02
00
01
00
00
00
FF
01
01
00
00
01
01
00
00
00
FE
00
FF
01
00
FF
00
01
FF
FF
FF
FF
02
00
00
FF
01
01
01
02
01
00
FF
FF
00
01
00
02
00
00
00
FF
01
01
FF
01
FE
00
00
01
FE
00
00
00
00
00
00
00
FE
00
00
00
01
00
00
01
00
01
01
01
00
00
00
FF
01
00
01
00
FF
FF
00
FD
00
FF
01
FF
FF
FF
FF
00
00
00
00
FF
FF
01
00
02
FF
01
01
00
00
FF
00
02
FF
01
01
01
00
00
FF
01
00
01
01
FF
FF
00
00
00
00
00
00
FF
FF
01
FF
00
FF
01
01
FF
00
01
01
00
FF
FF
01
FF
00
01
FF
00
00
FF
00
00
01
FF
FF
FF
02
FF
00
FF
01
FE
FE
00
03
00
FF
01
02
FE
FF
02
00
00
01
00
00
02
01
FF
FF
FE
01
00
00
01
00
00
00
FF
00
01
FF
00
00
FF
01
00
00
00
FF
FF
00
00
03
01
00
00
00
FF
FF
03
00
01
01
00
00
01
00
00
00
01
01
01
00
01
01
00
00
01
02
00
FF
01
01
00
00
01
00
00
00
01
00
00
01
00
01
01
FF
01
01
02
01
02
00
01
01
00
01
00
00
00
FF
FF
01
01
00
FF
01
01
00
01
01
00
00
FF
FF
00
01
00
FF
01
01
00
FE
00
00
00
FF
01
00
FF
01
02
FF
01
FF
00
00
01
FF
01
00
01
00
00
00
00
00
00
FF
01
00
00
00
FF
01
00
FF
FF
02
00
00
00
00
FF
00
FF
01
01
00
FF
00
01
01
FF
FF
01
00
01
01
00
01
00
00
00
FF
00
01
01
01
00
FF
FF
FF
00
00
00
00
01
00
00
00
00
FF
02
00
03
01
02
01
00
01
FF
01
FF
FF
01
00
FF
01
00
00
FF
FF
01
00
FE
01
00
FF
FF
00
00
00
01
FF
00
00
00
00
01
00
00
FF
02
FF
02
02
00
00
01
00
00
00
00
02
FF
01
FE
01
00
00
01
01
FF
00
FE
00
FF
00
00
00
00
FF
00
00
FF
00
FF
01
00
FF
00
FF
FF
00
FE
01
00
FF
00
FF
00
FF
01
00
00
00
00
FF
00
00
00
00
00
00
00
00
00
00
00
00
01
01
00
00
FF
01
00
01
00
00
01
00
FF
FF
FE
00
00
01
00
FF
00
01
01
01
FF
FF
00
FF
FF
00
FF
00
00
00
01
FF
00
00
00
00
01
01
FF
00
01
00
01
00
01
00
00
01
00
00
FF
FF
FF
01
FF
00
FD
00
FF
00
00
FE
FF
FF
FD
01
FF
FF
00
FF
FF
00
FE
FE
FF
00
FE
FE
FF
01
00
FF
00
00
FF
FF
00
03
01
00
00
01
FD
FF
02
FF
FF
01
00
00
FF
00
00
FE
00
01
00
00
00
00
00
FE
00
00
01
00
FF
00
FF
01
01
00
01
FF
FE
00
00
03
01
00
00
FE
FE
FD
03
01
00
01
00
FF
FF
00
00
FF
01
FF
01
00
00
01
01
00
00
01
00
01
01
01
00
FF
01
00
01
FE
01
01
01
00
01
00
01
FC
00
FF
00
00
03
00
01
FF
00
01
00
FF
00
00
01
01
FF
01
FF
00
00
00
00
02
01
00
FF
FF
00
00
00
FF
01
00
FE
FE
FE
00
FF
FB
FF
00
FF
01
02
FE
00
00
01
02
01
01
00
FF
01
FF
00
01
01
01
00
FF
00
00
00
00
01
02
FE
FF
FE
FF
FE
FF
02
00
FE
01
FE
FE
FD
00
FF
00
FF
02
FF
FE
FF
00
FE
01
FF
02
00
FE
FE
01
FE
FF
00
00
00
FF
FF
00
00
FF
01
00
00
00
00
00
00
FF
01
00
01
00
00
00
00
01
FF
01
01
00
00
00
00
00
FD
FE
FF
FF
01
00
00
00
FF
FF
FF
00
FF
00
01
FF
00
FF
FF
00
00
FF
03
00
02
FE
02
01
01
FF
02
FF
FF
FF
00
01
00
00
01
00
00
FD
00
00
00
01
FF
00
FF
FF
FF
01
00
00
00
00
FF
00
FE
02
01
00
02
00
FF
01
FD
FE
FF
00
01
00
FE
FE
FF
01
01
00
01
FF
FF
FD
FF
00
01
00
00
01
FF
FF
00
00
00
00
00
00
FF
02
00
FF
00
00
00
02
01
00
00
FE
FF
00
FF
FC
FF
FD
00
01
00
00
00
FE
00
FF
01
02
00
00
FF
00
01
00
01
01
00
00
FF
02
01
00
02
FF
01
00
FF
01
FF
FF
00
FE
FF
01
FD
FF
02
02
01
01
01
01
00
01
00
01
00
00
FF
00
00
01
00
01
FF
00
01
00
01
00
01
00
00
00
01
FF
01
00
00
00
01
02
00
00
00
01
02
02
01
00
00
02
00
00
02
01
01
FE
00
01
00
01
00
FF
01
FF
01
00
00
00
00
00
00
00
00
FF
02
01
01
00
FF
02
FF
00
01
02
01
FF
00
FF
01
00
01
00
00
00
00
00
00
00
FF
FF
00
00
FF
00
FF
00
FE
00
00
01
00
01
01
01
FF
00
01
01
00
01
00
00
01
00
FE
00
FF
FF
01
FF
00
FF
FF
01
00
00
01
00
FE
FD
00
00
02
01
FF
00
FE
00
02
01
01
02
FF
00
FF
01
02
01
00
00
FF
FF
03
FF
FE
00
FE
00
00
FF
FE
FE
FF
01
FE
02
01
01
FE
FD
FE
01
FF
00
00
01
00
FF
FF
01
FF
01
00
00
FF
02
00
01
FF
FD
FF
00
01
03
00
00
00
01
01
FF
02
01
00
02
01
01
00
01
01
00
FF
FF
01
01
00
00
01
FF
01
02
00
01
00
00
FF
00
01
02
02
FF
02
00
01
00
00
00
00
02
00
00
00
01
01
03
00
02
FF
00
FF
FF
01
00
FF
01
FF
FF
02
00
00
03
00
01
01
01
01
01
01
02
02
00
01
FF
FF
00
01
01
02
01
FF
FF
01
01
01
02
01
00
FF
FF
00
00
01
00
FF
FF
00
00
00
01
01
01
FF
00
00
01
00
00
00
01
00
01
01
01
01
00
00
02
00
FE
00
00
01
01
FF
01
FF
FF
01
00
00
00
FF
00
FF
FF
00
00
00
01
00
00
00
01
00
00
02
00
01
01
01
02
01
01
01
02
FF
01
FF
FD
FF
01
FE
02
FF
FF
00
FF
01
00
FC
00
FE
00
FF
00
FF
00
FC
02
00
01
FF
00
00
01
FF
00
00
01
FF
00
FE
01
FF
01
FF
FF
01
01
00
00
00
FE
00
FF
00
00
00
00
01
FE
01
01
01
00
01
00
01
FF
02
FF
00
00
01
01
00
FF
01
00
00
FF
02
01
01
00
01
01
00
00
00
00
00
FF
01
01
FF
01
00
00
01
FF
00
00
00
00
00
01
00
FE
00
00
01
FE
01
00
FF
FF
00
00
00
FF
02
FF
FF
01
01
00
00
00
00
FF
00
FF
01
00
01
00
02
01
00
01
00
01
01
00
00
00
00
00
00
02
FF
FF
00
00
00
02
FF
01
FF
00
FF
FF
01
FF
FF
00
01
FF
00
01
FF
00
FF
FF
00
00
00
00
00
00
01
01
FF
00
00
00
01
FF
00
00
00
FE
01
00
FF
FF
FF
00
01
FE
00
01
FE
FF
00
02
01
01
00
01
FF
FF
00
00
00
01
00
FF
00
00
00
00
01
FF
00
00
00
FF
00
FF
01
FF
01
01
FF
FF
01
01
02
00
00
01
00
FF
01
FF
01
00
00
00
00
FF
02
FE
00
FF
01
01
01
00
02
FD
01
00
01
00
01
FF
00
FF
00
01
00
FF
01
00
FE
01
FF
00
00
00
FF
00
01
FE
01
01
01
00
00
00
01
FD
00
00
01
00
01
00
00
FF
00
01
00
FF
00
00
00
00
00
FF
01
FF
00
FF
00
01
01
00
00
00
00
FF
FF
FF
01
01
FF
00
00
FF
01
FE
FF
01
00
FF
FF
00
00
00
00
FF
01
01
FF
00
02
00
01
01
01
00
00
00
01
00
02
00
00
00
00
FF
00
FF
FF
FF
FF
00
01
00
02
FF
00
00
01
00
01
01
01
FE
01
00
01
FF
00
FF
00
00
00
00
FF
FF
FF
00
FF
00
FF
FF
FF
FF
00
02
FF
FD
00
01
01
00
00
00
FF
FD
00
00
00
FF
FF
00
00
FE
00
01
01
00
FF
FF
FF
00
FF
FF
01
01
00
01
FF
00
01
FF
02
00
01
01
00
00
00
00
01
00
01
02
01
00
00
00
01
00
00
00
00
00
00
00
01
00
00
01
FF
01
00
00
FF
FF
00
00
FF
00
FF
FF
00
FE
FE
02
00
FF
00
FF
00
00
01
02
01
FF
00
FF
00
00
00
00
01
00
00
02
01
00
01
01
FF
00
01
01
FF
00
01
FF
FE
00
00
01
FE
FF
FF
01
00
FF
01
00
FF
FF
01
01
00
FE
00
01
FF
00
FF
FF
00
FF
00
01
FF
00
FE
00
00
FF
00
01
FE
FF
FF
FF
02
FF
01
01
FF
00
FE
01
00
00
00
00
01
FF
00
00
00
00
00
00
01
01
01
01
00
FF
01
00
00
01
FF
01
00
01
00
01
FE
00
00
01
01
00
00
01
FF
00
02
00
FE
00
FF
00
00
FF
FF
02
FE
00
FE
00
01
00
00
01
FF
02
FE
01
FF
00
01
02
01
00
FF
FE
FF
00
01
01
02
01
01
FD
00
FF
01
00
01
00
01
01
FF
00
FF
00
00
01
01
00
FF
FF
00
00
00
01
00
00
FF
01
FF
00
00
02
01
00
FF
00
01
00
FF
00
FF
FF
FF
01
01
FE
00
01
01
01
00
FF
00
FF
01
01
00
00
FF
01
00
01
00
01
00
FF
00
00
01
01
01
01
FF
FF
00
00
02
FF
00
FF
FF
FF
00
00
01
FE
00
FF
01
FF
00
00
02
FF
00
01
01
FF
01
00
02
00
00
02
01
FF
00
00
01
01
00
01
00
00
01
FF
02
00
FF
FF
00
01
FF
01
01
00
00
01
00
FF
01
00
00
00
00
02
01
00
01
01
00
01
00
01
00
00
00
00
00
01
00
FE
01
01
01
01
00
FF
01
FF
01
02
00
01
00
FF
00
02
00
FF
00
00
FF
01
00
04
00
FF
00
FF
00
02
01
01
00
00
FF
FF
FF
FF
00
FF
FF
00
FE
FF
FF
FE
00
FF
00
00
FF
FF
00
FF
00
01
01
FF
00
00
00
00
01
01
FF
01
01
00
01
01
FE
01
FF
01
00
00
01
00
FF
00
00
FF
FF
FF
00
02
00
FF
01
01
00
FF
00
01
FF
00
FE
FF
01
00
00
FF
00
01
00
01
01
00
01
FF
00
00
01
01
FF
FF
00
00
00
01
00
01
FF
FF
00
01
01
01
FF
00
FE
FF
01
01
01
00
00
FF
00
01
00
00
02
FF
00
00
02
01
00
01
00
00
00
01
00
00
01
01
00
01
00
FF
FF
01
00
00
01
01
00
FE
FF
FF
02
01
01
00
01
FF
00
FF
01
01
00
FF
FF
00
01
00
00
00
01
00
00
02
01
01
01
FE
00
01
00
FD
02
02
FF
FF
00
FF
01
FE
02
00
FE
00
02
01
02
FF
00
00
FF
01
00
01
01
01
FF
FF
00
FF
00
00
01
00
00
FF
FF
01
FF
FF
00
00
01
01
00
FF
00
00
FF
02
00
00
FF
00
00
FF
FF
01
00
01
00
00
00
01
00
00
00
01
01
01
00
01
00
00
FF
FF
00
00
00
00
00
00
FF
01
00
01
01
01
02
01
FF
00
FF
00
01
00
01
01
00
00
FF
00
00
FD
00
00
01
00
00
00
00
00
00
00
00
01
FF
01
00
00
FF
FF
FF
01
00
FF
01
00
02
00
FF
00
FE
00
FF
00
00
01
FF
00
00
00
00
00
00
00
00
FF
FF
01
00
00
00
01
01
00
FF
00
01
FF
FF
01
00
01
01
FF
FF
00
FE
00
00
01
FF
FE
00
01
FF
00
FF
00
01
00
00
01
00
00
00
00
01
00
FF
00
FF
01
01
00
00
00
FF
01
FE
01
00
FF
FF
00
FE
01
FE
FF
FF
01
01
FF
00
FF
00
01
FF
00
02
FF
00
FE
FF
00
00
00
02
FF
00
FF
01
00
01
00
01
00
01
00
00
00
01
01
00
01
00
00
00
FF
01
00
00
01
00
FF
00
01
00
00
00
00
02
FE
FF
00
00
00
02
01
00
01
00
FF
FF
01
01
01
01
00
00
00
01
01
01
01
00
00
01
01
00
00
00
01
FF
00
FF
00
00
00
00
00
00
00
00
01
01
00
00
00
00
00
FF
FF
01
00
00
00
01
01
00
FF
01
00
FF
01
00
01
01
FF
01
00
01
00
00
00
FF
01
01
01
00
01
00
00
00
01
01
00
00
00
01
00
FE
FF
01
01
01
00
FF
01
00
00
01
01
01
01
FF
00
00
00
00
00
00
00
01
00
01
01
00
FF
00
01
02
00
01
01
00
FF
01
01
01
FF
00
00
00
00
00
00
FF
FF
00
01
01
FF
00
FF
FF
FF
FE
01
01
FF
FE
00
01
00
02
01
FF
00
02
01
01
FF
00
FF
00
00
00
FF
01
FE
00
FF
00
FF
00
00
FE
00
FF
01
00
00
FF
00
FE
FF
FF
03
FF
FF
FF
FF
FF
FF
01
00
01
00
01
FF
01
00
01
00
00
00
00
00
00
FF
00
00
00
00
00
FF
00
01
FF
00
01
00
00
00
00
FE
00
01
00
00
FF
00
01
FF
00
00
00
00
FF
FF
01
01
00
01
01
00
00
00
00
00
FF
00
01
01
00
00
FF
00
00
01
FF
00
FF
00
01
00
00
01
00
01
00
FF
00
00
FF
01
00
00
FF
00
FF
00
00
02
FF
01
FE
01
01
00
00
01
00
FF
FF
FF
FF
01
00
FF
00
00
FF
00
00
00
FF
FF
FF
FF
00
FF
FF
FF
00
02
FF
01
01
FF
FF
FE
FF
02
FE
00
00
FE
FF
02
01
00
FF
00
FF
00
01
01
01
FF
00
00
FF
01
FF
00
FF
FE
00
00
FF
FE
00
FF
00
00
00
00
01
FE
00
02
00
00
FF
FF
02
FF
00
02
00
00
00
00
02
01
00
02
00
00
00
00
01
01
00
01
FF
00
00
00
00
00
00
FF
00
FF
00
00
02
FE
00
00
FF
FF
01
01
00
FE
FF
00
FF
00
01
00
FF
FE
FE
00
00
FE
01
00
00
00
FF
00
00
FF
01
00
FF
01
01
FE
00
00
01
00
01
00
00
00
00
01
00
01
01
00
FF
00
00
FF
00
FF
00
00
00
01
00
00
01
00
FF
00
00
00
01
01
FF
FF
FF
01
00
FF
01
00
00
00
01
00
01
00
00
00
00
01
00
00
01
01
02
00
FF
00
00
00
00
00
01
01
00
FF
FF
01
01
01
00
00
FE
00
01
FF
FF
00
01
FF
01
00
00
FF
00
01
00
01
00
00
00
01
01
01
00
00
00
01
00
00
01
01
01
FF
00
01
00
01
01
00
02
FF
01
01
00
FF
00
02
00
01
01
01
00
01
FF
02
01
01
00
00
FF
01
00
02
02
FF
01
00
00
01
00
FF
02
FE
01
01
01
00
01
01
02
FF
00
02
02
01
02
00
01
00
00
00
FF
02
FF
01
FF
00
00
FF
00
02
00
01
00
00
FE
00
FF
01
FF
01
FF
FF
00
00
00
02
00
01
FF
00
FF
FF
00
FF
FF
01
00
00
00
00
01
00
00
FF
00
01
FF
01
01
00
FF
00
00
FF
FF
00
00
01
01
01
00
FF
00
00
00
00
00
01
01
FE
00
00
00
FE
01
FF
00
00
01
00
02
FF
01
FF
FF
00
01
FF
01
00
00
FF
00
01
01
01
01
00
01
00
00
00
01
01
02
00
00
00
01
00
00
01
00
00
01
01
00
FE
01
00
01
01
02
00
00
01
01
00
00
02
00
FF
00
01
02
00
FF
01
00
00
00
01
00
00
00
01
01
FF
00
01
00
01
01
03
00
FE
01
01
01
FF
00
02
00
FD
01
00
01
FF
FF
00
00
FD
00
01
01
00
FF
FF
00
00
01
01
00
00
01
01
01
00
01
01
01
00
02
01
00
00
00
FF
FF
00
02
01
01
00
00
FF
02
01
01
00
00
FF
00
FF
02
01
02
FF
01
00
00
00
01
01
01
00
FF
00
00
FF
02
00
00
02
01
FE
00
00
FF
FF
01
01
01
FF
FF
00
00
00
01
00
FF
00
00
00
00
00
01
00
00
00
00
00
00
FF
00
00
FF
00
FF
00
FF
FF
FF
01
00
FE
FF
FF
FE
FE
02
00
01
FF
01
00
FF
00
00
FF
FF
00
01
01
FE
FF
00
01
00
00
00
FF
FE
00
FE
00
FF
00
00
00
FE
FF
00
00
00
FF
00
00
FF
FF
FF
00
01
00
00
01
01
01
FF
01
00
01
01
01
00
00
FF
00
01
01
00
FE
00
00
FF
00
00
00
01
FF
00
FF
00
00
00
00
00
00
00
01
00
00
00
00
00
01
01
FF
FF
00
00
00
00
00
01
00
00
FF
01
01
01
FE
01
01
FF
FF
01
00
01
00
01
00
00
00
00
FF
01
03
FF
00
FF
00
FF
FF
01
01
00
00
00
FF
00
FF
02
01
00
FF
FE
01
00
01
00
00
00
00
00
00
00
01
FF
00
FF
00
FF
FE
FF
00
02
01
FF
FF
00
FF
00
FF
02
FF
FF
00
01
FF
01
00
01
01
00
00
FF
01
00
FF
00
00
FF
00
00
01
00
01
00
FF
FF
01
FE
FD
FF
00
00
FF
00
01
03
FE
00
FF
FF
FF
00
00
02
00
01
01
01
00
00
00
01
01
01
00
FF
FF
FF
00
01
00
01
00
00
00
FF
00
00
FF
00
01
FF
FF
01
01
02
00
00
FF
FF
00
01
00
00
01
00
FF
00
02
01
00
FF
00
01
00
00
00
FF
01
00
FF
FF
00
00
00
01
00
01
01
00
00
01
00
01
00
01
FF
00
FE
00
00
01
00
02
00
00
FF
01
01
00
FF
01
FF
00
00
00
01
00
00
00
00
00
00
01
01
01
00
02
FF
00
00
00
01
02
01
FF
00
01
01
00
01
01
01
00
01
FF
01
01
01
FF
FF
00
02
01
00
00
00
FF
01
00
03
01
01
01
01
FF
FF
02
FF
FF
01
FF
00
01
01
00
00
00
01
00
00
00
01
01
00
00
00
00
00
FF
FF
01
01
01
FF
FF
FE
00
FF
FF
02
03
00
00
00
FE
FF
02
01
01
FF
00
FF
00
00
00
FF
00
01
00
00
01
02
FF
FF
00
01
01
00
FF
FF
FF
01
00
00
FF
FE
FF
01
00
02
00
FF
FF
FF
FF
FF
02
00
FF
FF
00
FF
00
00
00
00
00
FF
00
01
02
01
FF
01
01
00
00
01
01
00
00
FE
01
01
00
FC
01
02
FF
FE
00
FF
03
FF
02
00
FD
00
01
02
01
00
FF
00
00
00
00
01
01
02
00
00
FF
00
FF
FF
02
00
01
00
00
FE
00
FF
01
FF
01
00
FF
00
00
FF
01
02
01
FF
00
00
00
FF
FE
00
FF
01
FF
01
00
00
01
FF
00
00
01
00
01
00
02
01
FF
01
FF
00
01
00
00
00
00
01
00
00
00
01
02
01
00
00
FF
01
00
00
00
00
00
01
FF
01
01
FE
FF
FF
01
01
00
00
01
02
00
01
FF
01
00
FF
01
00
00
00
FF
00
01
00
01
00
02
01
FF
FF
00
FE
FF
00
FF
00
FF
00
FF
FF
01
00
FF
FF
01
01
01
00
01
00
00
00
01
00
01
00
00
01
FF
00
00
00
02
FE
FF
FF
00
01
FF
00
FF
FF
00
01
FF
00
FF
FF
00
01
02
00
00
00
00
00
FF
00
00
FF
01
00
01
00
FF
FF
FF
01
FE
00
FF
00
FF
00
FE
01
FE
FF
00
00
00
01
FE
00
00
00
01
00
01
00
00
FD
FF
00
00
00
00
FF
FF
FE
00
FF
02
00
FF
00
00
01
00
FF
02
00
00
01
00
00
02
00
02
00
00
FF
00
FF
FF
00
00
01
00
FF
00
01
01
00
01
00
00
00
00
02
00
FF
00
01
00
00
01
00
00
FF
FF
00
00
00
00
00
00
00
00
00
01
FF
FF
01
01
01
00
00
00
FE
FF
01
00
01
01
00
00
00
00
00
00
00
01
01
FE
00
00
00
00
FE
01
01
00
FF
01
00
02
01
02
01
01
FF
01
02
02
01
01
00
00
FF
00
01
00
00
02
00
FF
FF
FF
FF
01
01
01
00
FF
01
00
01
00
00
FF
00
FE
01
00
FF
00
02
02
00
01
FE
FE
01
00
00
02
00
FF
FE
FF
00
00
00
00
00
FE
FE
00
00
00
00
FF
00
00
FF
01
01
00
00
01
00
00
00
00
FF
01
01
01
00
02
FF
FF
02
FE
02
01
00
FE
00
00
01
00
00
FF
00
FF
01
00
01
01
FF
FF
00
00
00
00
00
01
00
00
00
00
01
00
00
01
00
01
FF
02
01
01
01
FF
FF
00
00
00
01
01
00
00
00
01
FF
01
FF
02
FF
00
00
00
00
01
FF
00
FF
01
01
01
00
01
00
00
01
01
00
00
00
00
02
FF
00
00
00
00
00
01
01
00
FF
FF
01
FF
FF
00
00
00
01
FE
00
00
00
01
00
00
01
FF
01
00
01
01
FF
FF
00
00
00
01
00
01
01
00
00
00
FF
01
FF
00
00
01
01
00
FF
01
00
01
01
00
01
FF
00
00
00
01
00
00
00
FF
00
FF
00
01
FF
00
FF
01
00
00
00
00
02
01
01
00
FF
00
00
FE
01
01
01
00
FF
01
00
FF
00
01
FF
00
00
00
00
00
00
00
01
00
00
00
00
00
00
00
FF
01
01
00
00
00
03
FF
FF
00
00
00
00
FD
03
FF
FC
00
01
00
00
FD
00
00
FF
00
00
FF
00
FE
FE
00
00
01
00
00
01
01
FF
00
00
00
02
01
00
01
FF
00
00
FE
FF
02
00
FE
00
FE
01
FE
FF
01
01
FE
FF
FD
00
FF
00
01
00
FD
01
FB
00
00
00
FE
FE
FD
02
FD
00
FF
01
FE
FF
00
00
FF
00
00
FF
01
01
FF
FF
FE
00
01
00
FF
00
FE
FF
00
00
01
02
FF
00
FE
FF
01
01
01
03
FE
00
FF
00
01
00
01
02
FF
00
00
FF
00
01
00
00
01
01
FF
01
00
00
00
00
00
01
FF
00
01
01
00
00
00
00
00
00
01
FF
01
01
00
00
00
FF
01
00
01
FF
02
00
00
00
00
01
FF
01
00
00
00
00
01
01
00
01
02
01
00
00
01
01
01
00
01
00
FF
01
00
00
01
00
FF
00
01
01
FF
00
FE
00
00
FF
01
00
FF
00
00
FF
00
00
FF
00
00
00
FF
00
01
00
00
00
FF
01
00
01
00
00
01
01
00
01
FE
FF
00
00
01
00
FF
00
FE
FF
FE
00
FE
02
FF
02
FF
00
00
00
00
01
FD
03
FD
00
FF
00
FF
01
FF
05
FE
FE
FE
FF
FF
02
01
02
FE
FD
00
00
01
00
01
01
01
FE
FF
00
01
01
FF
02
FE
FE
00
00
FF
FF
FE
01
FF
FE
00
01
FF
01
00
02
01
FF
01
FF
00
02
01
00
00
00
01
00
03
FF
01
01
00
FF
01
01
02
00
01
02
00
00
01
FF
FF
00
01
01
01
00
01
00
01
01
00
01
00
00
01
01
00
01
00
01
00
00
01
FF
01
01
01
00
FF
01
00
01
00
01
FF
02
00
00
00
00
FF
02
00
03
00
01
00
01
FE
00
FF
02
00
00
01
00
00
01
01
00
01
00
01
00
00
01
01
00
01
FF
00
00
FF
FF
00
02
00
FF
00
00
00
01
01
03
00
FF
00
01
FF
01
01
02
01
00
00
00
FE
01
00
00
00
FF
FF
00
FF
FF
FE
00
FF
FE
FD
01
FF
00
FD
00
FF
00
00
00
00
00
FF
01
00
FF
FE
00
FF
03
01
00
00
FF
FE
FF
00
03
02
00
FF
00
FD
FF
02
04
02
00
FF
00
FD
FF
03
FF
FF
01
FF
01
01
00
FF
01
FE
01
01
01
FF
00
00
02
FF
00
FF
00
00
00
00
02
00
00
00
FF
FF
00
01
02
00
00
01
FE
FF
FE
01
FF
01
00
01
01
00
00
00
01
01
01
02
00
00
00
FF
00
01
FF
01
00
01
00
00
01
00
01
00
FF
00
00
00
00
00
00
00
FF
FF
FF
FF
00
01
FF
00
00
01
00
00
02
00
00
01
00
00
00
01
00
00
00
FF
01
01
01
00
00
00
00
FF
00
00
01
00
00
FE
00
00
FF
01
00
FE
01
00
FF
00
FF
00
FF
00
01
00
00
01
FF
00
00
01
02
01
00
00
00
00
01
01
01
01
FF
00
00
01
01
01
FF
01
00
01
01
01
01
00
00
01
02
00
FF
00
00
FF
01
03
01
01
00
00
00
01
00
01
FE
01
01
00
00
02
FF
02
00
02
02
FF
00
01
FF
00
00
03
02
00
00
FF
01
FF
00
FF
FF
00
FF
FF
01
01
00
00
FF
00
01
00
00
00
01
00
00
00
FF
00
FF
00
01
00
FF
00
00
01
FE
FF
FF
FE
01
FF
00
03
00
FF
FF
FF
01
01
00
FF
00
00
FF
00
01
00
00
FF
FF
FF
02
00
01
01
FF
02
00
00
00
00
00
00
00
02
00
FE
00
FE
00
00
00
02
00
01
FF
01
01
00
00
00
FF
01
FF
00
01
01
00
01
00
01
01
00
00
00
00
01
01
00
01
01
00
01
FF
FF
00
FE
00
FF
00
FF
01
00
FF
02
00
00
00
FF
00
FF
00
00
03
00
01
FF
00
00
00
01
02
FF
00
00
01
FF
00
FF
FF
FF
01
00
00
00
00
FF
FF
00
01
00
00
01
FF
FF
00
00
00
00
00
FF
01
FF
00
00
00
00
00
FF
00
FF
00
00
01
00
00
FF
00
FF
00
FF
00
00
00
01
01
00
00
00
00
00
00
FF
00
00
00
FF
00
00
FF
00
00
00
FF
01
FF
00
00
00
00
00
00
FF
00
00
00
FF
00
00
00
00
FF
00
FF
FF
00
00
00
00
00
00
00
00
FF
00
FF
01
00
00
00
00
00
00
FF
00
00
FF
01
00
00
00
FF
01
01
FF
00
FF
FF
01
FF
00
FF
00
00
00
00
00
FF
01
00
FF
00
FF
00
00
FF
FF
FF
FF
00
FF
FF
00
00
00
00
00
00
00
00
FF
00
00
00
00
FF
00
00
00
00
FF
00
FF
00
00
01
00
FF
00
00
FF
00
00
00
00
FF
FF
00
FF
FF
FF
00
FF
00
FF
00
00
00
00
00
00
00
00
00
01
00
01
00
00
00
01
00
00
FF
FF
FF
00
00
FF
00
00
00
00
00
00
01
FF
FF
00
01
00
FF
01
FF
FF
00
FF
00
00
FF
FF
00
00
FF
00
01
00
FF
00
01
00
00
00
01
00
00
FF
FF
00
01
01
00
00
00
00
00
00
00
00
00
00
00
00
00
FF
00
01
00
00
FF
00
00
FF
FF
00
FF
FF
00
00
00
00
01
FF
00
00
FF
00
00
FF
FF
FF
01
FF
00
FF
00
00
FF
00
01
01
FF
FF
00
00
01
00
00
FF
FF
00
FF
00
00
00
00
00
00
00
00
00
00
00
00
00
00
FF
FF
00
00
FF
01
FF
00
00
00
00
FF
FF
00
00
00
00
00
FF
00
FF
01
FF
00
00
FF
00
00
FF
00
00
FF
FF
01
00
01
00
FF
00
00
00
FF
00
FF
00
01
FF
00
00
00
FF
00
FF
FF
00
00
00
00
FF
00
00
00
00
00
00
00
00
01
FF
01
FF
FF
00
00
FF
00
00
FF
00
FF
FF
00
00
00
00
00
00
00
01
01
00
00
00
01
00
01
00
01
00
00
00
00
FF
02
FF
00
FF
01
01
FF
00
02
FE
00
FF
00
00
00
00
02
FE
00
00
FF
FE
FF
00
01
FF
FF
FF
00
00
FF
00
01
FF
FF
00
FF
00
00
01
00
FF
FF
00
00
FF
FF
00
01
FF
00
00
02
00
00
01
00
00
00
FF
00
FF
FF
00
FF
00
FF
01
00
00
00
FF
00
01
FF
01
01
00
FF
FF
00
02
00
02
00
00
00
FF
00
01
FF
01
01
00
00
FF
FF
02
FF
01
FF
FF
FF
FF
00
01
00
00
00
00
00
01
00
01
00
00
00
00
01
01
02
00
00
00
01
02
01
00
00
01
00
01
FF
00
01
00
01
01
01
01
00
00
01
00
01
FF
FF
00
FF
00
00
00
01
00
01
01
FF
00
00
00
01
00
00
FF
01
01
FF
01
01
01
01
00
00
00
00
01
01
01
01
00
FF
01
02
00
01
01
01
00
02
00
00
FF
00
00
01
FF
01
FE
00
FF
01
00
03
01
01
FF
00
FF
00
02
00
01
FF
FF
00
FF
FF
01
01
00
00
FE
FF
FF
FF
FF
02
FF
FF
FE
00
FF
00
00
00
01
00
FF
00
FF
01
00
02
01
00
00
00
00
00
00
00
FF
FF
FF
00
01
00
FE
00
FF
FF
FF
01
01
FF
FF
02
00
FE
01
00
01
FF
00
00
00
FF
00
FF
02
FF
FF
00
00
00
00
00
02
FF
FF
00
00
01
01
00
02
FF
FF
FF
FE
01
00
FF
01
00
00
02
01
00
00
FF
01
FF
01
FF
01
00
00
FF
00
FF
FF
00
01
01
00
00
00
00
00
00
FF
01
00
01
01
00
00
00
00
01
00
00
00
00
00
02
FF
00
FF
01
00
FF
00
01
00
00
FF
FF
00
FF
01
01
00
00
00
00
00
00
00
01
00
01
FF
FF
00
FF
00
00
00
00
FF
00
02
01
01
00
00
FF
00
00
02
00
01
FF
FF
01
00
00
01
FF
01
00
00
00
01
01
00
FF
00
00
00
00
00
FF
00
01
01
FF
FF
00
00
00
01
00
00
01
00
FF
00
00
FF
00
FF
01
FF
00
00
01
FF
FF
00
00
00
00
01
00
00
00
FE
00
00
00
00
FE
01
00
00
00
00
01
01
00
00
01
02
00
00
00
00
00
00
FF
01
00
00
01
01
01
FF
00
00
00
01
01
00
00
FF
FF
FF
01
02
00
FF
FF
00
00
01
00
FF
01
FF
FF
01
00
FF
FF
01
FF
00
00
00
FE
01
00
00
FF
01
01
FF
FF
00
01
00
00
00
01
00
01
01
01
00
00
FF
01
01
01
01
00
01
00
00
00
01
00
FF
00
FF
FF
01
00
FF
FE
FF
00
FF
01
00
00
00
FF
01
00
FE
00
01
01
FF
FF
00
00
00
FF
00
01
FF
00
01
01
02
FE
00
01
00
01
02
00
01
00
00
00
00
FF
00
00
FF
00
FF
00
01
00
00
01
00
FF
00
00
01
00
01
01
01
01
00
00
00
01
01
00
01
00
FF
00
01
01
00
FF
FF
FF
00
00
FF
00
00
00
FF
00
00
00
00
00
FF
00
00
FF
00
00
FF
01
00
02
FF
FF
00
00
FE
00
00
00
FF
FF
00
00
FF
00
00
FE
01
01
FF
01
01
00
FF
FF
FF
01
01
00
00
01
FE
00
FF
FF
01
00
01
02
01
FF
00
FF
01
00
00
00
02
00
01
FF
00
00
00
00
01
00
FF
00
00
00
00
00
00
00
FF
01
01
FF
02
01
01
00
00
00
00
FF
00
01
02
FF
00
00
01
00
00
FF
00
00
00
00
FF
00
00
00
00
00
FF
00
00
FF
00
02
00
01
00
00
00
01
FD
02
FF
01
FF
00
FE
00
FC
01
FE
00
00
00
FF
01
FD
FF
FF
FF
FF
01
00
00
00
01
01
00
01
00
01
00
01
FE
FF
00
FF
00
01
01
01
FF
01
00
FF
00
02
01
FF
FD
00
00
00
00
02
00
FF
FE
FF
FF
00
FF
02
01
FF
00
01
01
00
00
01
00
00
FF
FF
00
00
00
01
00
FF
00
00
00
01
01
00
01
FF
FF
FF
00
01
01
00
00
01
FE
FF
00
FF
02
02
01
FE
01
00
00
01
FF
00
00
01
01
01
00
00
00
01
00
00
00
00
01
01
00
01
00
FF
FF
FF
01
02
02
00
00
01
00
01
01
00
01
FF
01
00
00
FF
00
FF
00
00
00
00
00
00
00
01
FF
01
00
01
00
00
00
00
FF
00
00
01
01
00
01
01
03
FF
00
01
02
01
00
FF
FF
00
00
02
FF
00
01
FF
01
01
FF
FF
FE
00
01
FE
00
01
01
FF
00
00
01
00
01
01
01
00
00
00
01
00
01
00
01
00
01
01
00
00
FD
00
00
01
01
02
FF
01
00
01
00
00
00
01
00
00
01
00
FF
01
01
FF
00
FF
FF
FF
FF
00
01
FF
01
00
00
00
00
00
02
01
01
FF
00
01
00
01
FF
00
FF
01
01
00
00
00
00
FF
01
00
00
FF
FF
FF
00
FF
00
FF
FF
01
00
00
00
00
01
00
00
00
01
FE
01
01
02
01
FF
00
00
FF
FF
01
FF
00
02
00
01
01
00
00
03
00
02
01
01
01
FF
FF
FF
FF
00
00
FF
01
01
02
01
02
01
00
00
00
02
01
01
03
01
02
00
00
01
01
00
01
FF
00
00
FF
01
01
00
FF
00
00
00
FF
01
01
00
FF
FF
00
FF
00
01
01
FF
01
00
00
01
00
FF
01
00
01
01
FF
00
00
01
FF
00
00
FF
FF
01
00
02
00
01
01
FF
00
00
FF
01
01
00
00
00
FF
00
FE
00
FF
00
00
00
00
00
FF
00
FF
00
FF
00
FF
01
00
00
00
01
00
00
FF
01
00
00
00
00
00
FF
FF
FF
01
01
00
FE
00
00
FF
00
00
00
00
FF
01
01
00
00
00
00
00
00
01
01
00
00
00
00
00
00
00
00
01
01
00
FF
00
00
00
00
00
00
FF
00
00
00
00
00
FF
01
00
01
00
01
00
01
00
00
00
02
00
01
00
00
FF
FF
00
00
FF
01
00
00
00
00
00
01
01
01
00
00
00
00
01
00
01
00
00
FF
00
01
00
01
01
01
00
01
01
00
01
01
00
00
00
FF
00
01
00
01
02
01
00
00
00
FF
01
02
02
01
00
00
00
FF
00
00
00
FF
01
FF
01
01
00
00
00
FF
00
01
01
FF
00
FF
01
01
00
00
00
00
00
01
00
FF
01
FF
FF
00
02
00
00
FF
00
FF
00
00
00
00
00
00
00
FF
01
00
00
FF
FF
FF
FF
03
00
00
FF
00
FF
01
FE
01
FF
01
FF
FF
00
00
00
01
01
00
01
FF
FF
00
00
01
00
FF
00
FF
FE
01
00
00
00
00
00
01
00
01
00
00
01
00
01
01
01
00
00
FF
01
00
00
01
01
00
00
00
00
00
00
00
FF
01
00
01
01
00
FF
00
00
00
01
01
01
00
FF
00
01
00
00
01
01
00
FE
00
01
FF
00
00
00
00
00
00
00
FF
01
00
00
00
00
01
FF
01
00
02
00
01
FE
00
FF
00
00
01
00
00
00
00
00
00
01
00
00
FF
FE
01
FF
FF
00
FF
FF
00
01
00
00
FF
01
02
00
00
00
00
FF
00
00
01
FF
00
FF
FF
00
02
00
01
00
00
FF
01
FF
00
01
01
00
01
00
01
00
00
00
00
00
00
00
FE
01
00
FF
00
FF
00
01
FE
00
03
FF
FF
FF
00
02
00
00
02
00
FF
FF
00
01
01
00
00
00
00
00
FF
00
01
01
00
00
00
FE
00
FE
00
FF
FF
FF
00
00
00
FF
00
00
00
00
00
01
01
00
01
FF
00
01
00
FF
00
00
02
00
00
FF
01
FF
00
FF
03
00
01
00
00
FF
FF
01
FF
00
01
FF
FF
00
FF
FF
00
FF
00
FF
01
00
00
00
01
FF
01
01
00
00
00
00
01
01
01
00
FF
00
00
00
01
01
00
01
00
00
FF
02
00
01
00
FF
00
01
00
FF
FF
00
00
01
01
00
01
FF
00
FF
00
01
01
01
FF
FF
00
01
00
FF
FF
00
01
FF
00
01
00
00
00
00
00
01
FF
00
00
01
00
01
01
00
FF
FF
01
FF
00
01
00
00
FF
01
00
00
01
01
01
01
00
01
01
FF
FD
01
01
00
FF
FF
00
01
FF
01
FF
FF
FF
01
00
02
00
00
00
00
00
00
00
02
01
00
00
00
01
00
FF
01
01
FF
01
00
FF
00
00
02
FF
00
00
01
00
00
FF
00
01
00
00
01
FF
FF
00
FF
FE
00
01
00
00
00
00
00
FF
00
FF
01
01
03
01
02
01
00
00
00
00
02
FF
00
00
00
00
00
FE
00
00
01
00
FF
00
00
01
FF
01
FF
FE
00
00
00
00
00
FE
00
FF
01
00
01
00
01
00
01
01
01
00
FF
00
00
FF
00
01
FF
00
01
FE
FF
00
FF
01
00
00
00
FF
FE
00
00
01
00
01
FE
00
00
FE
00
FF
FF
FF
00
01
FF
01
00
00
00
00
01
00
01
00
FF
01
00
FF
01
FF
FF
FF
FF
01
FF
01
FF
FE
FF
00
FF
00
FF
01
FF
00
00
01
01
00
00
00
00
01
00
FF
01
00
00
FF
FF
00
FF
01
FF
00
00
FF
FF
00
FF
01
FE
00
FF
FF
00
00
FF
FF
00
00
00
00
01
00
00
FE
01
00
00
00
00
FF
00
00
01
01
00
00
01
00
01
00
00
00
01
00
01
01
00
01
00
FF
02
01
00
02
00
FF
01
00
FF
FF
01
01
01
FF
01
00
FF
00
01
FF
02
00
FF
00
01
01
01
FF
01
00
00
00
03
01
00
FD
FF
00
00
FF
01
01
FE
00
FF
00
01
00
FF
00
FF
01
FF
01
00
FF
FF
00
FF
00
00
FF
FF
01
02
00
00
FF
FF
00
01
02
03
02
00
FE
FE
00
00
00
02
01
FE
FF
FF
00
01
01
00
00
FE
01
00
01
00
00
FE
FE
00
FF
00
FF
FF
00
01
00
00
FF
FF
FF
01
01
01
00
01
FE
FE
01
00
02
00
01
FE
FF
01
01
01
01
00
FF
00
01
01
01
02
FF
FE
FF
01
00
01
00
01
FE
00
01
00
FF
FF
FF
01
03
01
FF
00
00
00
01
FF
03
FF
00
00
01
00
FF
00
00
00
00
00
00
01
FF
00
00
00
FF
01
01
01
FF
FF
FF
00
00
01
FF
01
01
00
02
01
01
01
00
00
02
01
FF
00
01
00
00
01
01
02
FE
FF
01
00
FF
01
FF
01
00
01
FF
01
00
FF
00
FF
01
00
00
00
00
FF
FF
00
01
00
00
00
00
FF
01
FD
FF
00
00
00
00
01
01
FF
FE
00
FF
01
FF
01
02
00
00
00
01
00
00
00
00
00
FF
00
00
00
00
FF
01
00
00
00
00
FE
01
FF
01
FE
FF
00
00
00
02
00
00
00
FF
00
00
00
01
01
01
00
01
FF
01
FF
FF
FF
00
FF
00
00
00
FF
00
FF
00
02
FF
01
00
FE
01
02
02
00
00
02
00
FF
02
00
FE
00
01
FF
01
FD
01
00
FE
00
00
FF
00
FF
FF
FF
01
FF
00
00
00
01
01
00
00
01
00
01
00
00
01
01
00
01
FF
00
01
01
00
01
00
01
FF
00
00
FF
FF
00
02
01
00
FF
01
02
00
01
01
01
00
FF
00
01
01
01
01
00
01
00
01
FF
01
FF
00
00
00
FF
00
FE
00
00
FF
01
00
00
FF
00
00
00
00
00
00
01
00
00
00
FF
01
00
00
FF
FF
00
00
00
00
FF
FF
01
FF
00
FF
00
FF
FF
00
01
FF
00
00
00
01
00
00
00
00
00
FF
00
00
00
00
01
00
00
00
00
00
FF
00
01
FF
00
00
00
FF
01
00
FF
00
01
01
00
FF
00
00
00
00
00
00
00
FF
00
00
00
00
FF
00
00
00
FF
00
00
00
00
FF
FF
00
00
00
00
FF
00
00
FF
00
00
FF
00
FF
00
FF
00
01
00
00
00
00
00
00
FF
00
00
00
00
FF
00
00
00
00
00
FF
00
00
01
FF
00
FF
00
00
00
00
00
00
FF
00
00
FF
FF
FF
00
00
00
01
00
01
00
00
00
00
01
00
00
FF
00
00
FF
00
00
FF
00
01
00
FF
01
00
00
FF
00
00
01
00
00
FF
01
01
00
01
00
00
00
FF
FF
00
00
00
FF
00
00
FF
00
FF
00
00
00
01
01
00
01
00
00
00
01
00
00
00
FF
FF
00
00
00
00
00
00
00
01
FF
FF
FF
00
00
00
00
00
00
00
00
01
00
00
00
00
00
00
00
00
01
00
00
FF
FF
FF
00
00
FF
FF
00
00
00
00
00
00
00
00
01
00
00
00
FF
00
00
00
00
01
00
00
01
01
00
00
00
FF
FF
00
00
00
FF
01
00
00
FF
01
FF
00
00
00
00
00
00
00
00
00
00
FF
00
00
00
00
FF
00
00
00
00
00
FF
00
00
00
00
FF
FF
00
00
00
00
00
FF
00
FF
01
00
00
00
00
00
00
00
00
00
FF
01
00
FF
FF
00
FF
01
00
00
00
FF
00
00
FF
00
00
00
00
FF
00
00
01
FF
01
00
00
00
01
00
01
01
00
01
00
FF
00
01
FF
00
FF
FF
00
00
00
01
FF
FF
FF
FF
FF
00
00
FF
FF
FF
00
01
00
FF
FF
00
00
00
01
02
01
FF
00
00
02
01
00
FF
FF
00
02
00
00
00
FF
FF
FF
00
03
01
FF
FF
00
FE
FF
01
02
01
FF
00
01
FD
FE
03
FF
00
02
FF
01
00
00
FF
01
FF
02
00
01
FF
FF
00
02
FF
01
00
00
00
FF
00
02
01
FF
00
FF
FF
FF
01
02
01
00
01
00
FF
FF
03
01
02
01
FF
00
00
01
00
00
FF
00
02
00
00
FF
01
FF
00
FF
00
00
01
01
00
FF
00
FF
00
00
01
00
FF
FF
01
FF
02
FF
02
00
00
FF
00
FE
FF
00
00
00
FF
FF
FF
00
00
01
00
00
FE
FF
01
FF
00
FF
FF
01
FF
00
00
01
01
FF
FF
00
00
FF
00
FF
00
FE
00
01
00
FF
00
FE
FF
00
01
00
FF
01
00
FF
00
02
00
00
00
01
00
01
00
FF
FF
01
00
01
00
01
01
00
00
00
00
00
00
FF
00
00
00
01
00
02
01
01
00
FF
00
00
01
02
01
02
FF
00
FF
00
00
00
02
FF
01
01
FF
00
00
FE
01
FF
02
00
FF
01
00
FF
01
FF
03
01
00
00
FF
03
00
02
00
00
00
01
00
01
00
00
FF
00
FF
FF
FE
FF
00
01
FF
00
FF
00
00
FE
01
00
FF
01
FF
00
02
FF
00
00
FF
01
00
00
02
FF
00
FF
00
01
00
01
FF
00
00
FE
00
00
00
00
FF
FF
FF
00
FF
FF
FF
00
01
FF
FF
00
FE
00
00
01
02
FE
FD
00
FD
00
01
00
01
FF
FF
FF
FF
FE
00
FF
00
00
00
01
01
00
01
00
00
01
01
FF
00
01
01
FF
01
FF
00
00
00
00
00
00
01
00
00
00
01
00
00
00
00
FF
00
00
00
FF
00
FF
00
00
01
FF
01
01
01
01
FE
01
00
FF
01
01
01
00
00
00
00
00
FF
00
01
00
00
00
00
00
00
00
01
00
01
01
00
01
00
FF
FF
FF
FF
00
FF
00
FF
00
FF
FF
00
FF
00
FF
00
FF
FF
00
FF
00
00
01
FF
FF
00
00
00
00
00
00
00
00
00
00
FF
FF
00
00
00
00
FF
00
00
FF
00
00
FF
00
FF
00
FF
00
00
00
00
00
00
01
FF
FF
00
00
00
FF
FF
FF
00
FF
FF
00
00
00
00
00
FF
00
00
FF
FF
00
FF
00
FF
FF
FF
01
00
00
FF
FF
FF
00
00
00
FF
00
FF
00
00
00
00
00
00
00
00
00
00
00
01
01
00
00
00
00
00
00
00
00
FF
00
00
FF
00
00
00
00
00
00
00
00
00
FF
00
00
00
00
FF
FF
00
00
00
00
00
00
00
00
01
01
00
00
00
FF
00
00
00
FF
00
00
00
00
FF
FF
00
00
FF
FF
01
00
01
00
00
00
01
00
00
00
FF
FF
FF
00
00
01
00
FF
FF
00
00
00
00
00
00
00
00
FF
00
00
00
00
00
00
00
00
00
FF
00
00
00
00
FF
FF
00
FF
00
01
FF
00
00
00
FF
FF
00
FF
FF
FF
FF
FF
FF
00
FF
FF
00
00
00
00
FF
00
01
00
00
00
00
01
00
00
00
00
FF
00
FF
00
FF
00
01
FF
FF
FF
FF
01
00
00
00
00
01
00
00
00
00
00
00
00
FF
FF
FF
00
00
FF
FF
00
FF
00
00
FF
FF
FF
00
00
00
00
00
01
00
FF
FF
01
01
00
00
00
00
FF
FF
01
00
00
00
00
FF
00
00
00
00
01
FF
00
00
00
00
00
00
00
00
00
00
FF
FF
00
00
00
00
01
00
00
FF
FF
FF
00
00
00
00
01
00
00
00
01
FF
00
00
FF
FF
01
00
FF
FF
FF
FF
FF
00
00
01
01
01
01
00
01
FF
00
FF
00
FF
00
FF
FF
01
00
FF
00
01
00
FF
00
00
00
FF
00
FF
00
00
00
00
FF
00
00
00
00
00
00
FF
FF
00
01
00
00
00
00
FF
00
FF
00
FF
00
00
FF
00
00
FF
00
00
00
FF
FF
00
00
FF
00
00
00
00
00
00
FF
FF
FF
00
00
00
FF
00
01
00
00
FF
00
00
FF
00
00
00
01
00
FF
FF
FF
FF
FF
00
00
00
FF
00
00
00
00
00
00
00
00
00
FF
00
00
00
01
01
00
FF
00
00
00
00
00
FF
FF
FF
01
00
00
00
FF
00
FF
01
00
00
FF
00
FF
00
FF
00
00
FF
00
FF
00
00
00
00
00
00
00
00
FF
00
FF
01
00
00
01
FF
FF
00
FF
00
FF
FF
00
FF
00
00
FF
00
00
FF
FF
00
00
FF
00
00
FF
00
FF
FF
00
00
FF
00
00
FF
00
FF
01
FF
00
01
FF
00
00
00
00
FF
00
FF
00
01
00
FF
00
00
FF
FF
FF
00
00
00
00
00
00
FF
FF
FF
00
00
FF
FF
00
00
FF
FF
FF
00
00
FF
FF
00
01
FF
00
FF
00
FF
00
00
00
00
FF
00
00
01
00
00
FF
FF
00
FF
FF
00
01
FF
FF
00
FF
FF
00
01
FF
FF
00
00
00
FF
FF
00
00
00
00
00
00
FF
00
00
01
00
FF
FF
FF
00
FF
00
00
00
00
00
00
00
00
00
00
FF
00
FF
FF
FF
00
00
FF
00
00
00
00
01
01
FF
00
00
01
00
FF
00
FF
00
00
00
00
00
00
FF
FF
00
00
00
00
FF
00
00
FF
00
00
00
FF
00
FF
00
00
FF
00
00
00
00
FF
01
00
00
00
FF
00
00
00
FF
FF
00
FF
00
00
FF
00
00
FF
00
FF
00
00
FF
FF
00
FF
00
00
00
FF
FF
FF
00
00
00
00
00
00
FF
00
00
00
00
00
FF
00
00
00
00
FF
00
00
00
01
FF
00
00
FF
00
FF
FF
FF
00
00
FF
00
00
FF
00
00
00
00
00
00
00
FF
FF
00
00
FF
00
FF
00
01
00
00
FF
FF
00
FF
00
00
00
01
01
00
00
01
01
01
FF
FF
00
01
01
00
00
00
00
00
FF
00
FF
FF
00
00
FE
FF
00
00
00
00
01
01
FF
00
FF
00
01
00
FF
FF
01
00
01
00
00
FF
01
00
00
00
01
00
01
01
00
00
00
FF
00
02
01
00
00
00
FF
FF
00
00
00
00
01
01
00
00
00
01
FF
FF
00
01
00
00
FF
00
00
00
00
FF
00
00
00
01
00
00
00
00
00
00
00
00
00
FF
01
01
FF
00
01
00
01
02
01
FF
01
00
00
01
01
00
FF
01
FF
00
FF
01
00
01
FF
00
FF
00
FF
00
01
01
00
FF
00
01
FF
00
FF
FF
00
00
00
02
FF
FF
00
00
01
00
01
00
01
00
01
00
00
00
FF
01
01
00
00
00
00
00
01
01
00
00
01
01
FF
00
01
01
01
00
01
FF
FF
FF
00
01
00
FE
00
01
00
FF
02
FF
FF
00
FF
01
FF
01
00
FE
FF
FE
00
00
00
FF
00
01
00
01
00
00
00
01
00
00
01
00
FF
00
01
FF
01
FF
FF
00
FF
00
00
00
00
00
00
00
00
FF
FF
FF
01
FF
00
FF
FF
FF
00
FF
02
00
00
01
01
00
01
00
01
00
00
FE
00
00
00
01
02
FF
FF
00
FF
00
01
00
01
00
00
02
FF
00
00
FF
00
FF
00
FF
00
FF
00
00
00
01
01
00
01
FF
00
00
00
FF
00
FF
FF
01
FF
00
FF
FF
01
00
01
00
00
00
00
00
FF
00
FF
FF
00
00
00
01
01
02
01
00
00
00
01
00
01
00
01
00
00
00
00
00
01
01
00
FF
FF
00
00
FF
01
00
01
01
00
00
00
01
01
FF
00
01
00
01
00
00
00
FE
00
01
01
FF
01
00
00
00
02
00
01
00
01
00
00
FF
01
FF
01
01
02
FF
FF
00
00
00
01
00
01
FF
01
00
00
00
02
00
01
01
01
00
00
FF
01
00
FF
01
FF
00
00
00
00
00
01
01
FF
FF
00
00
00
FF
FF
01
00
00
FF
00
FF
00
00
01
01
00
00
01
01
FF
01
01
00
FF
00
FF
01
00
01
00
FF
FF
FF
00
00
00
02
00
FF
00
FF
00
FE
FF
01
01
FF
00
FE
00
FF
FF
00
02
00
FF
FF
00
FF
FF
01
02
00
00
FF
00
00
01
00
01
FF
00
00
00
00
01
01
01
00
FF
00
01
00
FF
FF
00
00
00
FF
FE
FD
FF
00
02
01
00
00
00
FE
FF
02
01
01
FF
00
00
01
00
01
01
01
00
01
03
02
00
00
01
01
00
01
01
00
00
00
FF
02
00
00
FE
FF
00
FF
01
02
FF
01
FF
FF
FF
01
00
01
FF
00
FF
01
00
FF
00
01
00
FE
03
01
FF
00
00
02
01
01
01
01
00
00
FF
02
00
01
FF
FF
00
FF
02
FE
FF
00
02
00
00
00
00
00
01
00
01
00
00
00
01
00
03
01
FF
FF
01
FF
00
02
01
00
00
FF
00
FF
01
02
01
01
FF
00
FF
00
FF
FF
FF
FF
01
00
00
00
01
00
02
01
FF
00
00
00
00
00
01
02
00
FF
00
00
01
00
00
FF
00
FF
01
FE
00
01
01
00
FF
FF
00
FE
00
01
02
02
00
00
00
00
FF
00
00
01
00
00
00
00
FF
00
00
00
01
00
00
FE
01
00
01
00
01
00
01
00
00
FF
00
FF
00
FE
FF
FF
FF
FF
01
01
01
00
00
02
00
FE
01
00
01
FF
00
01
FF
FF
01
FF
01
01
FF
01
01
00
00
FF
01
01
FF
03
00
FF
01
FF
00
FF
00
02
FE
00
01
00
00
FF
00
04
FF
00
02
FF
FF
FF
FF
03
00
00
02
01
00
00
00
01
01
00
01
00
01
FF
FF
00
00
00
FF
FF
00
00
00
02
01
FF
00
01
00
FF
00
FF
FF
00
00
01
01
00
00
00
00
01
00
00
00
FF
00
00
FF
01
00
00
01
00
FF
FF
FF
01
00
01
01
01
00
FF
00
00
01
00
00
00
01
00
01
00
01
00
00
01
01
00
00
01
00
01
01
02
01
01
00
01
01
01
01
00
00
01
01
00
00
FF
FF
00
00
00
00
01
00
FF
01
00
01
FF
01
01
00
00
01
00
00
00
01
FF
01
01
02
00
01
01
00
FF
00
00
01
00
FF
00
00
00
00
FF
00
00
00
FF
01
01
FF
00
FF
01
00
02
01
01
00
FF
FF
01
00
00
01
00
00
00
01
01
01
01
01
FF
01
00
01
FF
FF
01
FF
01
00
FF
FF
FF
FF
FF
FF
FF
FF
FE
FF
FF
FF
FF
FF
FF
FF
FE
FF
01
FF
FF
00
FF
FF
FD
02
00
00
00
FF
00
00
FF
00
00
00
FF
00
FF
00
00
00
FF
00
FF
FF
00
00
FF
FF
FF
00
00
00
00
00
FF
00
00
00
02
00
00
00
01
FF
01
00
02
01
00
01
00
00
00
00
01
00
00
00
00
00
01
00
01
01
00
00
00
00
00
00
FF
00
00
01
FF
FF
00
00
00
00
FF
00
01
FF
00
FF
00
01
00
00
01
00
01
FF
00
00
01
00
01
01
00
00
00
01
00
01
00
02
01
00
FF
00
00
01
00
01
00
FF
FF
00
FF
01
00
00
00
01
FF
01
00
00
01
00
01
FF
01
00
01
00
01
00
FF
00
00
00
01
01
01
01
FF
FF
FF
00
FF
03
00
00
FF
01
01
00
01
03
01
00
00
00
FF
02
00
FF
00
00
00
01
01
00
00
01
FF
00
FF
FF
00
FF
FF
03
00
FF
FF
FF
00
01
00
03
00
FE
00
00
00
02
00
02
00
FF
FE
FF
FE
01
FF
01
FF
00
FF
01
FF
FF
FF
00
FF
FF
FF
FF
FE
01
00
00
00
00
00
00
01
00
FF
01
FF
00
00
00
FF
00
00
00
00
00
00
00
FF
00
00
00
00
FF
00
FF
00
00
00
FF
FF
FF
00
FF
FF
01
00
FF
00
00
01
00
FF
00
00
00
00
00
00
FF
00
00
01
00
00
FF
FF
FF
FF
00
00
00
00
FF
00
01
FF
00
00
00
00
FF
00
00
01
00
00
01
00
00
00
00
00
00
FF
01
00
00
00
00
FF
00
00
00
01
01
FF
00
00
01
00
00
00
00
00
00
00
00
01
00
FF
00
00
00
00
00
00
FF
FF
FF
FF
FF
00
00
00
FF
00
01
00
FF
FF
00
00
FF
00
00
00
00
00
00
00
FF
00
00
00
00
FF
00
00
00
00
00
01
00
01
00
00
01
00
00
FF
FF
00
FF
FF
00
01
FF
FF
FF
00
00
FF
00
FF
FF
FF
FF
FF
00
00
FF
FF
00
00
00
00
FF
00
FF
01
00
01
00
00
01
01
00
01
00
00
00
00
FF
FF
00
00
00
00
00
00
FF
FF
FF
FF
00
00
FF
FF
01
00
00
FF
00
00
01
00
FF
FF
00
00
00
00
01
FF
01
FF
01
01
00
01
FF
00
00
FF
FF
00
00
01
00
00
01
FF
01
00
FF
00
00
00
00
FF
FF
00
00
00
00
00
00
FF
FF
00
00
FF
00
00
FF
00
FF
01
01
00
00
00
00
00
01
00
00
FF
00
00
00
01
01
00
00
01
01
00
00
FF
00
01
01
00
00
00
FF
00
00
01
00
00
00
00
01
00
00
00
00
FF
00
00
01
00
00
00
00
00
FF
FF
FF
01
FF
00
00
00
00
FF
00
00
00
FF
00
FF
00
00
01
00
FF
00
FF
FF
00
FF
00
00
00
00
00
00
00
FF
FF
00
00
01
FF
00
FF
01
00
00
00
FF
00
FF
01
01
FF
FF
00
FF
01
00
00
01
00
00
FF
00
FF
00
00
00
00
00
00
00
FF
00
00
01
00
FF
00
FF
00
00
00
00
01
00
00
FF
00
FF
00
01
01
00
00
FF
00
00
00
00
00
00
FF
00
00
01
00
01
FF
FF
00
00
FF
00
FF
FF
01
00
00
00
00
00
FF
01
01
FF
00
00
00
00
00
00
00
FF
00
FF
00
FF
FF
00
FF
00
FF
00
00
01
00
FF
00
00
00
00
FF
FF
00
00
FF
00
FF
FF
00
00
00
FF
FF
FF
FF
FF
00
00
FF
00
FF
00
FF
FF
00
00
00
FF
FF
00
FF
00
00
FF
00
FF
FF
00
01
01
00
00
00
00
FF
00
01
00
00
00
00
00
00
00
FF
FF
00
00
FF
00
00
01
00
FF
01
01
00
00
00
FF
00
00
01
00
FF
00
FF
01
01
01
FF
FF
00
FF
00
01
FF
00
00
FF
FF
00
00
00
FF
FF
00
FF
FF
00
00
FF
00
00
00
FF
00
FF
01
00
00
00
00
01
FF
01
01
00
00
01
00
FF
01
01
00
01
FF
FF
00
00
00
FF
00
FF
01
00
00
00
00
00
00
01
00
00
00
00
00
FF
00
00
00
01
00
00
00
00
00
FF
00
00
00
00
00
00
FF
00
FF
00
FF
FF
FF
FF
FF
00
00
00
FF
00
00
00
00
00
01
00
00
FF
00
00
00
FF
01
01
01
FF
00
00
00
00
00
00
FF
FF
00
FF
00
FF
00
00
FF
00
01
00
FF
00
FF
00
FF
00
00
00
00
FF
00
FF
FF
00
FF
00
FF
00
00
00
00
00
01
00
01
FF
FF
FF
FF
00
00
00
01
00
00
00
00
01
00
FF
FF
00
FF
00
FF
00
FF
FF
00
00
FF
FF
01
FF
00
00
00
01
FF
00
FF
00
00
00
01
FF
FF
FF
01
01
00
01
FF
00
00
00
00
FF
00
00
00
FF
00
00
00
00
00
00
FF
00
FF
00
01
00
01
FF
00
00
00
FF
01
FF
00
00
00
00
01
00
01
01
01
FF
01
00
01
00
00
02
01
FF
00
FF
01
01
FF
00
00
00
01
00
00
01
01
FF
00
00
00
01
00
00
03
00
FF
00
01
00
00
00
00
00
02
01
00
00
01
00
00
01
00
00
00
01
00
00
00
00
00
01
01
00
01
FF
00
00
FF
02
00
01
FF
FF
01
00
00
02
01
00
FF
FF
00
00
FF
01
01
FE
00
FE
00
00
00
00
FF
FD
00
FE
01
00
FF
FF
00
FE
FF
FF
00
00
FF
FE
00
FF
FF
FE
01
00
FE
FE
00
FE
FE
01
FF
FF
FF
00
FF
FE
FF
00
00
00
01
FE
FE
FE
FF
00
01
FF
00
FE
00
FF
00
00
00
FF
00
FE
00
01
FF
01
FF
FF
FF
00
FE
00
FF
00
00
FF
FF
FF
00
00
00
FF
02
01
00
01
00
00
01
00
02
FF
00
01
01
02
01
02
FE
00
01
FF
00
01
01
03
FF
00
00
00
01
00
00
00
00
00
00
00
02
01
02
FF
01
00
00
00
02
01
02
00
FF
01
00
00
00
01
00
00
FF
00
00
00
00
01
FF
02
00
00
00
00
00
01
01
01
00
00
FF
FF
02
01
02
00
00
00
00
FF
00
01
02
00
00
00
FF
01
00
00
01
00
01
FF
01
01
00
01
00
00
01
FF
00
FF
FF
00
00
00
00
FF
01
FF
00
FF
01
00
FD
00
FF
00
00
00
01
00
FD
FF
00
FE
00
00
01
FD
FF
FF
00
00
FF
00
00
00
FF
FF
00
00
FD
00
01
FF
FE
01
01
01
01
00
03
FF
FE
00
00
02
01
01
00
00
FE
00
00
02
00
00
01
FF
FF
00
00
01
FF
00
FF
FF
FF
FE
00
00
01
00
03
01
00
01
FF
02
03
01
00
02
01
01
00
00
02
00
00
00
00
00
00
FF
00
00
00
FF
02
FE
00
02
FE
00
FF
FF
02
FF
00
02
01
FF
00
00
FF
FF
FE
00
02
01
FE
FF
01
01
00
00
01
00
00
01
02
02
01
02
FF
00
01
01
01
01
01
01
FF
FF
01
FF
00
00
01
FD
01
00
FE
00
FF
FF
FF
01
00
01
FD
00
FF
00
00
01
FF
00
FF
FF
01
00
01
02
00
00
01
00
01
00
00
00
FE
FF
00
FF
FF
00
FF
FE
00
FF
FF
FF
00
00
FF
FF
00
FF
00
FF
00
00
00
00
00
FF
FF
FF
01
00
00
00
01
FF
00
FF
01
FF
00
00
00
FF
00
FF
00
FF
00
FE
01
00
00
00
00
00
00
00
01
01
00
00
00
00
01
01
01
FE
01
FF
00
01
00
01
01
00
01
00
00
FF
00
FF
00
00
01
00
01
FE
FF
00
01
00
FF
01
00
FF
00
00
00
00
FF
00
FF
01
00
00
00
00
00
FF
02
00
00
00
00
01
01
01
00
FF
00
01
00
00
FF
00
FF
FF
FF
00
FF
FF
FF
00
02
FF
01
00
FF
00
FF
02
01
00
FF
00
01
FF
01
02
00
01
01
00
02
00
00
00
00
00
00
01
01
00
00
FD
FF
00
00
01
FD
00
00
02
00
FE
FF
00
FF
01
01
00
FF
00
00
01
00
00
01
01
00
01
00
00
01
00
FF
00
01
01
00
01
00
00
01
00
FF
00
FF
FF
FE
00
00
FF
FF
00
01
00
FF
00
00
FF
FF
00
01
01
01
01
00
00
FF
00
FF
00
01
01
00
00
00
00
FF
FF
00
00
00
00
FF
FF
FF
FE
FF
00
01
FF
01
00
FF
00
00
00
02
01
00
00
00
00
00
00
02
00
00
00
00
FF
01
00
00
00
FF
00
FF
FF
FF
FF
00
FF
00
00
FF
00
FF
01
02
00
00
01
01
01
FF
01
03
00
FF
00
00
02
01
00
02
01
01
00
00
01
00
00
01
FF
01
FF
00
01
00
00
00
00
00
FF
00
01
FE
02
02
00
02
01
01
01
00
01
01
00
00
FF
FF
FF
01
00
FF
00
FF
00
01
00
00
FF
FF
FF
00
00
00
00
FF
FF
00
01
01
01
00
00
00
02
00
01
01
01
01
01
00
01
01
00
00
00
00
00
00
01
00
01
FF
FF
00
00
00
00
FF
00
00
FF
00
00
01
01
FF
01
02
00
00
01
00
01
00
00
00
01
00
01
00
00
00
00
00
00
00
00
00
FF
00
00
00
00
00
FE
01
01
00
FF
01
01
00
00
01
01
00
01
01
00
00
02
00
FE
01
FF
01
01
FF
00
FE
FF
00
FF
01
00
00
FF
FE
00
00
01
FF
FF
00
FE
FF
01
00
01
00
00
00
FF
00
01
01
00
01
FF
00
02
FE
FF
01
FF
01
01
00
FE
FF
FF
01
00
02
01
01
FF
FF
FF
00
01
00
00
00
00
01
FE
00
FF
01
FF
00
FF
02
FF
00
FE
FF
00
FF
02
03
00
FF
01
03
02
01
01
01
FF
01
00
01
00
00
00
00
FF
00
00
01
FF
00
00
00
FF
00
01
01
01
00
00
00
FF
01
00
FF
01
00
00
00
00
01
01
01
00
00
01
02
00
03
00
01
FF
01
FF
00
01
00
FF
00
FF
00
01
FF
FF
01
FF
00
00
01
01
01
01
01
02
01
00
00
00
01
01
00
00
FF
00
00
01
01
01
01
01
FF
01
00
01
00
00
00
00
FF
FF
00
00
01
01
00
FF
01
00
00
00
00
01
00
02
00
01
01
FF
01
00
00
FF
FE
00
01
00
02
00
01
00
00
00
00
FF
01
FF
FF
00
FF
01
00
FF
00
01
00
FF
00
00
00
01
00
02
01
01
02
00
FF
01
02
FF
00
FF
FF
00
00
FE
00
FF
FF
00
FF
01
01
FE
00
FF
FF
FF
FF
01
01
FF
00
00
00
00
FF
00
00
FF
00
01
00
01
00
FF
01
FE
FF
00
00
00
00
FF
00
FF
00
FF
01
FF
00
00
FF
00
00
00
00
FF
00
00
FF
00
01
00
00
00
FF
00
00
01
FF
00
FF
FF
00
FF
00
FF
00
00
FF
FF
00
00
FF
00
00
00
FF
00
FF
00
00
00
00
00
00
00
00
FF
00
00
FF
01
00
FF
FF
FF
00
00
FF
FF
FF
FF
00
00
00
01
FF
FF
00
00
00
00
00
FF
00
FF
FF
00
FF
00
FF
00
00
FF
FF
FF
00
FF
00
FF
01
00
FF
00
00
FF
00
FF
00
FF
00
FF
FF
00
00
00
FF
FF
00
00
FF
00
FF
FF
FF
00
00
FF
01
00
00
00
00
FF
00
FF
00
00
00
FF
FF
00
FF
00
00
01
00
FF
FF
00
00
FF
00
00
FF
00
00
00
00
01
FF
FF
FF
FF
FF
00
FF
00
FF
FF
00
FF
FF
00
00
00
00
FF
00
00
FF
FF
00
00
FF
00
00
00
FF
01
00
00
00
00
01
01
00
FF
00
00
00
FF
00
FF
00
00
00
00
00
FF
00
00
FF
00
00
FF
FF
00
00
00
FF
00
00
00
00
00
00
FF
00
FF
00
00
00
00
00
00
00
00
00
FF
FF
00
00
00
01
00
00
00
01
FF
FF
00
00
FF
01
FF
00
00
00
00
00
00
01
00
00
00
00
00
00
00
00
FF
00
FF
FF
00
FF
FF
FF
FF
FF
00
00
FF
00
FF
FF
FF
FF
00
00
00
00
FF
01
00
FF
00
01
FF
FF
00
FF
FF
FF
FF
FF
00
00
00
00
00
00
00
01
FF
00
00
00
00
00
00
01
00
FF
FF
00
00
00
FF
00
00
00
00
01
FF
FF
FF
01
00
00
FF
00
00
FF
FF
01
FF
FF
00
01
00
00
00
00
00
FF
FF
00
00
00
01
FF
00
00
00
FF
FF
00
FF
01
FF
00
00
00
00
00
00
01
00
00
00
FF
FF
00
FF
00
00
FF
00
00
00
FF
00
00
FF
01
FF
00
01
00
FF
FF
01
01
02
00
01
00
FF
00
02
01
02
01
00
00
00
01
02
00
03
01
01
00
01
01
02
FE
02
01
00
00
02
01
00
00
01
00
01
00
00
FF
01
00
02
00
00
00
00
01
00
FF
01
01
00
FF
01
00
FF
00
01
00
00
FF
01
01
00
FF
01
00
01
FF
01
00
00
01
00
00
00
00
00
FF
01
FF
00
00
01
00
00
00
00
FF
FF
00
00
00
00
00
00
01
00
01
00
FF
01
01
FF
01
FF
00
00
00
01
00
01
FF
FF
00
00
01
01
00
FF
01
00
FF
00
01
FF
FF
00
00
00
01
00
00
FF
01
00
FF
00
00
01
FF
00
01
FF
00
00
FF
00
01
00
00
01
00
FF
01
FF
01
00
01
00
00
01
01
01
01
01
00
00
00
00
01
02
FF
01
00
00
01
00
FF
FF
00
FF
00
FF
00
FF
00
FF
01
00
FF
00
FF
00
00
01
00
00
00
00
FE
01
FF
02
02
00
00
00
00
02
FC
01
03
01
FF
01
FF
FF
00
00
03
00
00
01
00
FE
FF
FE
01
01
01
00
FF
FF
FE
02
01
00
00
01
00
00
00
00
01
00
FF
02
FF
01
FF
00
01
00
01
01
FF
01
01
00
01
00
01
01
01
FF
00
00
01
FF
01
00
FE
FF
FE
00
00
00
00
01
00
00
00
00
FF
FF
FF
02
01
01
00
00
00
00
01
00
00
01
01
00
00
FF
00
FF
00
01
FF
01
00
00
01
01
FF
FF
00
FF
00
01
FF
02
00
00
FF
00
00
00
00
01
00
01
01
00
00
01
00
00
FF
FF
00
00
01
00
00
FF
00
00
00
00
00
01
00
00
01
00
FE
FF
00
01
00
FF
00
00
FE
00
00
01
00
FE
FF
00
FF
00
00
00
00
00
00
01
01
01
00
01
00
00
01
00
00
00
00
00
01
00
02
FF
FE
00
01
01
FF
00
01
01
FF
00
00
02
01
01
01
01
01
00
FF
02
01
01
00
01
01
00
FF
02
02
01
FE
00
01
01
FF
03
01
00
00
FE
FF
00
00
01
00
01
00
FF
00
00
01
FF
FF
00
00
FF
FF
FE
FF
01
01
00
FF
00
01
FF
00
02
01
FF
FF
FF
01
00
00
01
00
00
00
FE
FF
00
01
00
FF
01
00
FF
FF
00
01
00
FF
01
FF
FE
00
FF
FF
FF
00
FE
00
FE
FF
FE
01
FF
FF
FE
00
FE
00
00
01
FF
FF
FE
FF
FE
FF
FF
02
00
00
00
FF
FD
FF
00
01
00
00
00
FE
FE
01
FF
FF
00
FF
FF
00
FE
00
FF
00
FE
FF
FF
01
FF
00
00
00
FE
00
FF
FE
FF
00
01
01
01
01
FE
FF
00
00
00
02
01
02
FE
FF
01
01
02
00
00
01
FF
FF
00
01
01
00
FF
00
FF
00
01
00
01
00
00
01
00
FF
02
02
01
01
00
00
00
FF
02
00
01
02
FF
00
FF
01
00
02
01
01
00
00
00
02
01
00
00
01
01
00
00
00
01
FF
00
01
01
00
00
FE
FF
00
00
FE
00
01
00
00
FF
02
FF
FE
00
01
FF
01
01
02
01
FE
01
01
FF
00
00
02
00
00
00
01
FE
01
00
00
FF
00
FE
00
FF
FF
01
00
00
FE
01
00
02
01
FF
01
01
FF
00
00
02
01
01
01
FF
FF
00
01
00
00
FE
01
FE
FE
FF
00
FE
00
00
01
00
FF
00
00
FF
00
00
00
FF
FE
01
00
FF
01
00
01
FF
FE
00
00
00
00
FF
02
FE
00
FF
01
FF
00
01
02
00
FF
00
FF
00
00
01
FF
00
FF
00
01
00
01
FE
00
00
FF
00
00
FF
01
00
00
00
00
02
FF
01
01
00
FF
00
00
02
FF
02
01
01
00
00
00
01
FF
01
FF
00
FF
00
01
01
FF
02
01
FE
00
01
01
FF
00
FF
00
00
00
01
01
00
00
FF
FF
00
01
00
01
FF
01
01
01
02
01
00
00
00
01
00
00
01
01
01
00
01
01
00
FF
00
01
01
00
FF
00
00
00
02
FF
00
00
01
01
01
FF
00
00
00
00
01
00
00
01
01
01
00
FE
00
02
00
00
01
FF
01
00
02
01
01
00
00
01
01
FF
01
00
00
FE
FF
00
00
00
01
00
FF
01
FF
00
00
00
00
FF
FF
00
FF
01
00
FE
00
01
FF
00
FF
00
01
01
02
01
00
FF
FF
00
FF
00
01
00
FF
00
00
00
FF
00
00
00
00
00
FF
00
01
00
FF
FF
FF
00
FF
01
00
FF
01
FF
FF
01
FE
FF
00
01
01
FF
01
00
00
02
00
01
00
00
00
FF
00
01
01
01
01
01
00
01
FF
00
01
FF
00
00
00
01
FF
00
00
FF
00
FF
01
01
FE
FF
00
01
FF
FE
00
00
FF
01
FF
FF
FF
00
01
00
01
FE
00
FF
01
00
01
00
01
FE
01
01
01
01
01
01
00
FF
00
00
01
00
01
FF
FF
00
00
00
00
FF
00
01
00
00
00
00
00
00
00
FF
00
00
00
01
01
00
02
00
01
02
00
02
00
00
01
00
01
00
00
00
00
00
02
FF
FF
00
00
01
00
FF
01
00
00
01
00
FF
FF
00
00
00
01
01
00
FE
FF
00
01
01
01
01
01
00
00
00
00
00
00
01
FF
FF
00
FF
01
00
01
00
02
FF
01
00
FF
00
01
02
00
00
00
00
00
01
02
02
01
00
01
00
00
01
00
00
01
00
01
00
00
FF
FF
01
00
FF
00
01
00
00
00
00
01
00
01
00
00
01
00
FF
00
00
00
00
FF
00
00
FD
01
01
01
00
FE
00
00
FF
00
00
01
00
FF
FF
00
00
01
FF
01
00
01
00
00
00
00
00
01
00
01
00
FE
FE
FF
00
00
00
FF
01
00
00
00
01
FF
01
00
03
01
01
01
00
FF
00
01
03
02
01
FF
00
00
01
01
01
02
00
FF
00
00
00
02
00
FE
00
00
01
01
FF
FF
00
FF
00
00
01
00
00
00
01
00
02
00
FF
00
01
FF
01
01
00
00
FF
01
01
FF
00
00
00
00
FE
01
00
01
FF
00
01
00
01
00
01
00
00
FF
00
00
01
00
00
01
00
00
01
FF
FF
00
00
01
FF
FF
01
FF
FF
01
01
FE
01
FF
FF
00
01
00
01
FF
FF
FF
01
00
01
01
00
00
00
FF
00
01
00
01
00
00
FF
00
00
00
00
00
00
00
FF
FF
01
00
FF
01
00
FE
00
FE
00
00
01
01
01
FE
00
00
00
00
01
01
00
00
01
00
01
01
00
01
00
00
00
01
01
02
00
00
00
00
00
01
00
02
00
01
00
00
00
01
00
02
02
00
00
01
FE
01
02
FE
FE
FF
00
FF
00
02
00
00
00
00
00
00
01
02
FF
00
02
00
FF
01
00
01
FF
02
01
01
01
01
FF
00
FF
00
01
00
00
00
00
01
00
00
FF
00
00
00
01
01
01
00
00
01
00
01
01
01
01
00
01
FF
01
00
00
00
00
FF
FF
00
00
01
FF
FF
00
FE
00
00
00
01
FF
01
FF
FF
01
00
00
00
01
FF
00
00
00
00
00
00
00
01
02
00
00
00
01
01
FF
FE
01
FF
FF
00
FF
00
FF
FF
FF
FF
FF
00
00
FF
00
00
00
00
01
00
00
FF
00
01
FF
00
00
00
00
FF
00
00
00
00
FF
FF
01
00
FF
FF
02
00
FF
FF
00
00
01
00
FF
00
FF
00
FF
FF
00
01
FF
01
00
01
00
FF
00
00
FF
01
01
01
01
FF
00
00
00
01
01
00
FF
01
01
00
00
00
01
01
01
01
01
00
00
00
01
02
01
03
FF
FF
01
FF
00
00
00
00
00
FF
FF
00
00
FF
00
FF
00
FF
FF
00
00
00
00
00
00
00
FF
FF
00
00
00
FF
00
00
FF
FF
01
00
01
00
FF
00
00
FF
FF
00
FF
FF
00
FF
00
00
FF
00
00
00
01
FF
FF
00
01
00
FF
00
00
FF
FF
FF
00
00
00
01
00
00
FF
00
01
00
00
01
FF
00
00
FF
01
FF
FF
00
00
FF
FF
00
FF
FF
FF
00
00
00
FF
00
00
00
FF
FF
00
FF
00
01
00
FF
00
FF
00
00
00
00
01
00
FF
FF
FF
00
FF
FF
00
00
00
00
FF
01
FF
00
00
FF
FF
00
00
00
FF
01
FF
FF
00
01
01
00
00
00
FF
FF
FF
00
00
FF
00
00
01
00
FF
01
00
FF
00
FF
00
FF
00
01
00
FF
FF
FF
FF
FF
00
00
FF
FF
FF
00
00
00
FF
00
01
FF
FF
00
00
00
00
00
00
FF
FF
FF
00
00
FF
00
00
FF
00
00
FF
00
01
00
00
00
FF
FF
00
FF
01
00
FF
FF
FF
00
00
FF
01
00
00
00
00
FF
00
00
FF
00
FF
00
00
01
00
00
00
FF
00
00
00
00
FF
00
FF
FF
00
FF
00
FF
FF
FF
00
00
00
00
00
01
00
00
00
00
00
00
FF
00
FF
00
00
FF
FF
00
00
FF
00
00
01
FF
00
00
00
00
FF
00
01
FF
00
00
FF
FF
FF
FF
00
00
00
FF
00
00
00
FF
00
00
00
00
00
00
00
00
00
00
FF
00
00
00
00
00
00
00
00
00
01
00
01
00
00
00
00
00
00
00
00
00
FF
00
FF
00
FF
00
FF
FF
00
00
FF
00
00
01
00
00
00
FF
00
01
FF
00
01
00
FF
00
00
FF
00
00
00
FF
FF
FF
FF
00
00
00
FF
FF
00
00
FF
FF
00
00
00
FF
00
00
FF
FF
00
FF
00
00
01
00
00
00
00
00
00
FF
00
00
FF
FF
01
00
00
01
00
FF
FE
00
01
FF
02
00
00
FF
00
00
01
00
FF
FF
00
00
01
01
01
00
01
FF
FF
00
02
01
00
00
02
00
00
02
FF
00
01
00
00
01
00
FF
FE
01
01
01
01
01
02
FF
FF
00
01
01
01
00
FF
01
02
01
01
00
FF
FF
FF
00
02
02
00
FF
00
00
FF
03
01
01
00
FF
00
01
01
00
FF
01
01
01
00
01
01
01
00
00
01
01
00
FF
00
FF
00
01
00
00
FF
00
00
FE
00
01
00
00
00
00
FE
02
00
00
FE
01
00
01
00
FF
FE
00
FF
00
01
01
01
FF
FF
01
01
00
00
00
00
FF
FF
00
01
FF
FE
01
00
FF
FF
FF
FF
00
FF
FF
00
FE
FF
00
00
00
00
00
00
00
00
00
00
01
01
01
01
FF
FF
00
00
02
FF
00
00
FF
FE
00
FF
00
FF
00
01
FF
FF
FF
FF
02
00
00
00
00
00
FF
00
FE
FF
00
00
FF
01
00
01
00
00
01
00
01
00
02
00
01
00
FF
01
00
FE
01
FF
01
00
00
00
01
FF
00
00
03
01
01
00
00
01
FF
FE
FF
00
00
00
00
01
00
FE
00
01
00
00
00
01
00
00
01
01
00
00
00
FF
01
00
00
01
FF
01
02
FF
01
00
01
02
00
00
00
FF
00
FF
01
01
00
00
FE
00
01
FF
00
00
FF
FF
00
00
01
01
00
FF
00
01
01
FF
00
FF
FE
00
FF
01
02
FF
FF
01
00
01
FF
01
00
FE
00
00
FF
00
01
01
00
01
01
02
FF
00
00
00
01
01
01
FE
FF
00
01
00
00
00
00
00
FF
00
00
FF
01
00
FF
01
FE
FF
FF
00
01
00
FF
00
01
01
00
FF
00
02
FF
FD
FF
01
00
FF
FD
00
FF
FE
00
00
01
00
FE
00
00
00
00
00
00
00
00
00
FF
00
00
00
01
01
00
01
FF
01
00
00
01
01
00
01
00
00
00
00
00
00
00
02
01
00
00
00
00
01
02
00
01
01
00
00
00
00
00
00
00
FF
00
01
00
FF
00
00
02
00
01
00
00
01
00
02
01
00
00
FF
00
00
01
01
01
00
00
00
00
01
01
01
00
FF
01
00
01
01
01
00
00
00
00
00
00
00
FF
02
01
FF
01
00
FF
FF
01
02
01
FF
00
FF
FF
FF
00
01
01
FF
FF
01
00
00
01
01
01
00
00
02
FF
00
00
00
FF
00
FF
00
00
FF
FF
01
00
00
FF
00
FF
FF
01
01
00
FF
00
FE
00
00
00
01
FF
FF
00
01
00
00
01
01
00
00
01
03
FF
00
00
01
02
01
FF
FF
FE
00
FF
02
FF
FE
FF
FF
FE
FF
00
01
FF
FF
FD
FF
00
FE
00
00
FF
FF
FD
02
00
00
FF
01
01
01
FF
02
00
00
00
00
01
01
01
00
FF
00
FF
01
00
00
01
00
00
00
00
00
00
01
00
00
01
00
00
FF
00
00
00
01
00
00
01
FF
01
00
01
01
01
01
00
00
FF
00
00
01
00
FF
01
00
00
00
00
01
00
00
00
01
00
02
01
01
00
FF
01
00
01
01
00
00
00
FF
00
00
FF
00
FF
01
00
00
01
01
01
00
FF
01
FF
00
01
FF
01
00
02
02
FF
01
00
00
00
02
02
00
00
00
02
FF
00
01
00
00
FF
FF
00
01
FF
00
00
00
00
00
FF
01
00
01
FF
00
FF
00
00
00
02
01
01
01
00
00
01
FF
00
03
00
FF
00
00
00
00
00
02
00
00
00
00
00
01
FF
FF
01
01
01
00
00
00
00
01
FF
00
FF
00
00
00
01
03
FF
FE
FE
01
00
00
01
04
FF
FE
FE
00
00
01
FF
01
00
FF
FF
00
FF
00
FF
01
FF
01
FE
00
00
00
00
01
FE
00
FD
00
00
00
FF
01
FF
01
FF
00
00
00
01
01
01
FF
00
FF
00
FF
00
00
00
00
00
00
FF
00
00
00
FF
01
00
FF
00
00
FF
FF
00
00
00
00
FF
00
00
00
00
00
01
00
01
00
FF
00
00
00
00
00
FF
00
00
00
00
FF
00
00
FF
FF
00
00
00
FF
FF
00
FF
FF
FF
FF
FF
00
00
00
00
01
FF
00
FF
01
00
00
00
00
FF
00
FF
FF
00
FF
01
00
FF
00
00
00
FF
00
FF
00
00
00
00
FF
00
00
01
00
00
FF
00
00
00
00
00
01
FF
01
00
00
00
00
01
FF
01
00
00
00
00
00
00
00
00
01
00
00
00
00
FF
01
FF
00
FF
00
00
00
00
00
00
00
FF
01
00
FF
00
00
00
01
00
00
00
FF
00
FF
00
00
00
FF
00
FF
00
FF
FF
00
FF
FF
00
00
FF
00
FF
00
00
00
FF
00
FF
00
00
00
00
01
FF
00
00
00
00
01
01
FF
00
00
FF
00
01
00
FF
00
00
00
00
00
00
00
00
00
00
00
00
01
00
FF
00
00
FF
FF
01
FF
FF
00
00
00
00
FF
00
00
FF
00
FF
00
01
00
00
00
FF
00
00
00
01
FF
FF
01
FF
00
FF
00
00
00
00
00
FF
00
00
00
00
00
FF
FF
00
00
FF
FF
00
FF
01
00
00
FF
FF
00
00
00
00
FF
00
FF
00
00
01
00
00
00
00
00
01
00
FF
00
00
00
00
01
00
00
00
FF
FF
01
00
FF
00
00
01
00
00
00
FF
00
FF
00
00
01
00
00
00
00
00
00
00
FF
00
00
00
00
00
FF
01
00
00
00
FF
FF
FF
00
01
00
FF
01
00
FF
00
00
FF
00
00
00
00
00
00
00
00
FF
00
00
00
00
00
00
00
FF
FF
01
FF
FF
00
00
00
00
FF
00
FF
00
00
00
FF
FF
00
00
FF
00
00
FF
00
FF
00
00
01
01
FF
00
01
01
02
01
00
01
FF
00
01
FF
FF
00
FF
FF
FF
00
02
00
FE
01
FE
01
00
FF
01
00
00
01
FF
01
FF
01
FF
FF
00
00
FF
FF
00
00
00
00
00
00
FF
00
00
FF
FF
FF
00
01
FF
FF
FF
01
FF
FF
00
00
00
FF
00
00
00
FF
01
00
00
00
FF
01
FE
00
00
01
00
FF
02
FF
FE
FF
00
00
02
00
00
00
00
FF
01
00
01
01
01
00
00
01
00
00
00
00
01
02
FF
FF
FE
00
01
00
01
00
00
00
FF
01
00
00
01
00
FF
FF
00
01
01
01
00
00
00
FF
01
01
01
00
01
00
01
01
01
01
03
00
00
00
FF
01
00
01
01
00
01
01
00
01
02
01
00
FF
00
00
00
00
00
01
00
00
01
FE
FF
00
01
01
00
FF
FF
01
00
00
01
00
FF
00
FF
00
01
00
00
01
00
01
00
FE
01
00
01
02
00
02
01
01
00
FF
FE
01
FE
02
FF
00
FE
00
FF
01
00
03
FF
00
FF
01
FF
01
FF
01
FF
FF
FF
01
00
01
00
00
01
00
00
00
00
FE
FF
00
FF
FF
00
00
01
00
FF
00
FF
FF
00
00
00
00
FF
02
00
00
FF
00
00
FF
FF
01
00
FF
FF
00
00
00
00
00
00
00
FF
01
00
FF
01
00
00
FF
01
FF
02
00
00
00
00
01
01
01
03
00
FF
00
FF
01
00
00
02
00
FF
01
00
00
01
00
01
FF
FF
00
FE
01
00
00
FF
01
02
01
01
00
01
00
02
00
02
00
00
00
