00000061
FFFFFF45
00000196
00000006
0000014E
FFFFFFB4
00000000
00000000
000000E7
00000079
FFFFFF8D
00000045
FFFFFF71
00000086
00000059
00000059
00000088
FFFFFFE6
FFFFFF5A
00000007
0000001D
FFFFFFCD
00000001
FFFFFF27
00000058
00000000
00000000
00000000
00000000
00000000
00000000
00000000
00000050
00000000
00000000
00000000
00000000
00000000
00000000
00000000
00000014
00000000
00000000
00000000
00000000
00000000
00000000
00000000
FFFFFF9B
00000000
00000000
00000000
00000000
00000000
00000000
00000000
FFFFFFB6
00000000
00000000
00000000
00000000
00000000
00000000
00000000
000000AE
00000000
00000000
00000000
00000000
00000000
00000000
00000000
FFFFFFBF
00000000
00000000
00000000
00000000
00000000
00000000
00000000
000000C5
00000000
00000000
00000000
00000000
00000000
00000000
00000000
0000008D
00000000
00000000
00000000
00000000
00000000
00000000
00000000
000000B6
00000000
00000000
00000000
00000000
00000000
00000000
00000000
FFFFFFD0
00000000
00000000
00000000
00000000
00000000
00000000
00000000
00000027
00000000
00000000
00000000
00000000
00000000
00000000
00000000
FFFFFFCC
00000000
00000000
00000000
00000000
00000000
00000000
00000000
FFFFFFCD
00000000
00000000
00000000
00000000
00000000
00000000
00000000
00000040
00000000
00000000
00000000
00000000
00000000
00000000
00000000
FFFFFFC1
00000000
00000000
00000000
00000000
00000000
00000000
00000000
0000004E
00000000
00000000
00000000
00000000
00000000
00000000
00000000
FFFFFFA9
00000000
00000000
00000000
00000000
00000000
00000000
00000000
FFFFFF87
00000000
00000000
00000000
00000000
00000000
00000000
00000000
FFFFFFA4
00000000
00000000
00000000
00000000
00000000
00000000
00000000
FFFFFF1C
00000000
00000000
00000000
00000000
00000000
00000000
00000000
0000008D
00000000
00000000
00000000
00000000
00000000
00000000
00000000
0000005F
00000000
00000000
00000000
00000000
00000000
00000000
00000000
000000FC
00000000
00000000
00000000
00000000
00000000
00000000
00000000
FFFFFFC6
00000000
00000000
00000000
00000000
00000000
00000000
00000000
00000059
00000000
00000000
00000000
00000000
00000000
00000000
00000000
FFFFFFA2
00000000
00000000
00000000
00000000
00000000
00000000
00000000
00000029
00000000
00000000
00000000
00000000
00000000
00000000
00000000
00000106
00000000
00000000
00000000
00000000
00000000
00000000
00000000
000000B8
00000000
00000000
00000000
00000000
00000000
00000000
00000000
FFFFFFCB
00000000
00000000
00000000
00000000
00000000
00000000
00000000
00000081
00000000
00000000
00000000
00000000
00000000
00000000
00000000
00000025
00000000
00000000
00000000
00000000
00000000
00000000
00000000
FFFFFFBF
00000000
00000000
00000000
00000000
00000000
00000000
00000000
00000079
00000000
00000000
00000000
00000000
00000000
00000000
00000000
FFFFFFF7
00000000
00000000
00000000
00000000
00000000
00000000
00000000
FFFFFFAE
00000000
00000000
00000000
00000000
00000000
00000000
00000000
00000131
00000000
00000000
00000000
00000000
00000000
00000000
00000000
000000B5
00000000
00000000
00000000
00000000
00000000
00000000
00000000
00000049
00000000
00000000
00000000
00000000
00000000
00000000
00000000
FFFFFFCF
00000000
00000000
00000000
00000000
00000000
00000000
00000000
FFFFFFC5
00000000
00000000
00000000
00000000
00000000
00000000
00000000
0000002D
00000000
00000000
00000000
00000000
00000000
00000000
00000000
FFFFFFAF
00000000
00000000
00000000
00000000
00000000
00000000
00000000
00000012
00000000
00000000
00000000
00000000
00000000
00000000
00000000
00000020
00000000
00000000
00000000
00000000
00000000
00000000
00000000
000000E0
00000000
00000000
00000000
00000000
00000000
00000000
00000000
00000022
00000000
00000000
00000000
00000000
00000000
00000000
00000000
FFFFFFC2
00000000
00000000
00000000
00000000
00000000
00000000
00000000
FFFFFF87
00000000
00000000
00000000
00000000
00000000
00000000
00000000
FFFFFFC3
00000000
00000000
00000000
00000000
00000000
00000000
00000000
0000002B
00000000
00000000
00000000
00000000
00000000
00000000
00000000
0000002D
00000000
00000000
00000000
00000000
00000000
00000000
00000000
000000EF
00000000
00000000
00000000
00000000
00000000
00000000
00000000
FFFFFFDD
00000000
00000000
00000000
00000000
00000000
00000000
00000000
FFFFFFD1
00000000
00000000
00000000
00000000
00000000
00000000
00000000
FFFFFF92
00000000
00000000
00000000
00000000
00000000
00000000
00000000
0000006B
00000000
00000000
00000000
00000000
00000000
00000000
00000000
FFFFFFC7
00000000
00000000
00000000
00000000
00000000
00000000
00000000
FFFFFFCE
00000000
00000000
00000000
00000000
00000000
00000000
00000000
00000025
00000000
00000000
00000000
00000000
00000000
00000000
00000000
0000000C
00000000
00000000
00000000
00000000
00000000
00000000
00000000
FFFFFFBE
00000000
00000000
00000000
00000000
00000000
00000000
00000000
FFFFFFBD
00000000
00000000
00000000
00000000
00000000
00000000
00000000
000000AD
00000000
00000000
00000000
00000000
00000000
00000000
00000000
00000011
00000000
00000000
00000000
00000000
00000000
00000000
00000000
00000037
00000000
00000000
00000000
00000000
00000000
00000000
00000000
FFFFFF87
00000000
00000000
00000000
00000000
00000000
00000000
00000000
0000003E
00000000
00000000
00000000
00000000
00000000
00000000
00000000
FFFFFF7C
00000000
00000000
00000000
00000000
00000000
00000000
00000000
FFFFFF8A
00000000
00000000
00000000
00000000
00000000
00000000
00000000
FFFFFF67
00000000
00000000
00000000
00000000
00000000
00000000
00000000
00000079
00000000
00000000
00000000
00000000
00000000
00000000
00000000
00000058
00000000
00000000
00000000
00000000
00000000
00000000
00000000
00000077
00000000
00000000
00000000
00000000
00000000
00000000
00000000
FFFFFF7F
00000000
00000000
00000000
00000000
00000000
00000000
00000000
FFFFFFFD
00000000
00000000
00000000
00000000
00000000
00000000
00000000
0000004A
00000000
00000000
00000000
00000000
00000000
00000000
00000000
00000023
00000000
00000000
00000000
00000000
00000000
00000000
00000000
000000C6
00000000
00000000
00000000
00000000
00000000
00000000
00000000
0000000F
00000000
00000000
00000000
00000000
00000000
00000000
00000000
0000010B
00000000
00000000
00000000
00000000
00000000
00000000
00000000
000000EA
00000000
00000000
00000000
00000000
00000000
00000000
00000000
FFFFFFC6
00000000
00000000
00000000
00000000
00000000
00000000
00000000
000000B1
00000000
00000000
00000000
00000000
00000000
00000000
00000000
0000006C
00000000
00000000
00000000
00000000
00000000
00000000
00000000
0000006F
00000000
00000000
00000000
00000000
00000000
00000000
00000000
FFFFFF9E
00000000
00000000
00000000
00000000
00000000
00000000
00000000
FFFFFF66
00000000
00000000
00000000
00000000
00000000
00000000
00000000
0000000A
00000000
00000000
00000000
00000000
00000000
00000000
00000000
0000000A
00000000
00000000
00000000
00000000
00000000
00000000
00000000
FFFFFFD4
00000000
00000000
00000000
00000000
00000000
00000000
00000000
FFFFFFD5
00000000
00000000
00000000
00000000
00000000
00000000
00000000
00000019
00000000
00000000
00000000
00000000
00000000
00000000
00000000
FFFFFFA3
00000000
00000000
00000000
00000000
00000000
00000000
00000000
0000005F
00000000
00000000
00000000
00000000
00000000
00000000
00000000
FFFFFF9C
00000000
00000000
00000000
00000000
00000000
00000000
00000000
000000B5
00000000
00000000
00000000
00000000
00000000
00000000
00000000
00000058
00000000
00000000
00000000
00000000
00000000
00000000
00000000
FFFFFF6C
00000000
00000000
00000000
00000000
00000000
00000000
00000000
00000020
00000000
00000000
00000000
00000000
00000000
00000000
00000000
FFFFFFC5
00000000
00000000
00000000
00000000
00000000
00000000
00000000
FFFFFFF2
00000000
00000000
00000000
00000000
00000000
00000000
00000000
0000002A
00000000
00000000
00000000
00000000
00000000
00000000
00000000
00000021
00000000
00000000
00000000
00000000
00000000
00000000
00000000
FFFFFFA9
00000000
00000000
00000000
00000000
00000000
00000000
00000000
FFFFFF5F
00000000
00000000
00000000
00000000
00000000
00000000
00000000
FFFFFF7F
00000000
00000000
00000000
00000000
00000000
00000000
00000000
0000003E
00000000
00000000
00000000
00000000
00000000
00000000
00000000
FFFFFFA8
00000000
00000000
00000000
00000000
00000000
00000000
00000000
FFFFFFCC
00000000
00000000
00000000
00000000
00000000
00000000
00000000
000000BC
00000000
00000000
00000000
00000000
00000000
00000000
00000000
000000A3
00000000
00000000
00000000
00000000
00000000
00000000
00000000
0000004B
00000000
00000000
00000000
00000000
00000000
00000000
00000000
FFFFFF90
00000000
00000000
00000000
00000000
00000000
00000000
00000000
FFFFFFB1
00000000
00000000
00000000
00000000
00000000
00000000
00000000
00000028
00000000
00000000
00000000
00000000
00000000
00000000
00000000
00000030
00000000
00000000
00000000
00000000
00000000
00000000
00000000
FFFFFF87
00000000
00000000
00000000
00000000
00000000
00000000
00000000
FFFFFF9A
00000000
00000000
00000000
00000000
00000000
00000000
00000000
FFFFFFFF
00000000
00000000
00000000
00000000
00000000
00000000
00000000
FFFFFF6F
00000000
00000000
00000000
00000000
00000000
00000000
00000000
00000014
00000000
00000000
00000000
00000000
00000000
00000000
00000000
0000004E
00000000
00000000
00000000
00000000
00000000
00000000
00000000
00000064
00000000
00000000
00000000
00000000
00000000
00000000
00000000
00000069
00000000
00000000
00000000
00000000
00000000
00000000
00000000
FFFFFFE9
00000000
00000000
00000000
00000000
00000000
00000000
00000000
FFFFFFB2
00000000
00000000
00000000
00000000
00000000
00000000
00000000
0000007D
00000000
00000000
00000000
00000000
00000000
00000000
00000000
FFFFFFA1
00000000
00000000
00000000
00000000
00000000
00000000
00000000
000000D6
00000000
00000000
00000000
00000000
00000000
00000000
00000000
0000007A
00000000
00000000
00000000
00000000
00000000
00000000
00000000
00000145
00000000
00000000
00000000
00000000
00000000
00000000
00000000
FFFFFF96
00000000
00000000
00000000
00000000
00000000
00000000
00000000
0000009A
00000000
00000000
00000000
00000000
00000000
00000000
00000000
00000098
00000000
00000000
00000000
00000000
00000000
00000000
00000000
FFFFFF1E
00000000
00000000
00000000
00000000
00000000
00000000
00000000
FFFFFF29
00000000
00000000
00000000
00000000
00000000
00000000
00000000
00000041
00000000
00000000
00000000
00000000
00000000
00000000
00000000
00000079
00000000
00000000
00000000
00000000
00000000
00000000
00000000
00000177
00000000
00000000
00000000
00000000
00000000
00000000
00000000
00000078
00000000
00000000
00000000
00000000
00000000
00000000
00000000
000000E8
00000000
00000000
00000000
00000000
00000000
00000000
00000000
000000CD
00000000
00000000
00000000
00000000
00000000
00000000
00000000
00000004
00000000
00000000
00000000
00000000
00000000
00000000
00000000
000000E6
00000000
00000000
00000000
00000000
00000000
00000000
00000000
0000006E
00000000
00000000
00000000
00000000
00000000
00000000
00000000
000000BD
00000000
00000000
00000000
00000000
00000000
00000000
00000000
00000105
00000000
00000000
00000000
00000000
00000000
00000000
00000000
00000140
00000000
00000000
00000000
00000000
00000000
00000000
00000000
FFFFFEB0
00000000
00000000
00000000
00000000
00000000
00000000
00000000
00000009
00000000
00000000
00000000
00000000
00000000
00000000
00000000
00000079
00000000
00000000
00000000
00000000
00000000
00000000
00000000
FFFFFFF6
00000000
00000000
00000000
00000000
00000000
00000000
00000000
0000000E
00000000
00000000
00000000
00000000
00000000
00000000
00000000
00000021
00000000
00000000
00000000
00000000
00000000
00000000
00000000
00000136
00000000
00000000
00000000
00000000
00000000
00000000
00000000
FFFFFFB4
00000000
00000000
00000000
00000000
00000000
00000000
00000000
000000FE
00000000
00000000
00000000
00000000
00000000
00000000
00000000
FFFFFEFA
00000000
00000000
00000000
00000000
00000000
00000000
00000000
000000B5
00000000
00000000
00000000
00000000
00000000
00000000
00000000
00000099
00000000
00000000
00000000
00000000
00000000
00000000
00000000
FFFFFF20
00000000
00000000
00000000
00000000
00000000
00000000
00000000
FFFFFFA7
00000000
00000000
00000000
00000000
00000000
00000000
00000000
00000030
00000000
00000000
00000000
00000000
00000000
00000000
00000000
FFFFFFD6
00000000
00000000
00000000
00000000
00000000
00000000
00000000
0000004F
00000000
00000000
00000000
00000000
00000000
00000000
00000000
FFFFFF2B
00000000
00000000
00000000
00000000
00000000
00000000
00000000
0000012B
00000000
00000000
00000000
00000000
00000000
00000000
00000000
00000118
00000000
00000000
00000000
00000000
00000000
00000000
00000000
00000083
00000000
00000000
00000000
00000000
00000000
00000000
00000000
00000113
00000000
00000000
00000000
00000000
00000000
00000000
00000000
FFFFFF2E
00000000
00000000
00000000
00000000
00000000
00000000
00000000
FFFFFFC7
00000000
00000000
00000000
00000000
00000000
00000000
00000000
FFFFFFA7
00000000
00000000
00000000
00000000
00000000
00000000
00000000
00000057
00000000
00000000
00000000
00000000
00000000
00000000
00000000
FFFFFFDD
00000000
00000000
00000000
00000000
00000000
00000000
00000000
000000FB
00000000
00000000
00000000
00000000
00000000
00000000
00000000
00000075
00000000
00000000
00000000
00000000
00000000
00000000
00000000
00000134
00000000
00000000
00000000
00000000
00000000
00000000
00000000
FFFFFFC2
00000000
00000000
00000000
00000000
00000000
00000000
00000000
FFFFFFB3
00000000
00000000
00000000
00000000
00000000
00000000
00000000
0000008A
00000000
00000000
00000000
00000000
00000000
00000000
00000000
FFFFFF4B
00000000
00000000
00000000
00000000
00000000
00000000
00000000
000000A7
00000000
00000000
00000000
00000000
00000000
00000000
00000000
FFFFFFB1
00000000
00000000
00000000
00000000
00000000
00000000
00000000
0000013B
00000000
00000000
00000000
00000000
00000000
00000000
00000000
FFFFFFA9
00000000
00000000
00000000
00000000
00000000
00000000
00000000
FFFFFF65
00000000
00000000
00000000
00000000
00000000
00000000
00000000
00000042
00000000
00000000
00000000
00000000
00000000
00000000
00000000
FFFFFFF0
00000000
00000000
00000000
00000000
00000000
00000000
00000000
FFFFFF18
00000000
00000000
00000000
00000000
00000000
00000000
00000000
0000004B
00000000
00000000
00000000
00000000
00000000
00000000
00000000
FFFFFFC1
00000000
00000000
00000000
00000000
00000000
00000000
00000000
FFFFFF33
00000000
00000000
00000000
00000000
00000000
00000000
00000000
FFFFFF52
00000000
00000000
00000000
00000000
00000000
00000000
00000000
FFFFFF39
00000000
00000000
00000000
00000000
00000000
00000000
00000000
FFFFFF61
00000000
00000000
00000000
00000000
00000000
00000000
00000000
FFFFFEFE
00000000
00000000
00000000
00000000
00000000
00000000
00000000
FFFFFF8E
00000000
00000000
00000000
00000000
00000000
00000000
00000000
FFFFFF23
00000000
00000000
00000000
00000000
00000000
00000000
00000000
FFFFFF79
00000000
00000000
00000000
00000000
00000000
00000000
00000000
00000067
00000000
00000000
00000000
00000000
00000000
00000000
00000000
FFFFFF90
00000000
00000000
00000000
00000000
00000000
00000000
00000000
000000ED
00000000
00000000
00000000
00000000
00000000
00000000
00000000
00000049
00000000
00000000
00000000
00000000
00000000
00000000
00000000
000000BB
00000000
00000000
00000000
00000000
00000000
00000000
00000000
00000020
00000000
00000000
00000000
00000000
00000000
00000000
00000000
FFFFFFB3
00000000
00000000
00000000
00000000
00000000
00000000
00000000
FFFFFF2D
00000000
00000000
00000000
00000000
00000000
00000000
00000000
FFFFFF48
00000000
00000000
00000000
00000000
00000000
00000000
00000000
00000084
00000000
00000000
00000000
00000000
00000000
00000000
00000000
0000018A
00000000
00000000
00000000
00000000
00000000
00000000
00000000
000000BB
00000000
00000000
00000000
00000000
00000000
00000000
00000000
