04
FF
FE
FF
FC
FC
00
00
02
FF
FF
04
F8
FD
00
00
05
06
FB
FF
FB
01
00
00
05
03
FD
FC
FB
04
00
00
FE
00
FF
FD
FB
02
00
00
01
02
01
03
FE
FE
00
00
06
01
FC
05
F9
03
00
00
00
02
FF
04
FC
04
00
00
FE
FD
F9
00
FC
00
00
00
F9
FD
FE
FE
FF
FD
00
00
02
04
04
02
02
FE
00
00
00
FE
02
06
01
03
00
00
02
FE
FB
02
02
03
00
00
FD
FF
F5
02
01
05
00
00
F9
F9
FB
06
04
FD
00
00
02
03
08
FF
05
03
00
00
02
FF
02
05
01
FF
00
00
01
01
FD
00
05
04
00
00
F9
04
FA
FF
03
05
00
00
FA
00
F6
00
02
06
00
00
04
FF
09
FD
07
FE
00
00
00
02
05
FB
04
FF
00
00
FC
FF
01
03
03
00
00
00
FB
00
FB
FF
04
03
00
00
03
04
F8
FD
00
03
00
00
02
FF
07
FD
FF
03
FC
FF
01
00
01
FD
00
01
03
FE
01
01
01
01
FF
00
06
FF
FD
01
01
02
01
01
04
FF
FB
01
00
02
FF
FE
FF
FF
03
00
06
FD
FF
00
00
FC
02
00
FD
00
FF
FE
05
FC
02
FF
01
00
FF
FE
04
FD
FE
FC
01
03
00
01
00
FE
FE
FE
00
FF
FF
00
FD
FD
01
00
FE
F8
01
01
02
FD
01
FF
FE
FE
00
FE
04
FE
02
FB
FF
00
00
F9
01
FF
FB
FB
FF
01
01
FE
FC
FF
01
FE
FF
FF
01
00
FE
FF
03
FE
FD
FF
00
02
02
FE
03
FF
FE
FE
00
02
01
FD
00
00
FB
FF
FF
FA
FD
FD
01
01
FC
01
00
FD
00
FF
02
02
00
00
FF
FE
02
01
04
01
FE
FF
FF
02
FF
FC
02
01
FF
FF
00
00
FF
01
FD
00
FF
00
FF
FC
FF
00
00
FF
00
01
01
FE
03
02
04
00
03
01
01
FF
FF
02
00
00
02
FC
01
02
FB
03
00
FE
01
00
00
00
FE
04
00
FF
00
FF
01
FE
02
01
FE
01
00
FF
01
FE
01
01
FC
01
00
01
00
00
FF
FC
01
FF
02
FE
00
FE
FC
01
02
FF
FD
FE
FF
FF
02
02
FF
03
00
FE
01
03
02
01
FF
02
01
03
00
01
00
01
FC
00
01
02
FF
00
FC
FE
02
01
00
FA
00
00
03
03
FF
00
01
FE
00
FF
04
00
FE
01
03
01
01
01
02
00
FC
00
04
02
01
03
FD
FE
00
01
02
01
00
04
00
FE
00
FF
00
FC
00
02
04
00
FE
FF
01
FF
FF
01
FF
FF
FD
00
02
02
FF
FC
FD
FF
FF
01
00
01
FF
FF
FE
FF
01
02
02
FF
FF
02
01
01
01
02
00
FF
00
01
00
FF
01
00
FF
FF
FF
FF
FF
FE
FC
00
FF
01
01
FD
00
00
FF
FF
00
02
00
FD
FF
00
02
FF
01
00
01
FD
FE
01
01
03
04
FF
FF
FF
FC
F8
03
02
03
05
FF
FF
02
00
01
03
00
04
01
FF
02
01
FE
FE
FE
03
01
FF
02
01
F9
FF
FB
00
FF
FC
FF
01
FF
04
FF
02
FF
FB
FA
F9
FF
00
02
01
FF
FE
FF
FA
FD
00
FF
02
FF
00
FD
04
FB
FC
FF
06
00
03
FE
07
FF
FE
FE
00
00
FF
FF
05
FE
FD
FD
02
01
F8
FC
F8
FE
FF
01
07
00
F9
FE
FA
FF
FB
00
01
01
FB
FD
03
FF
FB
FE
04
FF
04
FC
08
03
FD
FF
00
01
05
02
06
FF
FF
FE
FF
00
01
FF
FC
FF
FD
00
01
00
02
FD
FC
00
00
FC
FF
00
FE
01
FF
FF
FC
FB
02
01
02
02
01
02
FC
FC
00
FF
00
02
00
FE
FF
00
01
00
04
FD
FA
00
01
00
02
00
08
01
FF
00
03
FE
01
FF
03
05
FE
00
01
FC
00
FF
02
03
FC
03
00
FC
FF
00
FD
02
FB
01
FE
01
FE
FF
00
FD
02
02
FD
FE
FE
FF
00
01
02
FF
00
FE
FF
00
FE
01
FF
FD
00
00
FF
00
FF
01
FE
FC
FE
01
FF
00
00
00
FF
00
FF
00
FA
00
00
FF
01
02
00
FF
FE
00
FE
02
02
FF
02
FF
02
FF
02
02
03
FD
01
01
02
FF
02
00
02
FE
00
00
FF
00
FF
FE
FE
03
FE
FD
FA
FF
00
02
FF
00
00
00
FE
00
00
03
00
FE
03
01
02
FF
03
FF
01
FF
03
01
03
00
02
FE
FF
00
02
FF
00
FF
01
00
FE
01
00
00
FD
01
01
03
FF
FE
01
02
00
FF
FF
00
FE
FE
03
04
03
FF
FF
FE
FC
FE
03
03
04
00
04
00
FF
00
00
01
01
FF
03
FF
01
00
01
02
FF
FF
01
01
FF
FD
00
01
00
00
FF
FF
FE
FC
FE
01
00
FF
FB
FE
FF
00
FC
02
03
00
FE
FF
FF
01
FD
00
00
FF
00
FF
02
01
00
FE
FD
00
FE
00
02
01
FF
FE
FB
00
00
00
02
01
FF
01
FF
00
02
FF
04
FE
FE
00
FE
00
01
FB
03
FE
FE
02
FF
00
FF
FE
00
00
FD
FF
FB
00
01
02
00
01
FD
00
FD
FF
00
FF
01
00
FD
00
FD
FF
FE
FB
02
00
FF
FF
FD
FF
FE
FE
03
00
04
FE
01
01
FD
00
01
FF
01
00
01
01
01
FE
02
01
FF
FF
FB
00
FF
FA
FE
00
00
FB
FB
FF
FB
FD
FE
01
03
FD
FD
01
FE
02
FE
FF
02
FF
03
00
05
03
01
FF
00
01
00
00
FF
FE
01
FE
FF
FC
FC
00
FB
00
02
00
FF
FB
FA
FF
F9
03
00
FF
02
00
FE
FF
FB
01
FF
FE
00
01
02
FF
04
00
FC
FF
FE
01
00
FF
01
FF
04
00
FD
FA
FB
FF
05
02
03
00
FE
F9
F8
FF
03
04
00
00
04
FB
FB
00
01
01
FA
FC
06
FF
00
FF
FC
00
FA
02
00
FF
FE
FF
00
00
04
01
02
FF
01
FF
FF
02
02
FE
FF
FF
01
FF
00
00
FF
FD
00
00
FE
FF
00
01
00
01
FE
FE
FF
01
FF
FD
FD
01
FF
FF
FD
FF
00
02
00
FF
03
01
00
FF
02
03
00
FE
04
00
03
00
04
FF
02
00
02
01
FF
01
00
FD
01
03
01
FE
FC
FF
FE
00
FE
01
01
00
FF
01
00
02
FF
FE
03
03
01
FF
01
FF
00
FE
01
04
05
01
04
FD
FF
01
01
02
FF
FF
02
00
00
02
01
00
FE
FF
01
01
00
FD
01
02
00
FF
00
00
FD
FE
01
04
03
00
FD
FD
FE
FE
FF
03
02
FF
00
FF
00
00
FF
02
01
FF
03
FF
FF
05
FD
01
FE
01
00
00
01
FE
FF
01
FF
FF
00
00
FE
FE
FD
02
02
00
FD
00
00
01
FC
FF
02
FF
FD
FF
01
02
FC
00
FF
00
FD
00
02
05
FC
FD
00
00
FF
FE
01
03
01
00
FE
FE
00
FF
00
02
00
00
FE
FE
02
FE
02
00
01
FF
02
FF
02
FD
02
FE
FE
FF
00
02
01
FF
00
00
FE
00
01
01
04
00
00
00
01
FE
FC
FB
00
FF
FE
FF
01
FE
FE
FD
01
FC
00
FC
02
FE
FF
FE
FE
FD
02
FB
02
00
00
FF
00
FE
FF
FF
02
FE
01
01
00
FF
00
01
00
00
FF
FE
FE
00
FB
01
FF
00
01
FE
FD
01
FF
FF
FF
01
FE
FB
FD
00
FD
FA
01
FE
FC
00
FE
00
FE
00
03
FF
FF
01
FD
FF
00
02
FD
01
FB
01
FC
00
FC
01
FD
FE
FB
FF
FF
02
FD
FC
FA
FF
FA
FD
FE
01
FC
FD
FD
01
FE
FF
FF
00
FD
00
00
00
FE
00
FE
04
01
FF
00
FF
FC
FB
03
FE
FA
FC
FF
00
FA
FC
02
FF
FD
FB
FE
00
FF
FE
FF
FE
01
03
FC
00
02
FD
FF
FE
01
03
FE
FE
00
FE
FE
01
01
04
01
FF
00
FD
00
01
FB
00
02
FF
FF
FF
01
02
FF
01
03
01
03
FC
00
00
01
00
01
01
01
FB
FF
01
01
01
FF
00
01
FE
FD
01
FF
02
FF
FF
FC
FC
00
FF
FE
00
00
00
FF
FE
00
01
02
FF
01
FF
01
FE
00
04
02
01
01
00
02
FE
FF
02
FF
00
02
FF
FF
FE
FE
00
FE
01
FE
01
01
FF
04
01
FE
02
FC
FF
02
01
03
02
03
01
FE
01
00
00
FF
01
05
FF
FD
FF
FF
01
02
FF
02
00
02
00
FD
FF
00
00
00
00
FF
01
00
02
01
02
FE
FF
FD
00
00
FD
01
01
01
FF
FD
FF
00
01
01
FF
03
FE
01
00
FF
02
00
FF
00
02
00
00
FF
01
FF
FF
01
FF
FF
00
FF
FF
01
FE
FD
FF
FE
00
FE
FE
02
FF
FE
FE
00
00
FF
00
FF
FD
00
00
FF
FF
00
00
FD
FF
FF
00
FD
FF
00
02
FF
FF
00
02
FC
00
FC
FE
FD
02
02
FD
FC
FF
FF
FE
00
FD
FD
FC
FF
01
02
01
01
FC
FF
FF
FF
00
00
03
01
FF
FD
00
FE
01
04
00
03
02
FE
FF
FA
FF
FE
FF
01
F9
01
FC
FC
00
FD
04
FC
FA
FF
FB
01
01
FE
04
FC
FD
02
FF
FF
01
FA
01
02
01
FE
01
FA
01
FF
04
05
00
00
FC
04
00
FD
FE
FF
FE
FE
F9
02
01
00
04
FA
FB
00
FB
01
00
FE
05
FD
FD
FF
01
FE
01
FF
03
02
FE
01
03
FC
FF
00
03
03
FF
02
FA
04
FF
00
FF
F7
02
FD
FB
05
00
FF
03
FB
03
02
FF
02
FF
FE
03
FF
05
00
FF
01
01
01
01
00
FF
FD
01
FD
00
01
04
01
01
02
FE
03
FF
FF
FB
FE
03
FC
FD
05
01
FD
FF
01
05
01
FB
03
00
FE
00
01
05
FD
FC
02
00
01
FE
FE
04
FD
FE
01
00
FF
00
FD
02
02
FF
03
00
FF
FE
00
FE
FD
00
02
FF
01
FF
01
FE
00
FE
01
FF
02
00
FE
FF
00
00
00
FF
FF
FD
00
00
FF
00
01
FF
FF
FE
FF
FF
FE
00
00
FF
FF
FF
01
02
FF
00
02
01
00
FD
00
03
01
02
02
00
01
FE
FF
01
02
01
00
00
01
FF
FF
00
FE
02
01
00
00
FE
FD
01
FF
02
FC
01
FF
FE
02
03
FF
00
FC
FE
FE
00
03
03
02
01
FE
FF
FF
FF
FF
02
04
00
00
FF
FC
00
FF
01
02
02
02
FF
FF
00
FF
00
FF
01
FF
FF
01
00
04
01
FF
FF
FD
00
01
FF
03
00
03
FC
FB
00
00
01
02
FF
03
FF
FD
00
FD
02
01
FD
02
02
FE
FF
FE
FF
02
FF
02
FC
00
00
01
FE
01
FF
FE
FE
00
FF
01
01
FF
FF
00
FF
FF
00
03
01
00
FF
01
01
FF
FF
01
02
FF
FD
01
03
FC
01
00
03
00
FD
FF
FE
01
01
00
FE
02
01
00
00
02
FF
01
FE
02
02
FF
01
01
FF
03
FD
FD
00
FF
01
01
FE
03
FE
FE
00
01
00
01
FF
02
00
FD
FE
03
03
FD
00
03
02
02
02
FC
02
FE
FF
FF
01
01
01
FD
00
01
FF
FE
03
01
01
00
FE
03
00
FB
02
FE
01
00
FF
03
00
FE
02
FD
00
01
04
FC
00
02
03
01
00
FA
01
FA
00
01
02
04
FF
FB
FD
FB
00
01
02
04
FC
00
F9
FE
00
FD
01
01
FF
02
FC
FF
00
FC
00
03
01
02
FE
03
01
03
01
01
F9
FC
FC
01
FF
04
01
03
FE
FA
FF
FF
FF
07
01
03
02
FF
FC
FD
FF
05
FF
01
00
04
FA
FC
00
03
01
03
01
03
05
03
01
FE
FD
FF
FF
FF
04
02
00
02
FC
FF
00
FC
03
05
FF
02
FC
FE
03
FD
00
06
01
03
FC
00
05
FD
FC
07
FF
01
02
FE
02
FE
FF
00
00
00
FE
FF
01
00
01
01
00
02
FC
FF
00
00
FF
02
FF
01
FE
FE
00
FE
FF
00
00
03
FD
FE
02
FF
01
02
FF
01
FE
FD
01
FE
01
FF
FF
FE
FE
01
03
01
01
FF
00
FF
FE
FF
02
04
01
00
00
00
FE
FF
04
00
02
02
FF
00
FD
FD
01
00
01
03
00
00
FC
FD
00
FE
02
FD
01
00
00
02
02
02
00
FD
01
FF
01
FF
02
05
FF
FD
00
FD
01
02
00
02
01
01
FF
00
00
02
FF
FF
02
03
00
FF
FD
01
00
00
FD
FD
FF
01
FF
00
01
00
FE
FC
01
01
01
02
FE
02
FE
FC
FF
FF
03
02
FE
00
02
FD
FF
01
03
00
FE
01
02
FD
FF
00
FC
FF
FE
00
FE
00
00
01
01
00
FE
01
FE
01
00
01
02
FF
FE
02
01
00
FF
00
02
FD
FE
FF
01
FE
FF
02
01
FE
FF
00
02
FE
01
FF
00
00
FD
FE
00
FF
FD
FA
FF
FD
FE
FE
FF
00
FE
FD
FF
02
01
01
FD
FE
FE
FE
00
01
02
02
FB
FE
00
00
00
00
FE
00
FD
FC
00
FE
00
00
FD
00
00
FE
01
00
00
03
01
FD
FF
00
02
00
00
03
03
FF
00
FE
01
01
FF
02
00
02
FF
FF
01
00
01
FF
01
01
01
FF
01
02
01
FF
FE
01
02
00
01
02
00
02
01
00
00
02
00
01
00
01
FF
FF
FE
FF
FD
00
00
FF
FC
FF
01
FE
FD
00
00
00
02
01
01
FE
FD
01
00
FC
00
FF
02
02
00
01
01
FF
FE
FF
FE
01
FF
02
00
02
FC
FF
00
00
FD
FF
01
01
00
01
01
00
FF
FF
00
01
00
00
00
FF
00
02
00
FF
00
FD
00
01
01
01
00
00
FE
FF
FE
01
FE
00
00
01
FE
FF
FD
FF
FE
FE
FF
00
00
01
00
00
02
00
00
02
01
01
00
FF
02
02
FF
04
00
02
01
FF
FF
00
FF
FF
02
FC
02
FD
00
FF
01
01
02
FD
00
FD
00
00
01
00
00
01
00
FF
00
FF
01
00
FE
01
00
01
00
FF
00
FD
FC
02
00
01
FF
FE
00
FD
00
FF
00
02
FF
FE
00
FE
02
00
FF
FF
01
FE
01
FF
FF
01
FE
FE
00
FE
00
01
FD
00
00
FD
00
FE
01
00
FB
01
00
FE
00
FF
FE
00
00
02
FF
00
00
02
02
FF
FF
03
FF
00
FF
01
FE
00
00
00
02
FF
01
FE
FC
FE
00
FD
FF
FE
FF
FB
FF
FE
FF
FD
00
FE
01
FF
01
02
00
01
FD
FF
FF
FE
03
00
01
00
00
FF
01
01
02
01
01
FF
01
FE
00
FF
FE
FE
FD
FF
00
FE
00
FE
00
00
00
00
00
01
01
01
01
00
01
02
FE
00
00
02
01
02
00
00
00
01
00
03
00
01
FF
00
02
02
00
01
03
01
FE
FF
01
01
00
FF
02
00
01
01
00
FC
FF
02
00
00
01
00
03
FE
01
02
00
FF
05
FD
04
FF
00
00
FF
FF
01
FA
01
FF
FF
00
FF
01
02
FE
01
03
01
FF
00
00
03
FD
00
FE
FF
01
00
00
02
00
03
FE
01
01
00
00
01
FE
01
00
01
00
00
FE
00
FD
00
02
FE
FC
00
FF
FF
FD
FE
03
FE
FD
00
03
00
FF
FF
FF
FF
01
00
00
00
01
03
00
00
00
00
FF
FD
00
01
00
FF
01
00
FF
00
00
FF
FC
00
FE
00
FE
00
02
FE
FE
FE
FE
00
FD
FD
00
00
FF
00
FF
00
00
00
03
00
FF
00
FF
00
00
FF
00
00
01
01
01
00
00
01
FF
01
00
02
00
00
00
FF
02
02
FC
00
FE
00
FF
00
FF
FE
00
00
FE
00
01
FD
02
FC
01
00
00
FF
02
FD
02
FE
01
01
FF
01
01
01
FF
01
00
FF
FE
01
00
02
FF
02
01
00
FE
00
FF
02
FF
01
FD
01
FF
FE
FE
FE
FF
FF
FB
01
FE
FE
FC
FF
01
FD
FF
00
FF
FE
FF
01
00
FB
02
00
02
FE
FF
02
FF
FD
05
00
03
FF
00
01
FE
FE
FF
00
00
00
00
00
FF
FF
00
01
FD
02
00
FD
01
FE
FF
01
FE
02
00
FE
01
FE
01
00
00
01
03
01
FF
FF
04
00
FF
02
02
02
FE
00
00
00
01
03
01
01
FF
00
02
01
00
03
FF
FF
00
01
FE
FF
01
02
01
00
00
FF
00
00
02
02
00
00
00
FF
03
00
00
00
FF
FF
FF
00
FF
00
01
01
01
FE
00
00
FD
00
01
01
00
FF
00
00
00
00
01
00
FF
FF
01
00
FE
00
00
02
00
FF
00
FF
FF
01
FE
03
FF
FF
00
00
01
00
01
00
01
FF
FF
01
01
00
00
01
02
00
00
FE
FE
FF
FF
00
01
01
00
FF
FE
01
FF
00
00
01
FE
FE
FC
00
FA
01
02
FF
FF
FF
00
01
FF
00
00
01
FD
FF
01
01
FF
00
00
FC
00
00
01
01
FE
01
01
FA
FF
00
01
01
FE
FF
00
FC
00
FF
FF
FF
FF
FF
00
FF
00
FF
02
01
00
00
01
FB
00
00
01
00
01
00
00
FE
00
03
01
FF
FF
00
FF
FF
00
FE
01
01
00
00
00
00
02
00
FF
FE
00
FF
01
02
02
FE
01
FE
FD
00
00
FF
02
FD
01
FE
FD
01
FF
00
00
01
00
02
FF
00
00
FF
02
02
03
03
00
01
FE
01
02
00
00
FF
01
00
FE
FF
02
FD
03
FD
00
00
FF
02
00
00
00
FD
FD
FF
FF
01
01
03
00
FF
FD
00
00
02
FF
03
02
01
FF
00
00
00
FE
00
00
02
00
00
02
01
FF
00
FA
FB
FA
00
F8
02
FF
03
FB
FD
00
00
FC
01
FE
03
FE
FE
02
00
00
02
FE
02
FE
FE
01
01
01
03
FE
01
FD
FE
FE
00
01
00
FE
FF
01
00
00
00
00
01
01
FE
04
01
01
00
01
FF
01
00
03
01
01
FF
01
FE
01
01
00
00
03
01
02
00
01
FE
00
00
02
00
02
00
01
01
00
FF
00
00
02
00
02
FF
02
FF
00
00
01
FF
01
02
00
FF
01
03
01
00
01
01
01
00
02
02
03
01
01
FE
04
00
02
03
02
02
01
00
00
00
00
FD
00
01
FF
FE
00
00
00
02
00
FF
FE
02
FF
01
02
00
01
01
FF
01
02
FF
01
00
00
01
01
02
03
FF
00
02
03
00
00
FE
02
00
FF
FC
FE
00
FF
01
01
00
00
FF
00
00
FF
02
FF
00
FF
FD
00
01
FE
01
03
01
FF
04
FE
01
FE
00
FF
00
03
02
FF
02
FE
FE
FD
01
01
FF
FD
FC
FD
00
FE
00
FD
FE
FC
FE
FD
01
01
00
FC
FD
FA
FF
FE
FF
01
01
FD
02
FB
00
FF
FC
04
FF
FA
02
FA
00
01
00
FF
00
FF
00
FF
00
00
01
FF
FF
FE
00
00
00
FE
FF
00
00
FF
00
FF
00
FF
FF
00
00
02
00
FF
00
FF
00
FF
FF
00
00
00
01
FF
FF
00
00
FF
00
FF
00
00
FF
00
FF
FF
00
00
FF
FF
00
FF
00
FF
00
00
FF
FF
FF
FF
00
00
FF
FF
00
00
00
FF
00
FF
01
FF
00
FF
FE
00
FF
00
FF
FF
01
01
00
FF
FF
00
01
FF
00
FF
00
FF
00
00
00
00
00
FF
FF
FF
00
00
FF
FF
00
00
00
00
00
FF
01
00
FF
FF
FE
FF
FF
01
00
00
01
01
00
00
FF
FF
00
00
01
01
00
FF
FF
FF
00
FF
00
FE
00
00
00
00
FF
FF
FF
FF
00
01
FF
00
01
FF
00
00
FF
00
00
01
FF
00
01
01
01
00
FF
00
00
00
00
00
FF
FF
00
00
00
FF
FF
FF
00
00
FF
00
00
00
00
00
00
FF
FE
FF
00
FF
FF
FF
FE
FE
00
00
FF
FF
FE
00
FE
01
00
00
FE
FF
FF
FE
00
00
00
00
00
00
00
FF
00
01
FF
01
FF
00
01
FF
00
02
00
FF
00
FF
00
FF
FE
FF
00
00
00
00
FF
00
FF
FF
00
FF
00
00
00
00
00
FF
00
00
00
FF
00
FF
00
FF
00
FF
01
00
FF
00
00
FF
01
00
FF
FF
FF
00
00
00
00
01
00
01
00
00
FF
01
00
00
00
FF
00
00
FF
01
01
01
FF
00
FF
00
FF
00
00
00
00
00
FF
00
00
FF
01
FF
00
FF
FF
00
FF
FF
01
FF
00
00
FF
01
00
00
00
FF
01
FF
FF
01
FF
00
01
00
01
FF
FF
FE
FF
FF
01
00
00
00
00
FF
FF
00
00
00
00
00
00
00
00
00
00
00
FF
FF
FF
01
FF
00
00
00
00
FF
00
00
00
00
FF
01
00
00
FF
00
FF
FF
01
FF
00
00
00
00
FF
00
01
FF
FF
01
FF
FF
FE
00
FF
01
00
FE
02
FF
01
FE
FF
01
00
FE
03
00
05
FD
00
02
00
FC
01
01
06
00
01
00
FF
FD
03
FE
01
05
00
04
00
02
00
FF
FF
FE
00
FF
01
FD
03
02
02
FE
FF
FE
00
FE
00
02
01
01
00
01
00
00
FE
00
FF
00
02
00
00
04
FF
FE
00
01
02
00
01
00
02
FF
FE
FF
01
FF
FF
01
FF
00
02
FD
01
00
00
01
FE
02
00
FE
00
00
00
FF
00
00
FF
FF
FF
01
01
FF
FF
02
00
00
FF
00
01
FE
FF
05
00
00
00
00
00
01
01
03
00
00
00
FF
FF
00
01
02
00
01
01
02
00
FE
FE
00
01
02
00
00
FF
FC
00
FD
00
02
02
02
00
FF
FF
FF
01
02
FF
00
00
01
00
04
FE
01
01
01
00
01
FF
01
FF
03
01
02
FF
FF
01
FF
00
00
00
FE
00
00
01
FE
00
00
00
FD
01
00
01
FD
FF
FF
00
01
01
01
FD
00
01
FE
01
00
00
00
FD
FE
00
FF
01
FF
00
FF
FD
01
FF
00
01
01
FF
FF
FE
01
01
00
00
02
00
02
03
02
FE
FC
00
00
01
FF
FE
00
FE
FD
01
FF
02
02
FE
FD
FF
FE
00
FE
01
00
FE
00
FF
00
00
FE
01
FF
00
01
01
01
00
04
01
00
04
04
FF
00
00
01
02
02
FF
02
02
01
01
00
FF
00
FE
01
01
00
FF
01
00
FE
00
01
01
02
00
01
FE
FF
01
00
02
00
00
02
FD
FF
FE
03
00
FF
FF
02
02
01
FF
03
03
00
00
02
FF
02
FF
FF
00
FE
00
01
01
01
FF
01
FF
FF
00
03
FF
00
FF
FF
FF
00
FF
00
00
FF
FF
01
01
02
01
00
FF
01
00
02
01
01
FF
FF
02
02
02
00
FF
01
00
FE
04
FF
02
01
FF
01
01
01
00
FF
04
FF
FD
01
FF
FD
00
FF
01
FE
00
00
05
04
00
03
FC
00
00
01
04
03
00
01
00
00
FF
01
02
00
01
02
01
00
00
01
FF
FF
00
FF
00
00
00
04
03
FF
01
FF
01
FF
01
00
01
03
00
03
FC
02
00
00
FE
02
00
02
FC
00
FF
02
FF
FF
FF
02
FD
FF
00
01
FC
FF
00
00
FD
01
FF
05
02
01
00
01
01
01
01
00
FF
02
01
02
FD
FF
02
FE
00
03
00
01
00
02
00
01
FF
02
00
02
01
00
FD
01
FF
FF
FF
01
FF
00
00
FF
01
01
01
06
02
01
02
FE
FE
01
00
01
00
FF
01
FE
FF
01
00
FF
04
00
00
00
01
02
00
03
02
00
FF
FF
FF
FF
00
02
00
00
FF
FF
00
FE
01
00
FF
02
00
FF
01
01
00
01
00
00
00
FF
02
00
00
00
02
03
02
FF
01
FF
00
FD
00
02
02
FF
FD
00
00
FF
FF
02
01
FE
FD
FF
01
FC
FF
FE
01
03
00
00
02
03
FF
03
01
02
00
00
01
01
00
03
FF
02
00
01
00
01
01
02
00
FF
00
02
00
02
FF
00
01
FF
00
02
01
02
00
00
01
00
FF
01
01
01
00
03
01
00
00
FF
FF
02
01
01
FF
01
00
00
00
00
01
FF
01
01
00
00
02
00
01
FE
02
00
01
01
01
01
02
FE
00
03
00
02
01
FE
00
00
00
00
00
00
FF
FF
FF
01
FF
00
01
FF
03
FE
00
01
FE
01
00
FF
FE
FE
02
FF
04
05
FF
01
FE
FF
04
02
FF
FF
00
02
FF
00
FD
FD
FE
FF
01
01
00
FF
FF
01
00
00
00
FF
02
FF
FF
01
01
02
00
FF
02
FF
00
00
02
02
01
01
01
FF
FF
01
00
00
01
02
FF
FF
FE
FE
FF
FE
00
01
FF
01
FF
02
FE
FB
00
01
FF
01
00
00
00
FC
01
FF
01
FF
FF
00
FE
FC
01
FF
FD
FE
FD
FF
FE
02
FE
01
FF
00
00
02
FF
03
FE
00
00
FE
FE
00
FE
03
00
00
01
FF
FE
00
01
00
00
00
FF
00
FF
03
02
FE
FE
00
00
FF
00
01
FF
02
FD
FF
00
FE
03
01
FF
FF
FF
FF
FF
FD
00
00
04
FC
00
02
00
FD
01
02
00
FF
01
00
00
FE
00
00
02
01
FF
FF
01
FF
02
FE
FF
FE
FE
00
00
FD
01
FF
02
FF
00
FD
00
FF
03
00
00
00
02
00
00
01
FE
01
01
01
02
01
FF
FF
00
FE
01
FF
FF
FE
00
FE
00
00
00
02
00
02
01
01
01
FF
FF
02
02
01
00
02
FF
01
00
01
02
00
FF
01
FF
02
01
00
01
03
00
FF
01
00
00
FF
03
00
00
FF
01
FD
FF
01
FE
FF
00
FF
00
FF
01
00
FD
FF
00
FF
00
00
04
FF
FD
01
00
01
00
00
01
FF
FF
02
00
04
01
02
00
00
01
00
00
03
00
01
FE
02
00
FF
FF
FF
03
01
FE
02
01
00
FF
FF
01
00
00
02
00
FE
01
00
01
FF
02
03
FF
FE
01
00
00
FF
FE
FF
00
FD
FF
00
01
FF
FF
02
00
FF
FF
FF
FF
FE
00
00
00
02
01
FE
FF
FE
01
FF
00
00
01
00
FF
00
FF
01
01
02
00
00
00
01
F9
FD
FF
FF
01
01
FF
FF
FF
FE
00
00
00
00
FF
FD
00
00
00
FF
02
01
FF
FE
01
00
00
FF
01
01
00
00
FE
FD
FF
00
00
01
00
03
FF
FE
00
FD
00
02
01
00
01
01
00
00
00
00
01
02
01
03
01
02
00
01
00
00
02
00
00
02
FF
00
01
FF
01
00
00
00
02
01
00
01
00
00
01
FF
FF
00
00
00
FF
01
00
02
FE
00
FF
00
02
01
00
01
FE
FF
00
01
06
02
00
FC
FE
FD
02
FE
04
01
00
FB
00
FD
01
01
02
00
00
FE
02
FE
01
04
01
F9
FF
03
00
FD
03
02
01
FB
FF
02
00
FC
01
01
06
FC
FE
01
FF
FC
01
FE
05
00
FD
FE
00
FE
02
FE
00
03
01
06
01
03
00
02
00
FD
01
04
00
00
01
01
03
FF
00
02
00
FE
00
FF
03
00
00
01
00
FE
FF
FE
03
02
00
FF
01
FD
FF
FD
FF
03
00
FF
00
02
00
00
01
01
00
04
01
03
FF
00
03
02
00
01
00
00
FE
00
00
01
00
00
00
02
00
FF
00
01
FE
FF
00
01
02
00
00
00
FE
FD
00
02
00
01
01
FF
00
FF
FF
01
FF
00
01
01
00
02
00
FF
00
00
FF
01
00
02
00
02
03
FF
01
FE
FF
FF
00
00
02
01
00
FE
FF
FE
01
FD
00
00
01
00
00
00
00
02
FC
03
00
01
01
02
FF
02
00
00
01
01
00
01
00
00
01
01
03
FF
FF
00
00
FD
00
01
01
FE
00
FF
FF
FE
FF
01
FF
FC
00
FD
01
FF
FD
00
01
FB
01
FE
00
FF
FA
FE
FD
FA
00
01
FF
FE
FD
FF
FF
FE
01
02
FF
00
FE
00
00
02
00
01
01
01
00
01
00
FE
00
00
02
00
FD
00
FF
FB
00
01
00
00
FD
00
FE
FC
01
FF
00
02
FD
FF
FD
FF
00
00
03
01
02
FF
FF
01
FF
01
02
02
03
FE
01
00
00
01
02
00
00
01
00
FF
00
01
FF
FF
00
02
01
FE
00
00
FF
00
00
00
00
FF
FF
FF
FF
FF
02
FF
FF
04
00
01
FD
FE
02
FD
02
00
00
01
01
00
FF
00
FF
00
00
00
FF
FF
00
01
01
01
00
FF
FE
FE
02
01
00
01
00
FE
02
00
01
01
FF
FF
00
FE
02
FE
FF
00
02
01
00
02
02
01
00
00
00
01
01
03
02
01
00
00
FE
FE
01
01
01
00
FF
00
00
FE
00
FF
FC
00
FF
FF
FE
FC
00
FD
FE
FF
FD
FF
FF
02
02
04
FF
03
00
04
01
01
FE
04
00
FF
FC
00
02
FE
00
02
00
01
FD
00
04
FE
00
01
00
01
00
FD
02
01
FE
04
01
FF
FF
FE
FF
01
FE
01
00
FE
FF
05
00
00
FC
03
00
FE
FE
02
00
00
FD
02
00
01
FF
FF
01
00
FC
02
00
01
00
00
01
02
02
01
01
01
01
FD
00
01
FF
FD
00
00
FF
00
FF
FE
00
02
00
01
02
02
03
FD
00
00
FF
00
03
FE
02
02
02
03
01
FC
00
FB
01
02
04
02
01
01
01
FC
FE
00
FF
FF
00
FF
03
01
FF
00
00
FF
00
00
04
03
03
01
00
00
00
00
01
02
01
02
01
01
00
FF
FF
FF
00
02
01
FF
FF
02
FF
FD
00
00
FE
00
00
FF
02
00
01
00
FD
01
00
00
03
01
01
01
00
02
01
FE
00
FF
00
02
00
02
00
00
01
FE
00
01
FE
00
FF
01
00
00
01
02
00
02
03
02
01
05
00
03
FF
02
01
01
FF
02
00
01
00
01
01
00
FE
FF
FD
FD
01
FF
00
00
FC
FE
02
FA
FF
FE
00
00
FF
01
00
01
01
02
02
00
01
02
FF
FF
FF
01
01
FF
00
FE
00
01
00
00
FD
FF
01
00
02
02
00
FD
FE
FA
FF
FE
02
FC
00
FD
FE
FA
03
FF
01
FF
00
01
02
01
00
FF
00
FD
01
00
00
01
00
01
FF
00
00
01
00
00
FF
FE
FF
FE
01
00
FF
00
FB
00
02
FE
00
00
F8
FE
FE
02
00
00
00
01
00
01
02
00
00
00
00
03
FD
03
02
01
01
01
00
01
00
04
00
00
02
FC
00
01
00
03
01
02
FF
00
00
FF
FB
03
02
00
00
FD
00
01
FE
FF
FF
FF
00
FF
00
FE
FF
00
FF
00
01
01
00
FD
FF
01
02
00
FF
00
00
FE
FE
FF
02
FF
00
03
01
FF
FF
FF
03
00
00
01
00
00
01
FD
04
00
FF
FE
FE
FF
00
02
03
03
00
FE
FE
00
00
01
FF
02
FB
01
FE
FF
00
02
FF
FE
FD
FE
FF
FF
00
03
FC
01
FE
FF
FE
01
FF
FE
01
00
00
FF
FE
00
00
00
02
02
00
00
FF
FF
01
03
01
02
01
01
00
01
00
00
01
01
FE
FE
02
00
00
01
FC
01
01
FD
FF
00
00
FF
01
01
01
FE
FF
01
01
02
02
01
01
00
FF
FF
00
01
02
01
01
00
00
01
FF
00
02
03
FE
03
02
01
00
FF
FF
01
03
FE
01
00
00
FF
02
01
01
FE
01
02
00
01
01
FF
00
00
01
00
01
01
03
01
01
00
00
FE
00
FF
01
01
00
03
01
00
00
01
01
01
04
FF
03
04
FF
FF
FF
00
FE
02
04
03
00
02
FE
FD
FB
00
00
FE
00
01
02
FF
FE
01
02
FC
00
00
02
FE
FF
02
FF
FD
00
00
01
00
02
FF
01
01
00
01
01
FE
00
01
00
02
01
00
01
00
00
01
FF
00
02
00
00
00
01
03
00
02
FF
FF
FF
00
04
03
00
01
FE
FF
FD
00
00
FF
FF
FF
01
02
01
FF
01
01
00
01
00
01
02
FF
FE
FF
00
FF
05
01
02
00
00
00
FF
FF
04
01
01
01
06
FF
01
02
02
01
FD
00
00
FE
00
FF
FF
00
FF
FF
FE
FE
FF
FF
01
00
01
FE
FE
00
00
00
00
01
FF
FF
01
01
00
01
03
01
FE
01
01
FF
00
01
00
01
FF
FF
01
FD
00
FE
00
FF
00
02
FF
FE
FF
FD
00
01
01
00
FC
FF
00
FF
03
01
FF
01
FD
FE
FF
00
00
00
00
FE
00
02
00
03
FE
FE
04
FF
02
00
FF
FE
02
00
00
03
FF
00
00
FE
00
FF
01
01
FC
00
00
04
00
01
01
03
FD
04
00
04
FE
01
01
FF
02
04
00
04
01
02
03
FF
01
00
00
00
FF
FE
FF
00
02
00
FE
FE
01
00
FD
01
01
00
00
01
00
04
FD
00
FF
01
00
01
FF
02
FE
FF
01
FD
00
01
00
02
FF
00
00
02
00
01
00
01
01
00
00
00
FE
01
01
FC
03
00
02
00
FE
01
FF
FD
01
00
03
01
00
03
FF
00
01
00
02
01
01
02
01
FE
00
01
00
02
FD
FE
00
FF
FE
01
FD
FC
FE
00
00
FD
02
02
05
FC
FF
00
FF
FD
03
FD
04
00
01
02
00
FA
02
FA
01
02
01
02
00
FF
02
FD
01
00
FF
FB
01
FC
FF
01
FF
FD
00
00
00
FD
02
00
02
FE
00
FF
00
FF
04
FC
02
00
00
00
FF
FF
02
FB
00
01
02
FF
00
00
01
FC
03
FF
01
FF
00
00
02
00
03
01
02
02
01
00
03
FE
03
01
01
01
00
01
03
FE
FF
01
01
00
00
01
02
FE
FF
00
00
FC
FF
02
FF
00
01
00
00
01
00
00
01
00
FF
01
01
00
00
00
02
FF
00
01
00
FF
01
00
02
00
00
00
00
01
01
00
00
FF
04
FF
01
00
00
01
00
01
02
00
00
01
00
01
02
01
FF
01
00
01
FE
FE
01
FE
00
02
00
FD
00
FE
01
FB
02
01
FF
FD
00
FB
01
00
01
FD
00
FE
00
FC
00
00
FF
01
00
03
00
02
01
00
FF
FF
00
01
01
01
FF
FB
FE
FF
00
00
01
FE
FF
FB
FD
FD
00
FE
01
FC
FC
FF
FE
FB
01
FF
FE
FD
FE
FF
FE
FE
00
00
01
02
FF
FE
00
FB
00
01
03
03
01
FE
FF
FE
00
00
01
03
00
FF
FE
FF
00
03
FF
01
FE
00
FE
FD
00
02
FE
02
00
FE
01
FD
FF
FE
00
FE
00
FD
FF
FD
01
FE
00
00
00
01
FE
01
00
00
02
02
01
01
FE
02
01
04
02
03
02
01
03
02
00
07
04
03
03
00
00
00
00
FF
00
00
FF
00
00
FF
00
00
00
FF
FF
FF
00
FF
FF
00
00
FF
00
FF
01
FF
FF
00
00
FF
FF
00
00
01
01
FF
00
FF
00
FF
FF
FF
00
00
00
FF
00
00
00
FF
00
00
00
00
01
00
01
FF
00
00
00
FF
00
00
00
01
00
FF
00
00
FF
00
FF
00
FF
00
FF
01
FF
00
FF
FF
FF
FF
00
00
00
00
00
00
FF
FF
00
FF
00
00
00
FF
FF
FF
FF
FF
FF
01
01
00
FF
FF
00
FF
01
00
01
00
FF
00
FF
FF
FF
00
FF
FF
00
FF
00
00
FF
00
01
FF
FF
01
00
00
FF
00
00
01
00
00
01
FF
00
FF
00
FF
FF
FF
01
00
00
00
00
00
00
00
01
FF
00
FF
01
FF
FF
FF
00
FF
01
FF
FF
FF
00
00
00
00
00
FF
01
FF
00
FF
00
00
00
FF
00
00
00
00
00
00
00
FF
00
FF
00
FF
00
FF
00
01
00
00
01
00
00
FF
00
00
00
00
00
01
00
FF
FF
FF
FF
01
00
00
00
00
00
FF
FF
00
00
00
FF
FF
FF
FF
FF
FF
00
01
00
00
FF
00
00
00
01
FF
00
00
00
FF
00
FF
00
00
00
00
FF
00
FF
FF
00
00
FF
00
FF
FF
FF
00
00
00
01
00
FF
FF
FF
00
00
00
FF
00
00
00
00
00
00
00
FF
FF
FF
FF
FF
FF
00
00
00
FF
FF
FF
FF
FF
01
00
00
00
FF
FF
00
01
FF
00
00
FF
00
00
00
01
01
00
FF
FF
FF
FF
00
FF
00
00
00
FF
00
FF
00
00
00
00
FF
00
FF
00
FF
00
00
00
FF
FF
FF
FF
FF
00
01
00
01
01
FF
00
00
FF
FF
FF
00
FF
FF
00
00
FF
00
FF
00
00
00
FF
00
01
01
FF
00
FF
FF
00
FF
FF
00
00
FF
FF
00
FF
00
00
00
FF
FF
01
00
FF
00
00
01
FF
00
FF
FF
FF
01
FF
02
01
00
FF
02
FE
01
02
03
03
01
01
00
FE
FD
03
01
FF
00
03
FF
FD
FD
FF
FE
FC
00
01
01
00
02
FD
FF
F9
01
FE
03
FD
01
01
01
03
00
00
FD
FF
03
02
FF
03
01
00
00
FF
00
02
FE
00
FF
01
02
00
FD
01
FB
FD
00
00
FF
02
00
02
FF
FA
01
FF
FE
FF
01
00
FF
01
00
00
02
02
01
FF
00
03
00
00
01
00
02
FE
FE
00
00
FE
01
02
FD
FD
01
00
01
00
FC
02
00
00
00
FE
01
FE
FF
02
FE
01
01
01
00
00
04
FF
01
01
FE
01
01
00
02
FF
03
FE
00
00
00
FF
FF
00
02
02
03
01
00
00
01
FF
00
00
02
FF
01
01
FE
01
FE
00
FC
FD
00
00
02
01
03
FF
FC
FE
00
00
01
02
01
00
FF
00
FF
00
02
00
02
FF
00
00
00
FF
00
FE
00
00
FE
FF
FF
00
00
FF
03
00
00
01
00
01
FE
02
FC
03
00
00
00
00
00
04
FE
03
00
00
FF
02
03
01
FE
02
FF
02
FF
00
02
FE
FC
04
01
01
FD
00
01
FB
03
FD
FF
FE
FE
02
01
03
FE
FF
00
FD
01
01
00
01
FE
02
00
FF
03
01
02
00
01
01
00
00
03
04
00
FE
FD
03
00
02
03
03
00
FF
02
00
FF
FD
00
FC
00
00
FE
00
00
FB
02
FF
FF
FF
00
FF
00
FD
02
01
00
01
FF
03
00
00
04
FF
FF
FE
01
03
00
03
04
01
FD
00
FF
01
00
FE
01
01
FF
FF
00
00
00
00
00
FF
00
FF
02
01
00
01
FD
00
00
00
FE
02
FF
00
02
FD
00
00
FF
00
01
02
01
00
FE
FF
FD
01
00
00
FE
FF
FF
FD
00
00
00
00
00
00
FF
FF
00
FF
00
01
01
00
FF
FD
FF
FF
00
00
00
00
00
FF
01
01
01
FE
00
FF
01
FE
FF
00
FF
FD
00
00
FF
FD
FF
02
00
FF
FF
FD
FF
FE
01
00
FF
00
01
00
01
FE
04
02
01
01
00
FF
03
00
01
01
01
02
00
01
01
00
FD
FF
FF
FD
00
FF
00
FD
FF
FF
FF
FD
01
FF
00
00
01
FE
FF
00
00
FE
00
00
02
01
00
FF
00
FE
00
FE
01
01
FF
FF
00
00
00
FF
FD
01
02
01
00
01
FD
FE
00
00
00
FD
FF
FF
FE
00
FD
FF
01
01
01
02
FD
01
02
FF
01
FF
01
00
00
01
00
FE
01
FD
00
FE
00
FF
FE
01
FF
FF
01
00
FA
01
00
FF
FF
FD
00
FE
FE
00
FF
FF
00
01
FF
00
00
FF
03
FF
00
01
FF
FE
00
02
FF
FF
00
FF
00
FF
FE
00
FF
01
FE
FF
FF
00
FE
00
FF
00
FE
FD
FF
FE
00
00
03
01
01
FF
00
00
00
FD
00
00
01
00
01
FF
01
01
FE
FF
03
01
00
00
00
02
FF
FF
00
FE
FF
00
FE
00
00
01
00
01
00
00
FF
00
01
01
00
00
FF
00
01
00
01
05
00
00
FF
00
02
FF
01
01
00
01
FF
01
01
00
FF
00
FF
01
FF
FD
00
FE
00
FF
FF
02
FE
00
00
FF
FF
FF
00
FF
00
FF
FF
FF
FE
FF
00
FF
00
00
01
FF
FE
FF
01
FE
01
00
01
FE
FF
02
00
00
02
01
FF
03
01
01
01
01
FE
01
FE
01
01
FE
00
FC
01
FF
FF
00
00
FD
00
01
FF
FF
01
01
FE
01
00
03
01
01
00
02
00
01
FF
02
02
02
FF
01
00
02
FF
03
00
00
00
FF
01
FF
00
00
FE
FF
01
FF
01
FF
00
FE
00
02
FE
02
02
FD
00
01
04
01
FC
02
FE
01
00
02
00
02
01
00
FE
02
00
00
00
01
02
FF
FF
02
00
FE
FD
00
01
FF
02
01
FF
01
00
02
01
01
02
FC
FF
02
00
02
FE
00
00
00
03
FF
00
00
FF
FE
FF
02
02
00
01
00
FE
FF
FD
02
01
FE
00
FF
FF
FF
FB
00
02
FE
FF
01
FF
01
FF
00
02
FB
00
00
00
01
FE
02
01
00
00
03
FF
01
FF
02
02
FF
00
02
FE
00
FF
02
00
00
FF
00
FF
FF
FD
02
FE
FE
00
01
02
00
01
02
00
00
00
01
00
03
00
00
01
FF
FF
01
02
01
01
02
00
FF
00
00
00
FC
FE
01
00
03
01
00
FF
00
00
00
00
FF
00
01
03
01
01
FE
FE
FF
00
00
01
00
FF
01
FF
00
FF
00
01
01
00
01
FF
FE
00
00
FF
FE
00
FF
FF
00
FF
02
FD
00
03
00
00
FF
FF
00
FF
00
01
FF
00
FE
00
FF
FF
FE
FE
FE
FE
00
00
00
FF
02
01
FF
FE
FE
01
FF
FD
03
02
00
FE
FF
01
FF
FE
03
02
FF
FE
02
00
FF
00
00
01
FD
00
FF
FF
01
02
FE
FF
01
01
01
00
02
00
01
FE
01
00
01
01
02
02
01
00
01
01
02
FF
01
FF
00
FF
01
FF
02
FF
01
00
00
01
FF
00
03
00
01
FE
01
01
01
00
01
00
01
01
02
02
01
00
FF
FF
01
01
00
01
FD
00
01
02
00
00
00
FF
FE
00
02
00
04
01
FF
01
02
01
02
02
02
00
01
01
01
00
01
01
FE
02
01
00
02
00
01
FF
FE
00
00
00
00
00
00
FF
FF
02
01
01
03
00
00
FD
FF
03
FF
02
04
00
01
00
FE
01
FF
FE
01
00
FF
03
01
FF
01
FF
01
FF
01
03
00
FF
FD
02
FF
00
02
FF
FE
01
FF
01
00
00
FF
03
FE
FF
00
FD
00
00
02
04
FF
FE
FF
FE
00
00
02
02
01
00
00
00
00
01
02
01
01
FF
00
00
FE
00
01
00
FE
FE
FF
00
FD
00
FF
04
FE
FE
FF
FD
00
01
F9
FE
FE
00
FE
01
02
01
FE
00
FF
03
FE
FF
00
01
FD
FF
01
FF
FF
FA
01
02
00
FF
00
FD
00
FB
00
01
FF
00
01
FE
FF
FE
FD
02
FB
FF
01
FE
00
00
FE
00
FD
00
00
01
00
00
FF
FF
FE
00
FD
FF
00
FF
01
01
FF
00
FF
00
01
FE
01
00
01
FF
01
FF
01
00
00
00
FF
00
FE
FF
02
00
FE
00
FF
00
00
02
FF
00
FF
01
00
00
00
01
FC
00
01
00
FE
00
00
00
FF
FE
FF
FF
FF
00
04
01
03
00
FF
00
FF
00
FE
FF
02
FF
00
00
01
FF
FF
02
FF
FE
01
00
FF
01
01
FF
FD
FF
01
FF
FF
00
00
FF
00
01
01
FF
00
00
00
00
01
00
02
00
00
00
01
00
FF
00
FF
00
00
00
FE
FF
01
FE
00
00
FE
00
FF
FE
01
FE
FE
FF
FE
00
FF
FF
01
00
FE
00
FF
00
FE
00
FF
00
01
FF
00
00
FE
03
FD
FE
00
00
00
00
02
03
00
00
02
00
00
01
02
02
01
01
02
00
00
00
02
01
01
02
04
00
01
01
00
01
00
03
01
01
02
00
01
FF
00
01
FE
00
FF
FF
02
01
FF
00
FE
FF
FF
01
02
02
FE
00
FE
01
FF
03
01
02
FE
00
FF
FF
00
00
02
00
02
05
01
01
02
03
02
FE
01
00
02
00
FE
01
FE
00
FF
FF
00
01
FF
04
FF
00
01
00
FE
01
00
03
FF
00
00
01
00
01
01
01
FF
01
FF
01
FF
00
03
01
FF
FE
FF
00
01
FF
00
01
00
FF
01
00
02
00
00
03
00
01
00
00
FE
FF
01
03
FF
01
01
00
00
00
FF
FF
FF
00
FF
FF
00
00
01
FF
FD
00
00
FE
03
00
00
03
02
01
01
00
03
00
02
02
01
01
FE
FD
01
00
03
01
FF
00
FF
FE
FF
FF
02
01
FF
FF
FF
00
01
FF
00
FF
FE
01
FF
02
FE
00
01
00
FC
FF
FD
01
00
00
01
00
FE
03
FD
02
02
FF
01
00
01
01
FE
FF
03
FE
01
00
01
00
FE
FF
04
01
FE
00
02
01
FF
02
FF
01
01
00
00
FD
FF
01
01
FF
FF
00
FE
01
FE
FD
00
FF
FE
01
FF
FF
00
FE
00
FD
FA
00
FF
00
01
FE
02
FD
FC
00
01
FD
01
01
03
02
02
01
02
00
01
FF
00
01
01
01
00
FF
00
FF
FF
FF
FF
FF
FF
00
00
00
FE
FE
FD
00
00
FF
01
FD
FF
00
FE
00
01
FC
01
02
01
00
FF
00
02
01
00
FE
00
01
02
00
02
00
01
01
01
00
00
00
00
01
00
FF
FF
00
FF
00
00
FF
00
FF
FF
FF
FD
01
01
FE
01
01
02
02
FF
00
02
02
01
FC
02
02
02
00
02
00
00
00
01
00
FD
00
01
00
01
FE
FF
FF
FE
00
FF
FF
01
FF
01
FF
FD
00
FF
FE
00
FF
FC
00
02
FF
00
FA
00
FE
FC
00
02
FF
01
FE
01
FF
FD
00
01
01
02
01
FF
00
00
01
02
01
01
01
FE
FF
04
00
02
01
00
03
FC
FF
FD
01
FF
01
00
FE
03
FE
FE
00
01
01
FF
01
00
FE
03
FF
01
02
01
02
FD
FE
03
01
02
02
02
03
FE
FF
03
00
01
02
02
02
FC
02
00
00
00
00
00
02
00
00
FF
01
01
00
01
01
01
00
FF
00
00
03
02
00
FF
FF
01
00
01
01
01
00
FE
01
03
FF
02
01
00
FF
FE
03
FF
01
00
00
00
00
FE
00
FE
00
FE
00
01
01
00
FF
01
FF
FF
01
01
01
02
FF
00
00
00
01
FF
00
01
01
02
01
00
01
FE
00
00
01
01
00
FF
FF
FF
01
FF
FF
00
FF
FE
00
00
02
01
00
01
FF
00
01
01
FF
01
FF
01
00
FE
00
01
00
01
01
FF
00
00
02
01
FF
FD
00
00
00
00
00
00
00
FF
00
00
FF
00
01
00
00
00
FF
00
00
00
00
00
00
00
00
00
00
00
01
00
00
00
FF
00
00
00
01
FF
00
FF
00
FF
00
FF
01
00
00
00
FF
00
FF
00
FF
FF
FF
00
00
00
00
00
00
00
00
00
00
00
FF
FF
01
FF
00
FF
FF
00
00
00
00
00
FF
00
FF
00
00
00
FF
01
00
FF
00
01
01
00
FF
00
FF
00
00
00
00
00
01
FF
00
00
FF
00
00
FF
01
01
FF
00
FF
00
00
00
00
FF
00
00
FF
00
00
FF
00
00
FF
00
FF
FF
FF
FF
01
FF
FF
00
01
FF
00
FF
00
00
00
00
FF
00
00
00
01
00
00
00
FF
FF
FF
00
00
00
00
FF
00
FF
00
00
00
00
00
FF
FF
00
00
00
01
FF
00
00
00
00
FF
01
00
00
00
00
00
FF
00
00
00
FF
00
00
FF
00
00
00
00
FF
FF
00
00
00
00
00
00
00
00
00
00
FF
00
FF
01
00
00
FF
01
FF
01
00
FF
00
01
00
00
00
00
01
00
00
00
FF
00
FF
FF
00
00
00
00
01
00
FF
FF
00
00
00
00
00
FF
00
01
00
00
00
00
01
00
00
00
00
01
FF
00
00
00
00
00
00
00
01
00
FF
00
00
FF
00
FF
FF
00
01
FF
00
01
00
01
FF
FF
00
01
00
00
00
00
00
00
FF
FF
00
00
00
00
FF
00
00
FF
01
01
00
00
00
01
00
FF
00
00
00
FF
01
00
FF
FF
00
00
FF
FF
01
01
01
FF
FF
00
FF
01
00
00
01
FF
FF
00
00
00
00
00
00
00
FF
00
00
00
00
00
00
FF
FF
FF
00
00
00
00
00
00
FF
00
00
00
00
FF
00
00
00
00
00
FF
01
01
FF
00
00
00
00
00
00
01
FF
00
FF
00
01
00
00
00
00
00
FF
00
FF
FF
00
00
FF
00
00
01
FD
FF
FF
02
00
FE
00
02
01
00
02
02
01
FA
00
00
FF
00
00
FD
00
F8
00
FE
02
01
01
FA
01
00
F9
FF
FF
FF
FF
FE
00
FE
02
02
FF
00
02
02
FF
00
01
02
00
01
FF
02
00
00
01
00
02
00
FE
01
00
00
03
01
01
01
FE
00
00
FF
01
FF
FE
00
FE
FF
FE
00
02
FE
FC
FF
FD
03
01
FF
02
FE
FD
00
FE
FE
FF
FF
00
01
01
00
01
FF
01
01
00
02
00
FF
FE
FF
00
FE
01
00
00
00
00
00
FF
03
FD
01
FE
01
FF
02
FE
FF
00
01
00
FF
00
FE
FC
01
00
00
FF
01
01
01
01
01
00
00
00
00
FF
00
01
FD
02
01
01
00
00
01
FF
02
00
01
01
00
01
02
00
00
01
02
02
00
01
02
FD
00
FF
FF
FA
00
00
02
00
FD
00
FF
FE
00
03
00
00
FC
03
02
FE
00
02
FF
02
01
01
00
00
00
00
02
FF
FF
03
00
01
00
FF
02
02
01
02
00
01
FF
00
01
00
01
03
00
FF
FF
00
00
00
02
02
00
00
FD
FF
FF
FE
02
04
00
01
01
00
02
00
00
01
00
02
01
02
01
02
00
FF
FF
00
03
02
00
00
01
FF
FF
01
01
01
FE
01
FF
FC
FF
FE
01
01
FC
00
FE
03
00
02
03
01
02
FC
FE
01
00
01
03
02
01
FD
01
01
FF
01
02
01
00
00
00
01
00
00
03
01
FF
00
FF
FE
FF
00
00
04
00
00
01
FC
01
00
02
01
01
FE
FB
FE
00
01
04
00
02
FF
FF
01
FF
02
02
00
01
00
01
01
01
FF
00
01
FE
FF
02
02
00
01
01
02
02
02
02
01
FF
FA
03
00
00
FF
FD
00
FF
FD
03
FE
01
01
FE
01
FF
01
00
00
01
01
01
02
00
01
00
02
01
00
05
04
FF
05
05
01
01
03
00
01
FF
00
00
00
00
00
00
00
00
FF
00
00
FF
FF
00
00
00
FF
FF
00
00
00
FF
FF
00
FF
00
FF
00
00
00
00
FF
00
00
00
00
00
FF
00
00
00
00
FF
FF
00
00
01
00
00
00
00
01
FF
FF
00
00
01
FF
FF
FF
00
00
00
00
FF
00
01
00
00
00
00
00
01
FF
00
FF
00
FF
FF
00
00
00
FF
01
01
00
FF
00
00
01
FF
00
FF
FF
00
FF
00
01
00
00
00
FF
00
00
00
00
FF
01
01
00
00
00
00
00
00
00
FF
00
00
01
00
00
00
01
00
01
00
00
00
00
00
00
FF
00
FF
00
00
00
00
00
00
01
00
FF
00
01
00
00
00
00
00
00
00
FF
00
FF
00
01
00
FF
FF
00
00
00
FF
00
00
00
FF
00
FF
FF
00
FF
FF
00
00
00
FF
01
00
FF
FF
FF
00
00
00
FF
00
00
FF
01
00
01
FF
FF
00
00
00
00
FF
01
00
FF
00
01
00
00
00
00
00
00
00
00
FF
00
FF
00
FF
FF
FF
00
01
01
00
00
00
FF
00
00
00
00
00
00
00
00
00
00
00
01
FF
FF
01
00
00
00
00
FF
00
00
00
00
FF
00
00
00
FF
00
FF
FF
00
00
00
00
00
FF
FF
00
00
00
00
00
FF
00
00
FF
FF
00
FF
00
00
00
00
01
00
00
00
00
00
00
00
00
01
FF
00
00
01
00
00
00
00
00
FF
00
01
FF
00
01
00
00
00
FF
00
00
00
00
FF
FF
00
FF
00
00
00
00
00
00
FF
01
FF
FF
00
00
01
00
FF
FF
00
00
00
FF
00
FF
00
00
00
FF
FF
00
FF
00
FF
01
00
FF
00
00
FF
FF
00
01
00
FF
00
00
00
00
00
00
01
00
00
00
FF
00
00
00
FF
00
00
00
00
00
FF
00
FF
01
00
00
00
FF
00
01
00
00
00
00
00
00
03
01
02
00
02
00
02
FB
01
01
01
00
01
02
00
FC
00
00
01
00
01
02
00
04
00
02
01
FF
00
05
00
FF
00
FF
FD
00
00
FF
FE
FF
FF
FF
00
00
FE
00
FF
01
01
00
FF
00
FE
01
00
00
00
00
00
00
FF
02
01
02
FF
00
01
00
01
FF
01
01
01
FF
00
01
FE
FF
00
00
FF
00
00
01
01
00
FD
02
03
01
00
00
02
01
FD
FE
01
01
FE
FF
02
00
FF
00
FE
01
FF
01
04
02
00
01
FD
FE
00
01
01
01
FF
FF
00
FF
FE
00
00
FD
FC
FF
01
FF
FD
FF
01
FD
FE
FF
FF
FF
FF
00
01
FE
01
02
FD
FF
FD
00
01
01
02
00
FC
FF
FF
00
FE
01
01
FE
FE
FB
F9
01
FC
FB
00
FB
FE
FD
FB
00
FE
FC
02
00
FF
FE
FD
00
FF
00
02
FF
FF
FE
00
00
FD
00
02
00
FF
00
01
00
00
01
01
01
01
00
FE
00
01
02
03
02
01
FF
00
00
00
01
02
00
FE
FF
FE
FF
01
00
00
FF
01
00
FF
00
00
FF
03
FF
01
00
00
00
FF
FE
01
00
00
FF
FE
FD
FE
00
FD
00
00
01
FF
FF
FF
00
FF
01
FE
FF
01
00
FF
FF
00
01
00
01
00
FF
01
FE
02
FF
FF
00
FF
01
00
FF
01
FF
02
00
FE
FE
FD
FF
FE
00
00
00
FF
03
00
00
02
01
FF
00
FF
03
00
01
03
00
00
00
FF
01
00
02
FF
FF
04
00
02
03
FE
01
01
FE
03
00
03
00
FF
FF
FD
FF
05
00
03
01
FD
01
FE
00
02
FF
03
FF
FE
02
FF
02
00
FF
00
00
00
01
FF
02
00
01
03
02
00
FC
01
FC
02
FF
04
03
02
00
FC
FE
01
00
03
03
01
01
FC
FF
FF
00
02
03
00
00
00
02
FF
FF
02
01
01
FF
FE
02
FC
00
FD
00
00
00
FF
02
00
FE
FC
00
FE
01
FB
FF
02
00
FD
00
01
00
FF
FC
01
FE
FE
00
03
FD
02
FB
00
FE
00
00
00
FD
01
00
FA
FF
FE
00
FF
FE
00
00
00
00
FF
00
02
03
FD
FF
FF
01
FE
01
02
01
00
00
FF
FF
FF
00
00
00
03
00
01
FF
01
00
FE
02
03
00
FF
FE
01
00
00
FF
03
00
00
FF
00
00
01
04
00
FF
01
01
FE
00
01
FF
FF
FE
01
02
02
FF
FE
FD
FF
02
01
FF
FF
FF
00
04
FE
01
FF
FF
FF
00
00
02
FF
01
FF
00
FD
FF
FF
FF
FE
00
02
00
FF
00
00
FC
FE
FF
02
FF
00
01
01
01
00
00
00
FE
FF
00
01
01
FF
00
FE
FF
00
00
01
01
FE
01
FF
00
FF
FF
FE
FF
FF
03
00
01
00
00
01
FF
FF
FC
01
00
02
00
02
FF
01
FF
FF
01
01
FF
03
00
01
01
FF
01
00
01
00
FF
00
FF
FF
00
00
FF
00
02
FD
FD
01
FF
02
01
01
03
00
01
02
00
03
02
01
00
01
02
01
00
01
02
00
FF
02
02
02
FF
03
00
FE
FE
01
01
03
00
FE
00
00
01
00
01
02
01
00
FF
FF
01
FF
FF
FE
00
01
01
00
01
FF
01
FF
01
02
FF
00
FF
00
01
FE
00
FF
01
01
FC
FE
00
02
00
02
FD
FE
01
FE
FF
00
00
01
FF
FE
FF
00
FF
FF
00
00
00
02
FF
00
00
FE
FF
00
FE
01
01
01
FE
FF
FF
FC
FE
00
01
FE
FF
00
00
00
00
02
FF
00
00
01
00
FF
04
00
01
FE
01
FF
00
01
02
00
01
FF
00
FF
01
FF
FF
FF
02
00
01
00
01
00
01
FF
02
FF
00
00
00
FE
FF
00
01
FF
01
01
00
FE
00
FF
01
FF
01
01
FF
FF
FE
FF
01
02
01
00
00
FE
01
00
00
02
01
02
00
00
00
02
00
01
00
FC
FF
FC
00
FF
FE
FF
01
FF
02
FF
00
00
FB
FE
FE
00
03
00
01
02
01
01
FE
00
03
00
00
00
FE
00
FF
05
03
FE
01
02
01
02
01
FB
FE
FE
00
FE
FE
00
02
FE
00
02
FF
02
FB
00
FC
01
01
01
00
00
FE
FF
00
FF
FE
00
00
02
FE
00
FF
02
00
00
00
02
00
03
03
FD
00
01
FF
FF
FF
00
02
FF
FF
03
00
FE
FF
FE
FF
02
00
03
00
00
00
01
01
00
FE
03
00
00
00
04
01
FE
FC
02
FF
FE
FF
01
FF
01
01
01
FF
02
FF
04
01
00
00
00
00
FD
00
FF
01
02
00
FF
FF
FD
02
FE
04
00
FF
03
01
00
01
FF
03
01
01
02
00
FD
02
FC
FE
01
01
00
00
00
FE
01
00
FF
FF
00
01
FF
01
02
06
00
00
FF
00
FD
03
FC
03
FF
01
00
FF
FD
03
F8
03
01
00
FF
00
FC
03
F7
01
01
FF
FD
FF
FE
FD
FE
02
02
00
FE
00
FF
FF
01
FF
01
FF
FF
00
00
01
01
FF
00
01
00
01
01
00
03
01
FF
01
01
02
02
02
01
00
FE
00
FF
00
FD
FD
00
02
FF
00
00
FF
FF
00
01
02
FF
FF
00
FF
FE
00
02
FF
01
00
00
FD
00
01
01
03
04
FF
00
FE
FE
01
02
01
FE
00
00
03
01
FE
00
01
FE
00
00
01
FE
FE
FF
01
FE
00
FE
FE
FE
FF
00
01
FD
00
FF
00
FE
00
FF
00
FE
FF
FF
01
FE
FE
FF
02
00
00
00
00
00
FF
01
FF
FD
00
01
FD
FE
FF
00
01
FD
00
FE
FA
FD
00
FF
02
FF
00
FD
FC
FE
01
00
FF
FD
00
FE
FC
FB
FE
FF
00
00
01
03
FF
01
01
01
00
FD
FF
FF
00
01
00
00
FD
FE
00
FE
FF
FE
00
00
FD
00
FF
FE
FE
FC
FF
FD
FD
FF
00
FC
FE
FD
FF
FE
02
FB
00
01
00
01
FD
FF
03
FE
01
01
00
00
03
FE
01
02
01
01
FF
00
01
FE
F9
01
00
01
FF
02
FF
FE
FF
03
03
FE
00
02
01
FF
01
FE
01
02
00
01
FE
02
00
00
FF
02
00
02
FD
FF
FF
02
00
01
00
FF
FD
FD
FE
01
FE
01
FF
00
FF
FF
FF
04
FF
FC
00
00
FE
FF
00
02
FF
FF
01
02
FC
01
FE
01
00
03
00
02
FB
03
00
00
FD
02
FF
00
00
01
FE
01
FE
00
00
FF
FD
01
FF
00
FF
00
FF
02
FE
00
00
01
00
FD
FF
FF
02
00
FF
00
FF
FF
00
01
03
02
FF
00
FF
00
FF
02
00
01
FE
01
00
00
00
01
FE
02
FF
FF
FC
FE
01
FF
00
01
01
00
02
01
00
00
05
02
FE
00
02
FF
00
00
02
00
FE
FE
FF
FD
00
FD
01
FF
00
FF
FF
FF
FF
00
01
FF
02
00
01
FE
00
FE
00
FF
00
01
00
FE
01
FF
FD
00
02
02
00
FE
00
FE
FF
01
00
02
00
00
FF
00
03
01
FF
02
00
01
FF
01
01
FE
02
01
00
03
00
00
01
FF
01
02
00
01
01
01
FD
03
01
01
FF
01
01
02
FE
01
FD
02
00
FF
02
01
FF
FF
FF
01
01
00
00
01
00
00
04
01
00
00
FF
00
01
FF
00
01
00
03
05
03
00
00
00
FF
00
01
03
02
01
01
00
FF
00
00
01
00
00
00
FE
00
00
00
01
01
FF
00
02
02
FF
01
FF
FF
00
00
FF
FF
01
01
02
01
02
FE
FE
FF
01
01
02
00
01
FE
00
FF
00
00
00
01
FF
01
00
FF
00
FD
00
01
FE
FF
01
03
01
02
00
FE
00
01
00
00
00
00
00
00
01
00
FF
00
00
00
FF
FF
01
00
FE
00
FF
01
00
01
01
FF
FF
01
FF
00
FD
00
00
FE
00
FF
00
02
00
FF
00
FF
01
FC
FE
00
00
FF
FF
04
01
FC
FF
01
00
FF
FE
02
02
FD
FF
00
01
FC
00
FF
03
FD
FF
00
01
FE
FF
00
00
01
FF
04
00
00
FF
00
01
FD
00
01
FF
FF
00
01
01
00
02
01
00
00
01
01
00
FE
02
03
FF
FE
00
02
00
FE
01
00
01
02
00
FF
01
01
01
01
00
00
01
FE
00
03
01
01
00
01
FF
00
01
03
01
01
01
02
FF
01
00
FF
01
FF
00
02
FF
01
01
00
02
02
00
FE
02
FE
01
01
01
00
00
00
01
FD
00
02
00
02
00
02
FF
01
FF
00
00
00
00
00
01
03
02
00
00
00
00
00
FF
01
02
00
FF
01
01
00
02
FD
01
00
00
FF
00
FF
00
FF
FF
FE
FD
FF
00
01
01
04
01
FE
FD
FF
00
FE
02
01
03
00
00
02
FF
01
01
01
01
02
FE
01
01
00
01
00
FF
FD
03
01
FF
01
FD
FF
01
FE
01
FE
00
00
FD
FF
01
FB
01
FD
02
00
FC
FE
FD
F9
00
FF
01
FF
FC
02
00
FF
00
FE
00
FF
FC
01
02
FE
FF
FE
01
00
01
00
FE
FD
00
FF
01
FF
FC
FF
FF
FC
00
FF
01
FF
FC
02
00
FD
01
00
FE
01
FC
04
FE
FF
00
FF
FF
FF
FE
FE
01
01
00
00
FE
FF
02
00
00
FE
01
FF
00
01
01
04
02
FF
00
FF
FF
02
01
00
02
03
01
FF
FE
00
01
01
FE
FD
00
FC
FE
00
01
00
00
FD
01
FF
FE
00
03
01
00
01
00
01
FF
FE
02
02
00
02
00
01
FE
00
01
01
02
03
01
FE
FF
FE
01
00
00
01
00
00
FE
FE
01
00
FF
00
00
FD
FE
01
02
01
00
FF
00
01
02
01
FF
FF
00
00
FF
01
03
00
FF
00
00
00
01
01
04
FF
FE
FF
00
FF
00
FF
02
00
FF
00
00
FF
00
01
02
FF
FE
01
FE
00
00
00
00
FE
00
00
00
01
FF
FD
01
00
FD
FF
01
00
00
FE
00
02
FD
01
01
00
02
00
00
00
FF
01
01
FF
00
01
00
FF
00
00
FF
02
00
FE
00
01
00
01
FF
FF
FE
FF
00
FE
FF
00
03
00
FE
00
00
00
01
00
00
04
00
01
00
01
02
00
00
02
FE
00
FF
01
03
FF
FF
00
FD
FD
00
FF
00
00
FF
FD
FF
FE
00
00
01
01
01
01
02
00
00
00
FF
FE
FF
02
00
00
00
FF
01
FE
00
01
00
FF
00
02
01
FF
00
FF
FE
FD
01
FE
FF
FF
FF
00
01
FF
01
00
FD
01
FE
02
02
00
00
02
01
00
FF
FF
01
01
00
02
00
01
00
FE
FF
FD
00
00
FF
FF
00
FF
FF
FF
00
FD
FF
FE
02
01
FF
02
00
00
00
FF
FF
00
FF
02
FF
01
FF
00
01
00
00
01
00
FF
00
01
01
FF
FF
FF
00
FE
00
00
FE
01
00
02
01
01
02
02
FE
03
00
01
00
01
01
FF
01
01
FF
02
01
00
01
00
00
01
01
01
01
01
00
FF
FF
FE
00
00
00
00
FF
FF
00
01
00
00
01
01
01
01
01
00
00
03
00
FF
01
FE
01
00
01
01
00
00
02
FE
01
02
00
FF
00
FE
01
00
FF
00
FF
FF
01
00
01
00
FF
01
00
01
FE
FF
01
FD
FF
00
FF
01
FF
01
FF
FE
01
FE
FF
02
00
01
00
FF
00
FD
FF
04
01
02
FF
01
00
01
00
01
FF
00
01
00
FF
01
00
FF
00
00
FE
FC
01
01
FF
00
00
01
00
FF
02
01
00
02
FE
01
02
FF
00
01
FF
FF
03
02
02
01
FF
00
00
FF
02
01
02
FF
FF
FE
00
FF
01
01
FE
00
00
FE
00
00
FF
FF
FF
00
01
02
01
FF
FD
FE
01
01
00
FF
00
FF
FD
FF
00
01
00
00
00
FD
FF
FF
FF
01
00
00
FF
00
00
00
FF
00
00
00
00
00
00
FF
01
00
FF
00
00
00
01
00
00
00
00
FF
00
00
00
00
FF
00
01
00
FF
00
00
FF
00
01
00
00
00
00
00
FF
FF
00
FF
FF
00
00
00
FF
00
FF
00
00
00
00
01
FF
FF
00
01
FF
FF
00
00
00
FF
00
00
00
00
00
00
00
00
FF
00
00
FF
00
FF
00
00
00
00
00
01
00
01
00
00
00
00
FF
FF
FF
00
00
FF
FF
FF
00
00
FF
FF
01
01
00
FF
00
FF
FF
FF
00
FF
00
00
00
FF
01
00
00
00
00
FF
FF
00
FF
00
FF
00
00
00
00
00
FF
FF
01
00
01
00
00
FF
FF
00
00
FF
FF
00
FF
00
FF
00
FF
00
00
00
00
00
00
00
00
01
FF
FF
00
00
00
00
FF
01
FF
00
00
00
FF
00
FF
00
01
00
FF
00
00
00
00
00
00
00
00
FF
00
00
00
FF
FF
00
00
FF
FF
FF
FF
00
FF
00
01
FF
FF
00
00
00
00
00
FF
01
00
00
FF
00
FF
01
00
FF
FF
FF
00
00
00
00
FF
00
00
00
FF
01
FF
FF
01
00
FF
00
00
FF
00
00
00
FF
00
FF
FF
00
FF
FF
FF
00
00
00
00
00
00
00
00
01
00
00
00
00
FF
00
00
01
00
00
FF
00
00
00
00
01
00
FF
FF
00
01
00
FF
FF
00
00
FF
00
00
00
00
FF
FF
00
FF
00
00
FF
00
01
00
00
00
00
00
FF
00
00
01
FF
01
00
00
00
00
00
00
00
00
00
01
FF
00
01
00
00
00
FF
FF
01
FF
00
00
00
FF
00
00
FF
00
00
FF
00
01
00
FF
00
01
FF
FF
01
00
00
00
00
00
FF
00
FF
FF
00
00
00
00
FF
00
00
FF
00
00
FF
FF
00
00
00
00
00
00
FF
01
00
00
01
FF
FF
FF
00
00
00
00
FF
00
00
00
01
FE
01
03
FF
00
FF
02
04
01
FF
00
01
02
00
FF
01
01
01
FE
01
02
FF
FE
FC
00
FF
01
01
02
FF
00
02
01
FF
02
FF
00
01
FD
00
01
03
04
00
02
03
FF
01
02
01
01
01
01
01
FF
FF
00
FF
FE
01
02
FF
00
FF
00
FE
00
FF
01
FE
02
00
00
01
01
FF
FE
FC
00
FF
05
01
02
00
02
01
02
FC
03
FF
FF
00
00
00
00
01
FD
FD
01
00
00
FF
03
01
00
00
01
00
FB
FC
00
FF
01
00
04
00
FF
FC
00
FE
02
02
FF
00
FF
01
00
00
FF
FE
FF
01
FE
02
01
02
FC
FC
01
01
FE
FD
02
00
FF
FF
02
00
FF
FE
FF
01
FF
00
01
FF
FF
00
00
FE
01
FF
FF
00
02
04
01
02
00
FE
00
00
FF
01
FF
02
FF
FD
00
00
02
00
00
02
00
00
01
00
02
02
FF
00
01
03
00
00
01
FE
02
00
FD
01
FF
02
01
01
01
FD
00
00
FE
01
00
02
01
FE
02
00
FF
01
FF
00
01
FE
00
01
00
01
00
01
FF
FE
03
FF
01
FE
FD
02
FE
FF
00
01
02
01
02
01
03
FE
01
FF
00
00
00
01
02
FE
03
00
01
FF
01
00
00
FF
02
00
01
FF
00
00
FF
FC
FF
00
00
00
01
FE
02
00
00
00
FF
01
02
02
04
FF
01
00
FF
00
01
02
00
02
03
00
02
FF
01
01
FF
00
02
00
00
01
00
FD
FF
01
FE
00
FF
00
00
FE
01
FE
FF
00
01
00
01
02
00
FE
00
00
02
00
01
01
FF
00
01
00
01
01
00
FF
FD
02
01
00
FF
02
FD
FE
FF
01
00
00
FF
00
FE
01
01
FF
FF
01
FE
FF
FF
00
FF
FE
FD
01
FD
00
01
FF
00
00
FE
FF
00
02
00
FF
FD
01
00
01
00
FE
00
00
01
01
00
FF
FF
03
01
FF
03
00
FD
FF
03
00
FF
02
01
02
FF
01
04
00
FE
01
00
05
FE
FF
03
00
01
02
01
04
FF
FE
00
00
FE
00
FE
03
00
FF
04
00
FF
01
FE
01
00
00
03
00
00
00
01
00
00
FE
01
FF
FF
00
FF
00
01
FE
00
FF
01
FF
00
03
01
00
FE
FF
FE
00
FF
00
03
00
FD
00
FF
02
FD
00
01
00
00
FF
00
FF
FF
01
00
00
01
00
01
00
03
FF
01
00
FF
00
FF
00
00
FE
03
FF
00
00
00
FF
FE
FF
00
00
FF
00
04
00
02
03
FE
00
FF
00
FF
01
02
02
FF
02
01
00
01
02
02
00
01
02
02
00
02
02
FF
FE
FF
FF
FF
FF
01
FF
01
FF
00
00
FD
00
00
FF
02
03
00
01
01
FF
02
00
FF
02
02
03
03
00
02
02
00
FF
01
01
01
00
00
02
FF
01
FF
FE
FE
00
FF
FF
00
01
01
00
FD
00
FC
FF
00
02
FE
01
00
01
FF
FC
00
00
FE
01
01
00
FF
FD
00
FF
FE
FF
01
01
00
FF
01
FD
00
00
02
00
00
FD
FF
FF
02
01
03
FF
00
FE
00
01
01
00
00
01
00
FE
FF
FE
FE
01
01
00
01
FF
01
00
00
00
01
FF
02
00
00
FE
00
01
FE
02
00
00
FE
FE
00
00
FF
02
03
02
FD
01
00
FF
02
01
02
00
01
FF
FF
01
01
FE
00
FE
01
FE
FE
00
01
00
00
FF
00
FF
FE
00
01
00
01
00
FF
02
03
00
01
FF
00
03
01
01
FF
FF
01
FF
00
FF
00
00
FE
00
FE
FF
00
FF
00
FF
00
00
FD
FF
FF
01
01
FE
01
01
FF
01
00
01
00
02
01
00
FF
00
00
01
00
03
00
01
FF
FE
FD
01
FF
01
FF
FF
FF
FE
FF
01
01
00
FF
01
FF
FB
FE
01
01
FE
01
FF
FF
FA
FF
00
FE
00
FE
00
03
FE
FF
FE
FE
02
FD
FD
FD
01
FD
FE
00
02
FD
FE
00
00
FF
01
FF
00
FF
FF
FF
00
FE
02
FE
FD
FF
FE
00
00
01
00
01
FE
02
01
00
01
FF
00
00
02
FD
FE
FF
FF
FD
FF
FF
01
FF
01
01
00
02
01
FF
FE
00
01
00
01
01
FF
FE
FE
01
00
01
01
01
00
01
00
00
02
03
01
01
FF
01
01
FF
01
02
00
01
01
FF
00
00
00
01
01
03
FF
FE
FF
00
FE
00
00
FF
FF
00
FC
00
00
00
00
01
FF
02
FF
01
00
02
FF
00
00
00
03
02
FF
01
00
01
01
01
00
01
FF
00
00
03
FF
01
FE
00
FE
01
00
FF
FF
00
FF
01
FE
00
FF
00
01
00
00
01
FE
00
01
00
01
00
00
01
03
03
00
01
02
01
FE
02
00
01
00
FF
00
FF
FC
01
FF
FF
00
00
01
FF
01
01
01
FE
00
01
02
FF
00
FF
02
01
00
00
00
00
FF
FF
00
00
FD
FF
FD
FD
FF
FC
00
FE
00
FF
FE
FD
00
FD
00
00
00
00
00
FD
FF
FD
FF
FF
00
00
00
00
00
00
00
00
01
FF
00
02
FE
FE
01
FF
00
01
FD
FE
01
00
00
FD
03
01
00
FF
FF
00
00
00
02
01
00
03
FF
FF
00
FF
00
02
FE
01
03
FF
FF
FF
FE
00
FF
03
00
FE
00
00
03
01
00
03
01
01
00
03
01
01
01
03
00
02
00
04
FD
02
FF
01
01
03
00
01
FE
01
00
FF
01
00
FF
01
FC
00
00
00
FE
FF
01
01
01
01
02
02
01
FE
00
FF
01
02
01
01
FF
01
00
01
02
02
00
FF
01
00
00
02
FF
00
01
FF
01
01
00
00
FF
00
01
00
01
FF
01
01
03
01
01
02
00
FF
00
00
01
02
01
00
FF
01
FF
01
FF
01
00
FE
01
00
FF
FE
01
FF
FF
FF
00
FF
00
FE
02
01
01
01
02
02
00
00
00
01
FF
FF
01
04
02
06
00
00
FB
01
FB
02
02
03
00
02
00
FF
01
01
01
FF
00
01
02
01
02
01
01
FD
01
00
00
FF
00
02
01
FF
00
FF
FF
FD
00
02
00
03
00
FC
01
00
00
01
FF
04
00
00
03
00
01
02
01
FF
00
02
FF
FE
FF
00
03
FE
01
FE
FD
FF
FF
00
FE
FE
FF
FF
03
FC
00
00
00
01
00
00
01
FF
02
FE
FF
01
FF
FF
01
01
00
FC
FF
FF
01
FF
FD
02
FF
00
00
01
00
FB
FB
00
FD
02
FE
FD
00
FF
00
00
FE
01
FE
FC
00
FC
FD
FC
01
FE
FE
01
01
00
FC
02
01
00
00
03
00
FF
FD
01
00
02
02
00
00
FF
FE
FF
FD
01
FF
FD
00
02
FB
02
FD
00
FF
FC
00
FF
FD
03
FE
FF
FE
FF
00
FF
FD
01
02
00
00
01
FF
FF
01
01
01
00
FE
FF
FF
01
01
01
02
02
FF
FF
FE
00
01
03
01
02
FF
FE
00
01
01
04
00
04
00
FD
00
00
03
01
FF
01
01
FF
FE
00
03
FF
FE
FF
01
FF
FC
00
01
00
00
FF
00
00
FB
FF
01
01
00
00
00
FE
FF
00
02
00
00
01
FF
FF
01
00
01
00
00
02
01
FE
FE
00
00
FF
FE
03
01
FF
00
FE
00
02
00
05
00
02
05
01
02
FF
01
04
00
00
01
00
FF
FF
00
00
00
FF
00
FF
00
00
00
01
FF
01
04
FF
FF
FF
FF
00
FF
03
04
00
FB
FF
FF
01
00
02
07
04
FF
FE
FE
03
01
05
03
02
FF
FE
02
FF
00
03
00
02
FE
FF
01
FE
00
01
01
01
FE
00
02
02
01
01
02
01
FC
00
FF
00
00
02
01
03
01
FD
00
FE
00
05
05
05
FF
00
FE
FD
01
04
05
03
00
FD
00
FD
00
02
01
02
00
00
02
FF
01
02
03
FF
02
FF
01
FF
FF
FE
00
FD
FE
FF
01
01
00
FA
01
00
FD
FF
00
02
02
00
00
05
FD
01
FD
02
02
00
00
02
00
00
FF
FD
01
00
FF
02
02
00
01
FE
FE
01
00
00
FF
FE
02
FF
FD
FE
00
00
01
FD
01
00
00
FF
00
01
00
01
01
03
00
02
FF
FD
00
02
01
02
FF
02
01
FE
00
03
01
FE
FF
02
00
01
01
00
00
FD
FE
00
00
FE
02
FE
01
FF
FF
01
01
01
01
FF
00
01
FF
01
00
01
FF
00
03
01
00
00
01
FF
03
FD
00
00
FF
00
FF
FE
FE
01
01
FF
FF
02
00
FF
01
FF
00
FE
01
00
00
02
03
FF
01
00
01
01
00
00
01
FF
01
FF
00
FF
00
02
02
FE
02
FF
02
00
00
FF
FE
FC
01
01
02
FF
FF
01
01
01
00
FF
01
01
00
00
FE
00
02
FF
02
01
00
00
00
02
01
FE
00
02
00
FC
FF
00
00
00
00
FE
FE
01
00
00
00
00
01
FF
FF
02
03
FE
00
FF
00
00
01
02
03
01
FF
02
FF
03
03
01
01
02
02
00
FF
02
02
02
00
01
02
FF
00
00
FF
FD
01
01
02
00
00
00
FC
FE
02
FC
01
01
00
00
FC
FC
01
FD
02
FF
FF
02
FE
FE
01
02
02
FF
00
01
FE
02
FE
FF
FF
01
00
01
FF
00
FE
00
FE
FE
00
02
00
FF
FE
00
FF
FD
00
FE
01
FD
00
FE
FE
FD
00
FF
00
FF
00
FF
FE
FD
00
FF
00
FE
02
FF
FF
00
00
FE
FF
FF
FE
FE
FF
FF
00
FE
00
00
00
00
02
FF
01
FE
FE
FF
00
00
FF
FF
01
FE
FD
FF
00
00
FF
00
00
FF
FD
FD
01
00
00
FF
FF
00
00
FE
00
FE
00
FE
00
01
FE
FE
00
00
00
02
FF
00
FE
FF
FF
02
02
FF
01
FF
03
00
FE
02
00
FF
00
FE
FF
FF
FC
02
FE
01
02
FD
00
FE
FE
FD
FF
02
FF
FD
00
FE
03
FE
FC
01
FD
FE
01
00
02
01
FF
01
00
FE
FF
01
03
00
00
02
00
FE
00
FF
FF
00
FF
FF
03
FF
00
01
03
FF
01
FE
02
FD
FF
01
FF
00
FF
FD
01
FF
00
00
FF
00
FD
FE
FD
FE
01
FE
01
01
01
FF
00
FE
00
02
00
02
00
02
02
03
00
05
00
01
01
02
02
FF
FF
02
FC
FE
FE
01
00
01
00
02
FF
FF
FC
FC
00
FE
00
05
03
02
00
FD
FF
FD
01
FF
01
00
01
01
FE
FE
01
FF
F9
01
01
00
00
00
00
FF
FC
00
00
FF
FF
00
01
00
00
01
00
FF
FF
00
01
FF
FF
03
00
FD
FE
FE
00
FD
FF
02
00
FE
FE
FD
00
FE
FB
00
FE
00
00
FE
FF
00
FC
01
FF
01
00
FE
00
FE
FE
FF
FF
00
00
00
00
FE
00
FF
01
01
02
02
00
01
03
00
FE
FF
FF
01
00
00
02
00
01
FF
00
01
FE
01
02
FD
01
FE
FF
00
00
00
01
FE
00
01
FF
00
00
01
00
00
01
03
00
01
00
01
FF
01
FE
00
00
FF
00
FD
01
FF
00
00
FF
FE
FE
FE
00
00
FF
FE
00
01
01
FE
00
FF
FE
FF
00
02
FD
02
00
FE
FE
05
00
01
FE
00
00
FE
01
01
FF
FF
FD
FE
01
03
01
02
00
00
FE
FE
01
03
01
00
00
00
01
00
01
02
00
FF
00
FE
FE
02
03
00
01
03
00
02
04
01
01
01
00
01
00
01
00
FF
FF
FF
FE
02
00
00
01
FD
FF
FF
00
00
01
01
FE
FE
01
FF
01
FE
00
00
00
FF
FE
01
00
FC
FF
00
02
00
FB
01
FF
02
00
01
02
00
00
FF
FE
01
00
02
02
FF
00
FF
FE
FE
01
02
00
00
00
FF
00
FC
00
02
00
01
00
FE
00
FA
01
FF
FC
01
00
FE
00
00
00
FF
00
00
FF
00
00
00
00
00
01
00
00
00
00
FF
00
00
01
00
FF
01
00
00
FF
00
00
FF
00
FF
00
01
00
FF
00
00
00
00
00
FF
00
00
00
00
01
FF
00
FF
00
FF
FF
00
00
00
00
FF
FF
00
00
FF
00
FF
FF
FF
00
00
01
FF
01
00
FF
00
00
00
00
00
00
00
00
00
00
FF
00
FF
00
FF
00
FF
FF
FF
00
00
00
00
00
FF
00
FF
FF
00
FF
00
00
FF
00
00
00
FF
00
FF
FF
FF
00
FF
00
FF
00
00
00
00
01
01
00
FF
00
00
00
FF
00
00
00
FF
FF
00
FF
00
00
00
00
00
00
FF
FF
00
00
01
01
FF
00
FF
00
FF
00
00
01
FF
00
FF
00
00
FF
00
01
00
FF
00
00
00
00
00
01
00
00
00
00
00
00
FF
FF
FF
00
FF
00
00
FF
00
FF
00
00
00
00
FF
FF
00
FF
00
00
00
00
FF
FF
FF
00
00
00
00
FF
00
00
01
00
00
00
00
FF
00
FF
00
00
00
00
00
00
00
00
00
00
00
00
FF
00
FF
00
FF
00
00
00
01
FF
00
00
FF
00
00
00
00
00
FF
00
01
00
00
FF
00
00
00
00
00
FF
00
00
FF
00
00
00
01
FF
01
FF
00
FF
01
00
00
00
FF
00
FF
00
FF
01
FF
00
00
00
00
FF
00
00
00
01
FF
00
01
00
00
00
00
FF
FF
FF
FF
00
00
00
00
00
00
00
00
FF
00
01
01
FF
00
FF
00
00
00
00
00
FF
FF
00
00
FF
00
00
00
00
00
01
00
01
00
FF
FF
FF
00
FF
FF
00
00
00
00
00
FF
00
00
00
FF
FF
01
00
FF
00
FF
00
FF
00
FF
00
FF
00
01
00
00
01
00
00
FF
FF
01
00
01
01
FF
01
FF
FF
01
FF
00
00
00
00
00
00
00
00
00
00
FF
01
FF
01
00
01
FC
FA
FD
FF
FD
FF
02
02
FE
FB
FD
01
FB
00
FE
01
01
FC
00
01
FF
FF
FE
FC
01
FE
02
01
01
02
01
00
FE
00
02
FF
01
02
01
02
FC
00
FE
00
FB
01
FF
FF
FE
01
00
00
FC
FF
FF
00
FE
FF
00
01
FF
03
01
01
FD
FF
01
00
01
00
01
01
00
FF
01
00
00
FE
00
01
01
03
01
FF
03
01
00
FC
02
03
01
01
04
00
FF
00
00
02
00
00
FE
00
FF
01
00
01
00
00
FE
FF
FE
01
FF
FF
01
01
FF
00
FE
01
03
02
FF
01
02
00
01
01
02
FF
00
00
03
FE
01
FF
01
FE
00
00
00
FC
03
FE
FF
FF
00
00
01
00
FF
00
FE
FE
01
00
FF
02
01
01
02
00
FF
00
01
03
01
01
00
FF
FE
01
FE
00
FF
01
FE
FE
00
00
00
00
01
00
FF
FF
00
00
02
FF
01
FF
00
03
01
00
02
FF
02
FA
FC
01
FF
FD
FF
FD
FE
FD
FB
00
00
FF
FF
FD
FE
01
FB
00
00
01
FF
FE
FB
03
FF
01
FF
01
00
01
FF
FF
02
00
00
00
FE
02
FF
FD
FD
01
01
03
02
FB
FE
FF
FE
00
01
03
00
FF
00
00
00
00
01
01
00
01
FF
FF
02
01
01
FF
01
00
FF
00
FE
FF
00
FF
00
FD
00
01
00
FF
00
01
02
03
03
01
FE
00
01
00
03
02
03
00
FE
00
02
FD
04
FF
03
FE
FE
00
FF
FF
03
FE
00
FC
FC
00
FE
FF
02
00
FF
01
01
00
03
00
02
04
02
01
01
01
01
02
01
03
01
02
01
FF
FF
00
01
00
00
02
02
00
FF
01
FF
01
00
03
01
01
FC
01
01
01
02
FE
01
00
FF
01
00
02
01
01
00
FF
00
02
FF
01
FE
03
02
00
FE
00
FE
00
FE
02
02
FF
FB
00
FF
FE
01
02
01
00
02
04
FF
FE
03
01
02
01
FE
01
01
FD
00
FF
01
FE
FD
01
00
FD
00
00
02
01
FE
00
01
FF
00
00
02
01
FE
00
00
FF
01
FF
03
01
FD
FF
FF
00
FF
02
FF
01
00
00
01
FC
01
00
FF
02
01
FF
FF
FD
FF
00
FF
01
01
00
FF
00
01
FF
FF
FF
FF
00
01
01
01
FF
FE
FF
00
FF
02
FF
01
03
FF
00
FF
00
FF
FF
FF
00
00
02
01
00
00
02
FD
01
00
02
01
00
FE
01
00
04
00
01
00
00
FB
00
01
00
FF
FE
02
FF
FD
00
FF
00
03
01
02
00
02
00
FF
FF
02
00
02
01
01
00
01
02
01
00
FE
00
FD
FF
00
02
02
00
01
00
01
00
FC
00
FC
FF
02
00
01
01
FE
00
00
FE
FE
00
FF
01
00
04
FC
FB
FF
00
FC
00
01
04
FB
FE
02
00
FF
02
00
02
FC
FF
02
01
02
02
00
00
FE
01
03
00
01
FF
01
FF
02
FF
00
01
00
01
01
FF
01
00
FF
00
01
01
00
00
FE
00
00
00
02
00
00
00
FD
00
FF
02
01
FF
00
FF
FF
FF
FF
01
FF
01
FF
00
00
00
FF
00
00
FF
FF
01
01
00
FD
00
FE
00
00
FF
01
01
00
01
FF
00
01
FF
02
00
01
00
01
01
00
FD
04
01
01
00
00
02
00
02
FE
FF
FE
FE
00
02
FF
01
FF
01
FF
01
FE
01
FF
FF
00
00
02
FD
00
00
00
FF
FF
FF
00
01
00
FF
FF
FC
FF
FF
FE
01
01
FF
FF
00
01
00
FE
FC
FF
00
01
00
FF
01
00
FF
01
01
01
02
00
FF
FE
FD
02
00
00
01
02
FF
FE
02
00
01
FD
01
FD
00
FD
03
02
01
01
FF
FE
00
02
FE
FE
FE
FE
00
FF
00
FE
FD
FE
FE
FD
04
00
01
FB
FF
F8
FF
FB
02
00
00
FA
02
F8
FF
FF
FE
01
01
FF
05
FA
FF
03
00
00
FF
00
00
FF
00
FF
01
FF
00
00
FF
00
00
FF
00
FF
FF
FF
00
00
00
FF
FF
00
00
FF
00
00
01
00
01
00
FF
FF
01
00
00
00
FF
FF
00
00
00
FF
FF
00
FF
FF
01
FF
00
FF
00
FF
00
00
00
00
00
00
00
FF
FF
00
00
00
00
00
FF
00
00
FF
00
FF
00
00
00
FF
00
FF
FF
00
FF
00
00
FF
FF
01
00
00
00
01
FF
FF
00
00
00
FF
00
00
00
00
00
00
FF
00
01
00
01
FF
00
00
00
FF
FF
00
FF
00
00
00
00
00
00
00
FF
FF
FF
00
01
00
00
00
00
00
FF
00
01
FF
01
FF
00
00
00
00
FF
00
FF
00
00
00
FF
00
00
00
00
00
FF
00
00
00
FF
FF
FF
00
00
FF
FF
00
00
00
00
FF
FF
FF
FF
FF
FF
FF
00
00
FF
00
00
FF
00
FF
00
00
00
00
FF
FF
00
FF
00
00
FF
00
FF
00
FF
00
FF
00
00
00
00
FF
FF
00
00
FF
FF
FF
FF
00
00
FF
FF
FF
FF
01
00
01
01
FF
00
FF
00
00
00
00
FF
FF
00
FF
FF
00
00
FF
01
00
FF
FF
FF
00
FF
FF
FF
FF
FF
FF
FF
01
FF
FF
00
00
00
00
FF
00
FF
00
00
00
00
00
00
00
00
00
01
01
FF
00
00
FF
FF
FF
00
00
FF
FF
00
FF
00
00
00
00
00
FF
00
FF
00
00
01
00
00
FF
00
00
01
00
00
FF
00
00
00
00
FF
00
FF
01
00
00
00
00
FF
00
01
00
FF
FF
00
00
FF
FF
00
FF
FF
FF
FF
01
FF
FF
FF
00
00
01
FF
00
00
00
FF
00
FF
00
FF
00
00
00
00
00
00
00
00
00
00
FF
FF
00
00
00
FF
01
00
01
00
FF
FF
FF
00
FF
FF
00
00
FE
00
FF
FF
00
FF
00
00
FF
00
FF
00
00
00
00
00
00
FF
00
00
00
01
FD
00
FD
01
FF
00
00
01
FF
01
00
00
02
04
01
FF
FF
FE
FD
00
00
03
00
FB
00
FD
00
00
01
00
00
00
02
00
FD
FF
FF
00
FF
00
FF
01
01
01
01
01
00
01
00
FF
00
FF
03
01
00
FE
01
FF
00
00
01
FF
FF
01
02
FD
FF
00
FE
FF
00
00
01
FF
FF
00
02
FE
00
00
01
00
02
00
01
01
02
00
00
FF
01
00
00
FF
01
FD
02
00
01
00
00
FE
FF
FF
02
FD
FF
00
02
01
FE
00
02
FF
00
00
03
01
00
03
FD
01
FF
01
01
FF
00
02
FE
00
02
00
01
FF
FF
FE
02
FF
01
FF
01
01
01
00
00
00
FE
00
02
00
01
FF
FF
00
FF
01
01
FE
01
02
01
02
03
00
01
01
FD
00
02
02
02
01
03
02
FD
FB
00
FF
FF
00
00
01
00
00
01
01
FE
00
00
00
00
FE
01
02
FE
01
01
FE
03
01
00
00
00
00
FF
FE
FD
00
00
00
00
00
FF
00
FE
FF
FF
00
01
00
FF
02
00
FD
01
01
00
00
FF
00
FF
02
04
FF
00
FF
FD
FE
FF
01
01
00
01
03
FF
00
01
02
03
01
00
00
FE
01
00
FE
FF
FF
02
01
00
FF
01
FE
FF
FF
00
01
01
FF
FF
02
FE
00
01
01
01
FD
FF
00
00
01
01
02
01
01
FF
00
FF
00
01
FF
00
FE
01
FC
FF
FF
01
00
01
FE
01
FF
00
FF
00
00
02
01
FF
02
02
00
00
FC
00
02
FF
FF
FA
00
FD
02
FE
FF
00
FE
FA
01
FE
02
FE
00
01
FF
FD
00
FF
FF
01
01
00
FF
00
FF
FF
01
00
01
00
02
03
01
00
01
02
03
01
00
01
FF
FD
00
FB
02
01
FF
FF
FF
FE
FE
FE
00
00
00
00
00
01
FC
00
01
01
01
00
00
FD
FE
00
FF
FF
02
00
00
03
02
02
01
01
02
01
FE
FC
00
FF
01
FF
02
01
FD
FC
00
FF
01
FF
FC
02
FE
FD
00
01
00
00
FD
02
FF
FB
FF
FF
FD
01
FF
FE
00
FF
00
00
FD
01
02
00
02
00
FF
01
01
01
FF
FE
01
01
00
01
01
00
02
FD
FE
FF
FF
00
01
01
01
01
00
FF
00
FD
00
00
FE
01
FF
FE
00
FF
00
00
FE
02
00
02
FF
03
FE
02
FD
01
FF
01
00
00
01
03
02
00
00
01
00
FB
01
FF
FF
02
01
00
00
FD
00
FF
FF
01
FE
00
00
FF
01
00
00
00
00
FE
00
FD
00
FF
FF
00
FE
FF
00
FC
01
00
FF
FF
FF
FF
00
00
01
FF
FE
00
FF
01
01
FF
01
FF
FF
01
FE
FF
01
00
02
FF
04
00
02
FF
00
00
00
FD
03
01
03
02
01
01
02
FB
01
00
01
01
01
01
03
FD
FE
FF
00
00
00
02
00
00
00
00
FF
FD
00
02
FF
00
00
00
00
01
00
00
01
FF
00
01
00
01
01
01
01
FF
00
00
FF
FF
02
01
02
FF
00
01
00
FF
00
00
01
FF
02
04
FF
01
FF
00
01
FE
01
02
00
00
03
00
FF
04
01
04
00
00
00
01
01
00
FF
02
00
00
01
00
01
00
FF
01
FF
01
01
00
FE
01
FE
FF
01
01
02
01
FF
FF
00
01
00
01
FF
01
02
00
00
FF
00
01
FF
01
01
01
FE
FF
FF
00
00
01
FE
00
00
00
FF
FF
FF
FF
FE
00
FF
FF
00
FC
FC
00
02
FD
FE
FC
01
00
FE
00
FE
FE
FD
F9
00
00
FF
01
FF
00
00
FD
01
FF
FF
01
00
FE
01
00
01
00
02
00
00
00
00
00
00
FE
FE
01
02
FF
01
FD
00
FC
01
FD
FF
FE
FF
FC
00
FD
00
FE
00
00
03
FF
01
FE
FF
01
00
00
00
00
00
FE
00
01
01
01
01
01
00
01
01
00
00
01
00
FE
FE
01
00
FE
02
00
01
FC
FE
FF
00
04
03
03
02
FF
FE
00
01
01
01
03
FF
FF
FE
FF
FF
02
01
FF
00
FF
FE
00
00
01
00
FF
00
FC
FF
00
00
FC
FD
FE
01
00
FF
FF
00
FE
02
00
FE
FF
01
FF
00
02
00
02
00
01
00
FF
FF
01
02
01
00
FF
02
01
01
01
FE
02
01
FC
FF
FF
00
FB
FF
FC
01
00
FE
FF
01
FF
01
FC
00
00
FF
00
01
02
01
01
01
01
FF
FF
FF
01
03
01
FF
00
02
00
00
00
FF
01
03
FF
02
01
00
FF
03
FE
FF
00
01
00
01
02
03
FE
FF
01
00
00
00
01
02
00
01
00
00
FE
01
FF
FF
01
01
01
00
01
FF
FF
FF
01
02
03
03
06
00
02
01
01
FB
03
01
03
01
01
00
FF
FC
01
FE
FD
00
FF
02
FE
01
02
01
FC
01
01
01
FF
FE
02
FF
00
00
02
FF
02
01
00
00
01
FF
FD
FE
FD
01
00
FF
00
FF
FE
FD
FE
00
FD
00
01
01
FF
FF
00
FE
FE
00
00
01
FF
FF
01
00
01
00
00
00
00
FF
02
00
FD
00
FF
FF
FF
FD
FE
01
FF
FF
00
FF
FE
FE
FF
FF
FE
01
00
FF
00
01
01
FF
00
00
FF
01
01
01
FF
04
FF
00
00
00
01
FE
00
FF
F6
00
FE
FE
00
FE
FD
FE
F9
00
FF
FF
FE
01
FD
00
FE
FF
00
00
01
01
FE
00
01
01
FF
01
00
01
FF
01
01
FF
01
00
FF
FF
FF
01
FC
00
FC
FE
FE
01
01
01
FE
00
FD
FD
FF
03
00
FE
01
01
00
FF
01
01
02
FE
00
00
01
00
01
FE
00
FF
FF
01
03
FF
01
01
FF
03
00
01
01
01
02
02
05
00
FF
01
01
FF
01
01
03
FC
00
00
03
FE
01
01
01
00
02
00
00
FE
FF
01
FD
00
01
00
FE
00
02
03
FE
FF
00
FF
01
00
00
00
00
00
00
FF
00
00
FF
00
00
00
FF
FF
FF
01
FF
01
00
FF
00
00
00
00
00
FF
FF
00
00
00
00
01
00
FF
00
FF
01
FF
00
FF
FF
00
FF
FF
01
FF
00
00
FF
00
FF
00
FF
FF
00
00
FF
FF
00
FF
FF
FF
FF
00
00
00
00
FF
FF
00
00
FF
FF
00
FF
FF
00
00
01
01
FF
00
FF
00
00
FF
FF
00
FF
00
00
01
00
FF
00
00
00
01
00
FF
FF
00
00
00
00
00
00
FF
00
00
FF
00
00
00
00
FF
FE
FF
00
FF
00
FF
FF
FF
FF
00
FF
00
FF
FF
00
00
FF
00
00
00
00
FF
FF
00
FF
00
00
00
FF
00
00
00
00
00
FF
01
FF
FF
00
00
FF
00
00
00
00
00
00
01
FF
FF
00
01
00
FF
00
01
00
00
00
01
FF
FF
FF
00
00
00
00
00
FF
FF
FF
FF
00
00
00
00
FF
FF
01
00
00
01
00
FF
FF
00
00
00
FF
01
FF
00
FF
FF
00
00
00
00
00
FF
00
00
00
FF
FF
00
00
FF
FF
FF
FF
FF
00
00
00
00
FF
00
FF
FF
FF
FF
00
FF
00
00
FF
FF
00
01
FF
FF
FF
FF
00
FF
01
FF
00
FF
00
FF
00
FF
01
00
00
01
00
FF
00
00
FF
00
FF
00
00
00
FF
FF
00
01
FF
00
00
00
00
FF
FF
FF
FF
00
00
FF
00
00
00
00
FF
00
FF
FF
FF
FF
FF
01
FF
00
FF
00
FF
FF
00
00
00
FF
00
FF
00
00
FF
00
00
00
FF
00
01
00
00
00
FF
00
FF
FF
00
00
00
FF
00
00
FF
FF
FF
00
FF
00
00
00
FF
FF
FF
00
00
FF
00
00
FF
FF
FF
FF
00
00
FF
00
00
FF
01
FF
00
00
FE
01
00
00
FF
FF
00
00
00
00
00
00
00
FF
00
00
00
00
FF
FF
00
01
FF
00
00
FF
00
FF
FF
FF
00
FF
00
01
01
00
00
FF
00
FF
00
00
00
00
00
FF
FF
00
01
00
00
FF
00
00
FF
FF
00
00
00
00
00
00
00
00
00
00
00
00
00
00
00
FF
FF
00
01
00
FF
00
FF
FF
00
00
00
00
FF
00
00
00
00
00
00
FF
FF
00
00
00
00
00
FF
FF
00
00
00
FF
01
01
00
00
00
FF
00
FF
00
00
00
01
00
00
00
00
00
01
00
FF
00
FF
00
FF
00
00
FF
00
00
00
00
00
00
00
00
00
FF
FF
FF
00
00
00
00
FF
00
00
00
FF
FF
FF
FF
00
FF
00
00
FF
FF
FF
FF
00
00
00
00
FF
FF
01
FF
00
FF
00
00
FF
FF
00
FF
00
FF
00
FF
00
00
FF
00
00
FF
00
00
00
00
00
00
FF
FF
FF
00
00
00
00
00
00
FF
00
00
00
00
01
FF
00
00
00
00
00
00
00
00
FF
FF
00
00
FF
00
00
FF
00
00
01
FF
00
FF
FF
FF
FF
00
00
00
00
00
FF
00
FF
FF
FF
00
00
00
00
00
FF
FF
00
00
FF
00
00
FF
00
00
00
00
00
00
FF
FF
00
00
00
00
FF
00
FF
00
00
00
00
01
FF
00
00
FF
01
00
FF
00
00
00
00
00
00
00
FF
00
00
FF
00
00
FF
00
FF
00
00
00
FF
FF
00
FF
00
00
00
FF
FF
00
00
FF
00
00
00
01
00
FF
00
FF
FF
FF
FF
00
00
FF
00
FF
00
00
01
FF
00
00
00
00
FF
01
00
00
00
FF
00
FF
00
00
00
00
FF
FF
00
00
00
00
00
FF
00
00
00
FF
00
FF
00
00
00
00
00
FF
00
00
00
00
01
01
00
00
00
00
00
00
00
00
00
00
00
00
01
FF
FF
01
00
00
00
FF
01
FF
00
FF
FF
00
FF
00
00
00
FF
00
00
FF
00
00
00
00
00
00
00
FF
00
00
01
00
01
00
00
00
01
01
01
00
00
01
FD
FF
02
01
02
00
01
02
03
FE
FF
01
02
FE
00
FF
01
00
00
00
00
FF
00
FF
01
FF
00
06
02
FC
FF
FF
02
FE
00
00
04
03
FF
04
01
FE
02
00
02
01
00
04
FF
01
FE
01
02
00
FF
FF
FC
FD
00
00
FD
FD
00
00
FF
FF
00
04
FD
FD
00
00
00
01
00
03
02
02
00
05
FF
02
02
01
FF
00
00
00
FB
01
FF
01
FE
02
FF
00
00
00
FF
FF
FE
FF
FF
02
FF
01
FE
FC
FF
01
01
02
00
01
00
00
FF
FE
00
FF
FA
01
02
FF
FF
FF
00
FE
00
01
01
00
FD
02
FF
01
FF
01
00
00
FE
02
FF
02
FF
02
00
FE
FF
00
00
FF
FF
03
01
00
01
FF
00
01
FE
FF
00
00
01
FF
00
00
01
00
FF
FF
FF
FE
FF
FD
01
00
01
00
FF
00
00
FF
01
00
02
00
03
01
01
FF
01
00
01
02
FF
FE
01
FF
FF
FF
02
00
FF
FE
FF
FF
02
00
00
FD
00
00
FE
01
02
00
FE
FE
01
00
00
02
02
FE
FE
00
FF
01
00
01
03
FD
FF
02
00
00
00
FD
00
02
02
01
00
00
FB
FF
00
03
FE
00
FF
00
FC
FE
FF
01
FF
00
00
01
FB
01
01
FE
FD
01
00
01
FE
02
01
FE
FF
01
FF
02
04
00
01
05
02
02
00
03
FC
00
00
04
01
02
00
01
00
00
00
01
01
01
00
01
FF
00
00
FE
02
03
FF
00
02
FF
02
00
FE
FF
01
00
04
FE
FF
FD
FD
FF
00
00
01
00
FF
00
01
01
FF
00
00
FF
FF
FF
03
00
00
00
FF
FF
FF
01
04
FF
00
FF
01
FF
FC
03
00
01
00
00
02
FF
00
FE
FE
FF
00
04
00
01
01
00
FE
FE
01
02
00
01
00
FE
FF
FE
00
FF
FE
00
FF
00
02
FB
00
01
FE
00
FE
00
00
00
00
00
00
00
00
00
00
00
00
00
00
00
00
FF
00
00
FF
00
00
00
00
00
FF
00
00
00
FF
FF
00
00
00
00
00
00
01
00
00
01
00
00
00
00
00
00
00
01
FF
FF
00
00
00
00
00
00
00
FF
00
FF
00
FF
FF
00
00
00
00
FF
01
FF
00
FF
01
00
FF
00
FF
00
00
00
FF
00
FF
FF
00
00
FF
00
00
00
01
00
00
00
00
00
01
FF
00
00
FF
FF
00
00
00
00
FF
00
00
00
00
00
00
00
01
00
00
00
FF
FF
FF
00
FF
00
00
00
00
FF
00
FF
00
00
00
00
00
00
FF
00
00
FF
00
FF
00
00
FF
FF
FF
01
00
00
00
00
00
00
00
00
01
00
FF
00
FF
FF
00
00
FF
00
01
00
00
00
00
00
00
00
FF
00
FF
00
00
00
FF
00
00
00
00
FF
FF
00
00
FF
FF
FF
FF
01
FF
00
00
00
FF
01
00
00
FF
00
00
00
00
00
00
00
00
FF
FF
00
00
00
00
00
00
00
FF
00
FF
00
00
00
00
FF
FF
00
FF
00
00
00
00
00
00
00
FF
00
00
00
01
00
00
00
FF
00
FF
00
00
FF
00
00
00
00
FF
01
01
00
FF
00
00
00
00
00
00
00
FF
00
FF
00
00
00
00
00
00
00
FF
00
00
FF
01
00
FF
00
00
00
FF
00
FF
FF
00
00
01
01
00
00
00
00
00
00
00
00
00
00
00
00
00
00
00
00
00
00
00
00
00
00
00
FF
FF
FF
00
FF
00
01
FF
01
00
00
00
FF
FF
FF
00
00
00
00
00
00
FF
FF
00
00
FF
00
FF
00
00
FF
FF
00
00
01
00
01
FF
00
FF
00
FF
00
00
FF
00
FF
00
00
FF
FF
00
00
FF
00
00
FF
00
FF
FF
FF
FF
00
00
00
00
FF
00
01
00
00
00
00
00
01
01
FF
01
00
01
00
FF
00
FF
FE
00
01
FD
01
FE
01
00
FF
00
FF
FD
FD
01
01
01
00
00
00
01
00
05
FF
00
FF
00
00
03
00
01
04
FF
01
FF
00
02
FF
00
FF
00
FE
FF
01
FD
01
FD
FE
00
FF
00
02
FC
00
FF
FF
FE
02
01
01
FD
00
00
01
FE
FF
00
00
00
FF
00
03
FD
03
01
02
01
02
FF
01
00
FE
00
03
FC
FF
01
01
00
FF
00
03
FE
02
FC
01
01
02
01
03
FB
FE
00
03
FF
00
01
00
01
FF
00
FD
FD
00
00
02
02
00
00
00
FC
FE
FF
00
FA
01
FF
00
FE
FE
00
00
FD
04
FE
00
00
01
01
02
FF
01
03
00
FD
FE
FF
FF
00
FF
FF
FF
FF
FE
00
FE
00
FF
FE
00
FE
FF
01
00
FB
01
00
FF
FF
FF
00
FF
FC
03
01
01
FF
03
00
FF
FF
01
02
00
FD
00
00
FE
01
FF
01
FC
00
FE
01
FE
FF
FF
FF
01
01
00
00
01
FF
01
00
01
00
00
00
01
FF
FF
00
00
00
00
00
01
FF
00
FF
FF
01
01
01
01
00
02
00
FC
00
02
02
01
01
02
FF
01
00
00
02
00
FF
01
02
00
FF
01
00
01
FF
FF
01
00
00
02
FD
FF
FF
00
FE
01
00
01
FD
00
00
00
FF
02
00
01
FE
00
02
FF
FF
02
00
01
00
00
02
02
03
00
00
01
FE
00
FE
03
01
00
00
FF
00
00
FF
01
00
FF
00
02
FC
00
02
FF
FF
02
00
01
FF
00
03
FF
00
02
00
02
01
00
FE
FF
02
03
00
04
FF
FF
FE
FF
FF
01
01
FF
FF
01
02
00
FE
01
00
00
02
01
02
01
00
FE
00
FF
03
01
FF
FF
00
FE
00
05
00
03
FE
00
00
FF
FF
03
FF
01
00
FF
FF
FD
FF
FC
00
00
00
FF
00
FE
00
FD
00
FF
01
FF
FF
FF
01
FF
FF
FD
00
FE
01
00
01
01
00
01
FE
00
FF
02
01
01
00
01
FF
01
FF
01
01
01
00
01
FF
01
01
00
FE
FF
00
FF
FF
FE
00
05
02
02
00
FE
01
FE
02
02
02
02
00
03
FE
01
FE
02
01
01
00
00
00
FF
FE
03
01
FE
00
01
FF
00
00
01
FD
FE
00
01
FF
01
00
04
01
01
01
01
00
FF
00
05
03
01
00
03
FE
00
FF
02
02
00
00
01
00
01
FE
02
FF
FE
00
00
00
FF
FF
01
FF
FF
FF
00
00
00
00
00
01
02
00
03
01
00
00
01
FD
FE
FF
FF
FE
FF
FF
01
FD
00
FF
FE
01
03
00
01
FE
FF
00
02
00
01
00
01
FE
FE
00
01
01
FF
00
FC
FF
FE
01
01
00
00
01
FF
FF
FE
00
00
01
00
02
FE
FE
01
00
FE
00
03
01
FF
FF
02
00
FC
01
01
04
FF
FE
00
FF
FE
01
00
01
FD
01
FE
00
01
00
FF
FE
03
00
01
01
01
00
02
00
01
00
01
00
00
01
00
FF
01
00
01
00
01
00
00
00
FD
00
01
00
01
FE
01
00
FD
FF
01
01
00
00
02
FF
00
00
02
00
00
01
02
01
01
01
00
00
00
01
01
00
01
00
01
00
01
FF
FF
FE
00
00
01
FE
00
FF
FE
00
00
FF
01
FE
01
04
FF
01
02
00
00
00
01
03
04
02
00
00
01
FF
03
02
03
00
02
FF
02
02
02
01
01
FF
02
00
02
FE
00
02
FD
02
05
00
00
FE
01
01
FF
FF
02
01
03
FE
FF
02
FC
01
00
00
03
00
00
01
FF
00
02
00
FF
01
00
00
00
00
03
00
FF
03
00
01
FF
01
01
FF
01
04
02
00
FF
00
FD
00
03
00
FF
FC
FB
FF
FC
00
03
00
00
FE
00
FF
FB
00
FF
02
FE
FF
FE
FD
FE
00
FE
03
FE
FF
FE
FF
00
01
FE
02
FD
FE
00
01
FE
00
FE
00
FF
01
03
01
00
01
02
FF
01
FF
02
FF
00
01
01
01
01
00
02
FF
00
FE
00
FF
00
FE
00
FF
FE
FF
FF
00
01
FF
FF
00
00
FF
FE
00
00
FF
01
FE
FE
00
01
00
00
FF
01
01
01
FF
00
00
01
02
00
00
02
00
01
FF
FE
FF
00
01
02
FE
00
00
01
00
00
00
01
00
FE
01
FF
01
FF
01
01
FF
00
00
01
00
03
FF
03
01
01
01
01
FF
FF
FF
03
FF
01
00
01
01
FD
00
02
FF
FF
FF
04
00
FF
03
FD
01
00
00
01
02
FF
03
FF
02
00
FF
00
03
00
FE
01
00
02
00
03
03
01
FE
FF
FF
FF
00
02
01
02
FE
FF
FD
FD
FF
00
FF
01
01
00
02
04
FF
01
01
FE
02
01
03
02
00
01
03
FC
FF
00
FF
00
00
00
00
00
FF
00
FF
FE
00
00
FD
02
FD
00
02
00
00
FF
FD
03
01
01
00
00
00
FF
01
FF
00
02
00
00
00
00
00
FF
02
00
01
00
01
00
01
01
00
00
00
FE
00
FE
FF
01
03
02
00
00
00
FE
FF
00
01
04
01
02
03
01
00
00
02
00
FF
04
00
02
01
FF
FE
00
01
01
00
00
00
01
FF
00
00
00
FF
FF
00
00
00
FF
01
00
00
02
FE
FF
FF
00
00
02
01
01
00
FE
FF
FE
00
01
00
02
01
FF
FF
FE
00
FF
01
01
FF
00
FE
FF
01
01
00
02
00
01
00
02
01
01
FF
01
03
FF
FF
FD
01
FE
FF
FE
01
FF
00
00
00
FE
FF
FE
03
00
00
01
01
FD
FC
FE
01
01
00
02
FF
00
00
01
00
02
03
03
01
02
01
00
01
00
00
FF
00
FF
00
FF
02
03
00
01
01
01
FD
FD
00
01
FF
01
01
01
FA
FF
00
02
02
01
FF
00
FF
00
FE
01
03
FF
00
06
01
01
00
01
FF
00
FE
00
00
02
FF
04
00
00
FE
00
01
FF
FD
02
01
FD
01
03
01
FE
FF
01
05
FF
01
00
00
FF
02
01
00
FE
00
03
01
00
01
FF
FF
02
FE
FE
00
00
FE
02
FF
00
FF
00
00
FF
FF
03
01
01
01
02
FF
00
02
02
03
01
01
01
00
FD
01
FC
01
02
02
03
00
00
00
FE
00
00
00
FD
00
FC
FF
FB
FF
FF
00
FE
01
FF
01
02
00
FE
01
01
FF
02
01
00
02
04
00
00
01
FF
02
FE
00
02
00
01
00
00
01
FE
01
00
01
FF
00
FF
03
FF
FF
FF
00
00
01
00
01
FF
01
01
01
00
00
01
02
FD
00
01
FF
01
00
00
02
FF
FF
02
00
02
00
01
FF
01
02
01
00
01
00
00
01
FF
01
FF
00
01
00
00
03
00
02
00
00
02
01
01
00
00
00
02
FE
01
00
01
FF
01
FE
00
00
03
FF
02
FD
02
01
00
01
FF
00
FF
00
FF
00
00
00
01
01
FF
FE
00
01
FF
01
FF
02
FF
00
00
00
00
00
FD
00
FE
00
00
FF
FB
FF
FD
00
01
00
00
FF
02
00
00
FF
FE
FF
FF
01
FE
00
02
FF
00
FE
01
00
FE
FF
FE
00
02
FE
02
00
FF
00
FE
01
FE
FE
00
03
FF
00
FF
FE
FE
00
01
FE
FE
00
01
FE
00
FF
FF
00
FF
00
FF
FC
FF
01
FD
00
00
FF
FB
FE
FD
01
FF
FF
FC
00
FD
FF
FF
FF
02
00
FB
00
FE
FE
00
01
01
FF
FE
01
00
00
01
02
01
02
02
00
01
FF
01
01
00
FF
01
FF
FE
FF
00
01
00
00
02
00
03
FD
01
00
01
03
00
FF
00
FD
01
01
01
00
FE
00
02
01
02
FF
00
01
00
01
02
02
01
01
01
02
02
00
00
00
02
02
01
02
02
FF
02
02
03
01
02
04
02
01
04
00
02
02
01
FD
03
01
02
00
00
FF
01
FF
00
00
02
01
FF
01
02
FD
FF
FF
02
FF
FB
00
02
02
FE
FF
01
FF
FE
01
01
02
01
00
00
01
FB
02
00
00
00
FF
FE
FF
FF
03
03
02
00
FF
01
00
FF
FF
01
FF
01
03
01
FF
01
FF
FD
FF
00
01
FF
FF
02
00
FD
01
03
03
00
00
00
03
FB
01
FF
FF
00
00
01
00
00
01
00
02
00
00
01
01
FD
FF
01
01
00
00
02
02
FF
FA
FF
00
00
00
04
FF
01
01
FD
00
01
00
02
00
01
00
FF
FF
02
00
00
FD
01
00
01
FF
FF
01
FF
FF
FF
01
01
00
FE
00
00
FD
01
00
01
00
00
00
00
FE
01
00
01
01
02
00
FE
FE
03
FF
00
FF
FF
00
01
01
01
FD
FF
FE
FE
01
FF
FF
02
00
FF
00
FC
00
FE
00
01
00
FF
01
00
01
FF
FF
FE
01
03
02
03
00
00
02
FD
00
01
FF
01
01
02
01
02
02
01
00
01
00
01
01
FF
02
00
00
02
01
00
00
FD
01
FE
FF
00
FF
FF
FF
FE
00
FB
FF
00
FF
00
FE
FE
00
01
01
01
00
00
FF
00
01
FF
00
FD
01
00
FF
FF
00
FC
01
FE
00
01
FF
01
01
FC
01
FE
FE
02
FE
01
FD
FF
00
FF
FE
FF
01
02
00
03
FF
01
00
FF
00
01
01
03
00
00
FF
FF
01
01
00
03
00
01
FF
FF
02
02
02
03
01
00
FE
01
03
03
04
04
FF
01
02
FF
01
05
FF
02
00
03
03
00
FF
01
FF
01
01
02
02
00
00
00
FE
02
00
03
FF
00
FE
FF
01
00
00
01
FF
FF
FF
FF
03
FF
01
02
FF
FF
FD
02
FE
04
FF
00
01
FF
01
FF
FF
01
00
FE
03
FF
01
00
FF
FE
00
00
02
FF
FF
FE
FF
FD
00
03
03
FF
00
FE
FF
FC
00
FF
FF
00
00
FE
FE
03
00
01
00
01
FF
01
FE
03
00
02
00
00
FC
FF
FE
01
FE
00
00
00
FD
00
02
01
FF
FF
00
00
02
02
02
02
FF
FF
00
01
01
01
FF
02
FF
01
00
01
FE
02
FE
01
FF
02
FF
FE
FE
FE
02
01
FF
02
00
00
01
FF
FF
01
FF
01
00
00
01
01
02
FE
FE
FE
01
00
00
FE
FF
00
FE
FF
00
FE
FF
02
00
01
01
FF
00
FE
01
FF
01
01
01
00
01
02
FE
00
02
01
01
00
00
00
01
01
00
01
00
FE
00
FF
01
FE
FD
01
00
01
FF
FF
00
FF
FE
01
FE
00
00
FE
FF
01
03
00
FF
FE
00
01
00
00
02
01
01
02
FF
00
01
FF
00
FF
01
00
00
FE
00
FC
FE
FF
FB
FE
00
FF
FF
01
02
FD
FB
FE
01
FE
01
02
06
FF
FD
00
FF
FF
00
00
02
00
00
04
FF
00
01
01
00
FE
FF
01
FF
02
00
00
00
02
00
00
01
00
01
03
FF
03
00
00
FF
01
00
01
01
03
00
00
FF
00
00
FF
01
02
00
01
FF
00
01
FE
01
FF
00
FF
FF
FF
00
FF
01
FF
FF
FE
FF
02
00
01
FF
00
00
00
00
FF
FF
FE
01
FE
FF
01
00
01
FF
01
FF
FF
FF
01
FF
00
00
00
FD
01
00
00
00
00
00
FE
00
03
00
00
00
00
00
FE
FE
03
00
FF
01
FF
FF
FF
01
01
00
FF
FE
01
00
FF
00
FE
FF
00
00
00
02
01
FF
FF
00
FF
00
00
00
FF
00
01
00
FF
03
01
00
00
FF
03
00
03
02
00
FF
FF
02
03
01
02
FD
FF
00
FE
00
FF
00
00
03
01
00
00
FE
FE
00
00
01
02
00
FF
FD
00
FF
01
00
00
FF
FE
00
FF
00
00
02
00
FE
FF
02
01
FF
FF
00
FE
00
FC
02
00
01
FE
01
FF
01
FF
00
01
00
FD
02
FE
00
02
01
01
FF
FD
01
FF
FE
FE
FF
00
FE
FE
01
FE
FF
01
FE
01
00
00
00
02
00
01
FE
00
FF
FF
00
00
FF
FF
00
01
01
01
00
00
01
00
01
00
02
01
00
02
FF
FF
FF
00
02
01
00
02
00
FF
00
FF
00
FE
00
01
FF
01
FD
00
FF
00
00
01
FF
01
00
FF
02
00
00
02
00
02
01
00
02
01
00
04
00
FF
FF
01
03
02
01
03
01
FF
FF
01
00
FF
FF
FD
FE
00
00
01
00
00
00
FF
02
01
00
FF
00
01
00
FE
01
FF
00
03
FF
01
01
00
FF
01
FE
01
FF
01
01
FE
FB
02
FE
00
FD
FF
01
FD
FF
FF
00
00
FF
FF
00
02
01
FE
01
FE
FE
02
01
00
02
FF
FF
00
00
00
00
00
FE
01
00
FF
FF
01
00
FE
FE
01
01
FF
FE
01
01
FD
01
00
01
FF
FE
01
FF
00
00
FD
01
FD
00
02
01
00
01
FE
FE
00
00
01
00
00
00
FF
00
FE
00
FF
01
02
02
FE
FF
FF
FF
FF
00
01
00
FE
00
FE
FF
FF
00
01
FF
01
00
FE
00
FF
00
FE
FE
02
00
FF
00
FF
01
FF
00
FF
00
00
00
FD
00
FF
01
FF
FF
00
00
01
FF
FF
00
01
FF
00
FF
00
FE
FF
FE
00
02
00
FF
00
00
FF
FF
00
02
01
01
FF
FE
00
02
03
FF
00
01
00
00
00
FF
03
FE
00
FF
02
FE
02
00
01
01
FD
00
FF
FD
02
01
FF
02
FD
00
FF
FE
00
00
FF
00
01
00
01
FE
FF
01
02
00
01
FF
00
FF
00
FF
01
01
00
01
00
FC
01
01
FE
03
01
00
00
FE
00
03
FE
00
FF
00
FC
FF
FF
00
FF
01
FF
01
02
00
00
FE
00
00
FE
01
00
01
00
FF
FF
02
FD
FF
FE
FD
FF
FF
FF
00
FE
00
FE
02
FC
00
FD
FE
00
01
FA
00
FD
00
01
00
00
00
00
01
00
00
00
00
00
00
FF
00
FF
00
01
00
00
00
00
00
00
00
FF
00
FF
FF
00
00
00
00
00
FF
00
FF
00
01
FF
00
FF
00
00
00
01
00
00
01
01
FF
FF
00
FF
00
00
00
00
00
00
00
01
00
00
00
FF
FF
00
00
01
00
00
FF
FF
00
01
FF
00
00
FF
FF
00
00
00
00
00
00
00
00
00
01
00
FF
00
00
00
00
00
00
FF
FF
00
00
00
00
00
00
FF
00
FF
00
01
FF
00
00
00
FF
00
00
00
FF
00
00
01
FF
00
00
FF
00
00
00
00
00
00
FF
00
00
00
00
00
FF
00
01
00
00
00
FF
00
FF
00
00
FF
00
FF
00
01
00
00
00
00
FF
00
00
00
00
01
00
FF
00
FF
00
00
00
00
00
FF
00
00
00
FF
00
FF
00
FF
00
00
00
FF
00
00
01
00
00
00
00
FF
00
00
FF
00
00
00
00
00
00
00
FF
01
FF
00
00
FF
00
FF
00
00
00
01
00
FF
00
00
00
00
00
01
00
00
00
00
00
01
01
00
00
00
FF
00
00
00
FF
00
00
FF
00
FF
00
FF
00
00
FF
FF
FF
00
00
00
FF
01
FF
00
00
00
FF
FF
00
00
00
FF
FF
00
01
00
00
01
01
FF
00
FF
FF
FF
00
00
FF
00
FF
00
00
FF
FF
01
00
00
00
FF
00
00
01
00
00
00
00
FF
00
00
00
FF
FF
00
00
00
00
00
00
00
00
00
00
01
00
01
00
00
00
00
00
00
00
00
00
00
00
FF
00
00
00
00
00
00
00
00
00
01
00
00
01
00
00
FF
00
FF
00
FF
00
FF
00
00
00
00
01
FF
FF
00
FF
FF
00
00
01
00
00
00
FF
00
01
FF
FF
FF
00
FF
FF
FF
FF
00
00
FF
FF
00
00
00
00
01
00
00
00
00
01
00
00
00
00
FF
00
01
01
FD
FF
02
00
FD
01
FF
02
01
00
01
01
FE
02
FE
03
01
01
02
FF
01
01
00
01
01
FF
00
00
02
02
00
01
00
FE
FF
01
01
FF
02
01
FF
00
02
FF
FE
FF
FF
01
FF
00
00
00
01
01
FE
00
FE
00
FE
01
01
00
01
00
FD
FE
FC
FF
00
FF
01
FF
00
FD
FF
00
00
FF
02
00
00
01
03
FF
01
FF
01
01
FF
00
01
00
00
00
02
00
FE
FF
FF
00
FF
01
00
00
FD
FE
FF
01
01
FE
01
FF
FF
01
FF
FF
02
FF
01
01
FE
00
01
00
00
01
01
02
FF
00
02
00
00
01
03
01
FF
02
03
FF
00
01
01
FE
FE
03
01
00
FF
FF
01
FF
FE
FF
FE
00
FF
FF
01
02
FE
00
01
00
FF
FF
00
00
02
03
02
FF
02
00
00
FF
03
03
03
00
02
FE
00
00
02
02
00
FF
FF
FF
01
01
01
FE
FF
00
FE
FE
00
01
FB
00
02
FE
FF
FD
FF
01
FE
01
01
FF
FF
00
FF
FE
00
FF
00
00
00
01
01
00
00
00
02
00
00
01
00
FE
02
FF
01
01
02
01
FF
02
FC
00
FF
00
FE
FF
00
FF
01
01
00
FF
FF
01
FF
00
03
FF
00
00
00
02
FF
01
01
01
00
01
02
01
FF
FF
03
00
01
01
FF
00
FD
03
FE
00
FD
FD
01
00
01
00
FE
00
FD
00
00
FF
01
FE
FF
00
FF
04
01
FF
00
FF
02
00
01
01
FF
00
00
00
03
00
02
01
FF
FE
00
01
FF
00
FF
FC
00
FF
00
03
FD
01
FD
FC
FE
FF
00
FF
01
00
FD
01
FE
FE
01
FD
FF
00
FF
01
00
FE
03
FF
FE
01
02
01
FF
FE
00
01
FF
01
FE
FF
FF
FD
00
01
00
00
FD
FE
FF
FF
01
FF
FF
FF
FF
FB
FF
00
02
00
00
00
FF
FD
02
00
01
FF
FB
00
FF
FF
03
00
FF
FF
FE
00
02
01
00
00
01
01
FD
FE
FE
00
01
04
00
01
FF
FE
FF
01
FE
01
00
FD
00
FE
00
00
01
01
FF
00
01
00
FF
00
00
FF
00
FF
FF
00
01
FF
FF
FF
01
01
FE
FF
FF
00
02
FF
00
FE
FF
01
00
FF
01
FE
00
FE
01
FE
01
01
01
00
00
01
FF
01
00
00
01
FE
01
01
FE
01
03
00
FF
FF
01
00
FE
00
01
01
00
FF
FF
FF
00
FE
02
01
00
FF
01
FE
00
FD
01
00
02
FF
01
01
00
FF
00
01
00
FF
00
02
01
01
01
FF
00
00
00
01
00
00
FF
FF
02
00
00
FE
00
FD
00
00
00
01
01
00
00
FE
FF
00
00
00
00
01
FF
FE
00
00
FF
01
01
01
01
01
04
01
00
01
FF
FC
02
00
02
00
00
01
FF
FC
00
FF
FE
00
FF
01
FE
00
02
01
FD
00
FE
00
FC
00
02
00
00
00
FF
00
FF
01
FF
00
00
00
FF
FF
FF
00
FE
FF
00
FF
00
FF
FE
00
00
00
01
01
FF
00
FE
FE
FD
00
01
01
00
00
FE
00
FF
FF
FF
02
FF
FF
01
FF
FD
00
00
01
00
FF
02
00
00
FF
FF
01
00
00
FE
FF
FF
FF
FE
02
00
00
01
FF
00
01
00
02
00
00
00
03
00
FF
01
00
FE
FF
01
00
FC
00
FF
01
00
FE
01
00
FF
00
01
01
00
00
01
FF
FF
00
01
FE
00
00
00
FF
02
01
00
FF
01
FF
FF
01
01
FF
02
FF
FE
00
FE
00
FE
00
FF
FF
FE
00
02
00
FD
01
FD
FF
00
01
01
FE
00
FF
FF
01
01
01
FF
FF
00
00
FF
FD
FE
00
FD
01
FF
01
01
FE
FE
00
FF
01
01
00
01
00
00
02
03
FF
02
00
01
01
02
00
00
FD
02
00
02
01
01
FF
FF
FD
02
01
03
FF
00
00
FE
FF
00
00
01
FF
02
00
FF
FF
01
03
00
FF
01
00
01
FE
01
02
00
FF
FF
FF
01
FE
01
00
00
00
00
FF
01
03
FE
FF
FE
01
FF
01
FF
FE
02
00
00
FF
FF
FF
01
00
00
00
00
00
01
FD
01
FF
FF
FE
01
00
00
FF
00
00
00
01
FF
00
02
00
00
FF
01
FF
FE
00
00
00
01
01
02
01
00
00
02
03
00
00
FE
FF
01
00
01
FF
00
02
FE
FF
01
01
FF
01
FE
01
01
FE
01
00
00
00
FE
FE
00
FF
00
01
04
00
02
02
FC
FF
FE
00
00
01
00
FF
02
FF
03
00
00
00
01
00
00
FF
00
FF
00
01
FF
01
FF
01
FF
FF
01
01
FE
01
FF
01
01
00
01
FF
00
01
FD
FE
00
00
FE
FE
01
FF
00
FF
02
01
FF
FC
02
00
00
FE
00
00
FF
FE
03
01
FF
00
FF
00
FE
FE
00
02
FF
00
01
FF
FD
FF
00
02
FE
00
03
01
FF
02
01
01
02
00
02
00
02
00
02
FE
01
FF
00
01
03
00
02
00
01
00
02
FF
02
00
FF
01
FF
00
04
00
01
00
00
00
FD
00
01
01
01
FE
00
02
00
01
00
FF
00
00
00
02
00
00
FF
FE
00
01
FF
01
00
00
FE
00
01
01
00
FF
FF
00
FF
FE
01
00
01
00
01
00
FF
00
01
01
00
00
00
00
00
FF
00
01
01
FE
00
01
00
FF
FE
FE
01
00
00
00
FF
00
FD
00
FF
FF
03
00
FE
FF
FD
02
01
02
06
00
01
00
FD
01
00
FF
02
00
FD
00
00
FE
02
FF
00
FF
FE
01
00
FF
01
00
FF
00
00
FE
00
FF
00
FF
FF
00
00
02
00
FE
02
FE
FE
00
00
03
FF
FC
01
FF
01
00
02
FF
FF
FF
01
00
00
00
01
00
00
FD
00
01
FF
01
FF
FF
FE
FE
FF
00
FD
FF
00
04
FF
00
FF
FE
FC
00
FA
00
FE
FD
00
FD
00
FE
00
00
02
00
00
01
01
FE
00
01
FE
FE
FF
02
01
00
03
00
FE
FF
00
05
01
01
02
00
01
02
00
02
00
FF
00
FF
03
01
FF
FF
03
FD
FB
00
FE
00
01
01
00
FC
FC
00
FC
FC
01
00
01
FE
02
00
03
01
00
01
01
01
00
01
00
FF
FF
00
01
FD
FF
00
FF
02
00
FE
01
FF
FC
00
01
FC
01
01
FE
FE
FF
FF
00
FD
04
FE
FE
FF
00
00
02
00
00
01
01
FF
00
00
FF
00
FE
00
FF
FF
FE
00
02
00
FF
FE
01
FF
FE
00
01
FB
03
00
FF
00
01
FF
00
FC
04
01
FF
00
01
00
01
00
01
01
00
FF
00
00
FE
FF
FF
FF
01
01
FE
00
FF
FE
FF
FF
02
FE
FE
00
02
FC
02
01
00
FF
00
00
00
FE
03
04
02
FF
03
00
00
FE
01
FF
00
FD
01
00
00
FF
03
FD
00
FE
FF
00
FF
FD
01
FE
01
00
01
FF
FF
02
02
FF
02
00
02
FE
FE
FE
FF
01
01
00
FF
FF
FF
00
00
01
01
01
FF
FF
01
02
FF
FF
FD
00
00
00
02
01
FF
FD
01
00
01
03
01
FE
FF
FE
00
FF
04
03
02
FF
FE
01
00
00
FF
01
00
01
FD
01
00
FF
FE
01
FD
02
FF
FC
FF
00
FD
FD
FF
02
FF
FE
03
00
02
04
02
FF
FF
FF
01
01
00
02
02
00
FF
01
01
FF
FE
02
FC
00
FD
FF
02
FF
FF
FD
FC
00
FF
FE
FF
FF
00
FF
FE
01
00
02
02
00
04
02
02
FF
00
00
03
00
04
01
01
FE
00
00
02
01
01
01
00
FF
01
FF
01
FF
02
02
01
00
01
01
01
00
00
02
02
FD
01
FF
01
00
02
00
04
01
00
00
01
01
02
FF
01
01
00
00
01
00
FF
01
02
01
00
03
FF
01
01
FF
00
02
01
01
FF
00
02
02
FF
00
01
00
00
02
02
FF
02
FF
FF
FF
01
01
01
00
00
FC
02
FD
01
02
01
00
00
F9
00
00
00
01
FE
FF
00
FF
00
FF
01
00
FD
FF
FF
01
FE
00
00
00
01
00
01
FC
02
00
00
00
03
FF
FE
FC
00
01
01
FF
01
01
FF
00
00
FE
02
FF
00
00
00
01
02
FF
00
00
FF
00
00
01
00
00
FF
FF
FE
FF
FF
FC
00
FF
FF
FF
00
01
FE
02
FE
02
01
01
FE
FF
FF
01
00
01
00
02
01
01
01
00
00
01
FE
FF
00
00
01
00
01
FE
03
FE
FF
00
00
02
FD
FF
00
FD
FF
00
FF
01
FF
01
00
00
FD
01
00
03
00
02
02
02
FF
FF
FF
00
FE
00
FE
01
00
01
01
FF
00
00
FB
FC
FA
FF
FA
02
FC
02
FD
FB
FF
00
FB
02
00
03
FF
FD
00
01
FF
01
00
01
FD
FE
01
FF
00
00
FF
00
FE
FF
00
00
01
00
FF
01
03
FF
00
01
00
02
02
00
03
00
00
00
01
00
03
00
02
00
01
00
02
00
02
00
00
00
02
00
02
FF
01
FF
FF
00
03
00
02
FF
00
02
FF
FF
00
FF
01
00
01
00
01
00
FE
FF
FF
01
FF
01
01
FF
01
01
01
01
FF
02
00
00
01
02
01
01
01
FD
03
00
01
02
02
02
01
00
00
00
FF
FE
FF
00
FE
FE
00
00
FF
03
00
00
FF
FF
00
00
00
01
01
01
01
02
02
01
00
02
01
01
00
02
03
01
01
02
00
FF
01
FF
02
00
FE
FD
FD
00
FD
01
01
01
FF
00
00
00
FF
01
01
FF
00
FF
01
01
FE
01
02
00
02
05
01
02
FE
FF
00
00
02
02
01
FF
FF
FD
FD
00
02
FF
FE
FD
FB
FF
FE
00
00
FF
FE
FD
FC
01
FF
00
FF
FF
FD
FF
FC
00
FF
00
FF
05
FC
00
FF
FF
02
00
FB
02
FC
00
00
02
FE
FE
FD
01
FE
FF
00
02
FF
FE
FF
00
01
03
02
FF
00
FE
FF
00
00
00
01
FA
FF
FD
FF
01
01
FD
00
FE
FE
00
00
00
00
FE
02
00
FE
FF
00
01
FE
01
FE
00
FE
FF
01
00
01
02
FF
FF
FF
FF
00
FF
00
02
01
FF
00
00
01
01
FF
00
00
00
01
02
01
00
00
00
00
01
01
FF
00
01
FF
01
FF
FF
01
FF
01
00
01
00
00
00
FF
FF
FF
01
FF
01
00
00
01
01
01
00
FF
00
FD
01
03
02
01
00
00
01
FF
02
01
02
00
00
FF
01
FD
FE
00
00
FE
FF
01
02
FE
FF
FF
FF
00
01
02
01
FF
FF
00
00
FE
00
00
01
00
00
01
FF
01
00
00
00
00
03
02
03
04
00
01
01
FE
FE
01
02
01
00
02
03
FD
FC
00
FF
FF
FF
02
02
01
01
01
02
FD
00
03
00
00
FF
01
01
00
01
03
FF
01
01
FF
00
FF
FF
FE
FF
FC
00
FF
00
FF
00
FF
FE
FE
01
FC
00
00
01
FF
00
FF
00
FD
01
FF
00
FF
FF
FF
03
01
FF
00
01
FF
FE
01
00
00
00
00
01
FE
FE
00
01
01
00
01
00
FE
FF
FF
FE
01
00
01
01
FF
01
02
00
FF
00
FE
FF
FF
FF
FF
03
FC
FF
00
FD
FF
FE
00
FF
FD
00
02
00
00
00
FD
FE
FF
01
02
00
01
00
FF
FF
00
01
02
00
01
FE
FF
FF
00
FF
FE
FF
01
FF
FF
FF
00
FF
FD
FC
FF
00
00
FE
FB
01
00
FF
01
01
01
FE
FB
00
FF
01
01
02
FF
FF
FE
01
00
03
02
01
FF
02
00
00
01
FE
FF
00
FD
01
02
00
00
FC
00
00
00
01
FF
00
FE
00
FE
03
02
00
00
00
00
FF
00
02
01
01
01
01
01
00
02
01
00
01
02
00
FF
01
00
FF
00
02
02
01
01
03
02
00
02
00
FF
00
FF
00
00
00
00
FF
00
00
00
00
FF
00
01
FF
00
FF
00
FF
FF
FF
00
00
00
00
FF
01
00
FF
00
FF
00
FF
00
00
00
00
01
00
00
FF
00
FF
00
FF
00
00
00
FF
FF
01
FF
00
00
FF
FF
FF
00
00
FF
FF
FF
00
00
FF
00
FF
00
00
01
FF
00
FF
00
00
FF
00
FF
FF
00
00
00
00
00
00
00
00
00
01
00
01
FF
FF
FF
00
FF
00
00
00
00
00
00
FF
00
00
00
01
00
00
00
01
01
FF
00
00
00
00
00
00
00
00
00
01
FF
FF
00
00
00
FF
00
00
00
FF
FF
FF
00
FF
FF
00
00
00
01
00
FF
00
00
00
FF
00
FF
00
00
FF
00
01
00
01
00
FF
00
FF
00
FF
00
FF
00
00
00
FF
00
00
00
00
00
00
00
00
00
00
FF
FF
00
FF
00
00
FF
00
00
00
00
00
00
FF
FF
01
FF
00
00
01
00
00
FF
FF
00
00
FF
00
FF
00
00
00
FF
00
00
00
00
FF
00
00
00
00
00
00
FF
FF
00
00
00
00
00
FF
00
00
FF
00
00
FF
FF
00
00
FF
00
FF
00
01
00
FF
00
00
FF
00
FF
FF
00
00
00
00
00
00
00
FF
00
00
00
FF
FF
00
00
00
00
00
FF
00
FF
FF
00
00
FF
00
00
01
FF
00
00
00
00
00
00
00
00
00
FF
00
00
FF
FF
00
01
FF
FF
FF
00
FF
FF
FF
FF
00
00
FF
00
00
00
01
00
01
FF
00
00
00
FF
00
FF
00
01
00
FF
00
FF
00
FF
FF
00
00
00
00
00
00
00
00
00
FF
00
00
FF
00
FF
00
00
00
00
01
00
00
00
FF
FF
FF
00
00
FF
FF
00
FF
FF
00
00
FF
00
01
00
FF
00
00
00
00
FF
00
FF
FF
00
00
00
00
00
00
FF
00
00
FF
00
FF
00
00
00
FF
00
FF
00
FF
00
FF
00
00
FF
00
00
00
00
00
FF
00
FF
00
FF
00
00
01
FF
FF
FF
00
FF
01
FF
00
00
FF
00
00
00
00
00
01
00
00
FF
FF
01
00
FF
00
FF
01
00
00
FF
FF
FF
01
00
00
01
00
00
00
00
00
FF
00
00
FF
FF
00
00
01
00
00
FF
00
FF
FF
00
FF
FF
00
00
00
00
00
FF
FF
00
01
FF
00
FF
00
01
00
FF
FF
00
FF
00
00
00
FF
FF
00
00
00
FF
FF
00
00
00
01
00
00
FF
00
FF
00
00
00
FF
00
FF
FF
00
00
FF
00
00
00
00
FF
00
00
FF
FF
00
00
FF
00
00
00
00
00
FF
00
00
00
FF
00
00
00
00
FF
00
FF
00
00
00
00
00
00
00
00
00
00
00
00
01
00
FF
FF
FF
FF
FF
FF
FF
00
FF
00
00
FF
00
00
00
00
00
FF
FF
FF
FF
FF
00
FF
FF
00
00
00
00
FF
00
00
FF
FF
00
00
00
FF
00
FF
FF
00
00
00
00
FF
00
00
00
FF
00
01
FF
FF
00
00
FF
00
00
01
00
00
00
00
00
FF
00
00
FF
FF
FF
00
FF
00
FF
00
FF
00
01
FF
FF
FF
00
00
FF
00
00
FF
00
00
00
01
FF
FF
01
00
00
00
00
01
00
00
FF
FF
FF
00
00
00
01
00
FF
00
FF
01
FF
00
FF
FF
00
FF
00
FF
FF
FF
00
00
FF
00
00
00
00
00
00
FF
00
00
FF
00
FF
00
00
00
FF
00
00
FF
FF
00
00
00
FF
FF
00
00
FF
00
00
00
00
FF
00
00
00
00
00
00
00
00
01
FF
00
00
00
FF
FF
00
FF
01
00
00
00
00
FF
FF
FF
00
00
00
01
FF
00
00
01
00
FF
00
00
FF
FF
00
00
00
00
FF
FF
00
00
00
00
00
00
01
FF
00
00
FF
00
00
00
00
01
FF
FF
FF
00
FF
00
00
00
01
01
FF
FF
02
FE
FD
FF
FF
01
FF
03
01
FE
FF
00
00
01
FF
00
01
FD
01
01
00
FF
FF
01
02
FD
00
00
00
FD
01
00
00
02
FE
01
00
FF
00
FE
01
FD
01
01
00
00
FF
01
02
00
03
02
00
02
01
01
FF
FD
02
03
00
FF
00
01
00
FD
02
02
00
00
FF
FF
02
FE
01
00
FF
FE
00
FE
02
01
01
01
00
01
FD
01
FF
02
02
00
00
01
FC
00
00
FF
01
01
01
01
FF
02
02
FF
02
03
FF
FD
01
00
03
01
FF
01
FF
FE
02
FC
02
01
01
FF
00
01
FD
02
FE
03
00
03
00
02
FE
02
01
02
FF
FF
00
00
FF
00
03
02
FF
03
FF
01
01
FD
02
01
01
01
00
FE
01
FE
00
FF
FE
FE
00
01
02
03
FF
FF
FC
FF
00
FE
01
01
03
00
FD
00
00
01
01
02
01
01
FF
03
01
02
01
01
FF
FF
01
01
FF
03
FE
02
02
FE
00
FD
00
FE
FB
FF
01
FA
00
FE
01
00
FE
FE
FF
FB
FF
FF
01
00
FE
01
FF
FF
FF
FE
00
00
FE
01
FE
01
01
FE
FE
00
01
FE
FF
FF
00
FE
00
00
FF
00
00
00
FF
FF
02
FE
FE
01
00
FF
00
00
00
01
FC
03
FF
FD
01
FF
FF
00
FD
00
FE
FC
00
FF
FE
FF
00
00
01
FE
FF
FF
00
01
01
04
01
01
FF
FE
02
00
00
01
02
04
00
01
FD
00
01
01
FE
FC
00
FC
FD
FF
FF
01
FD
F9
01
FD
FB
FE
FF
00
02
00
FF
00
01
FF
03
02
01
02
01
FF
01
01
01
01
01
03
00
FF
FF
FF
00
01
FF
00
00
FE
FF
FD
01
FF
FE
FF
00
FC
FD
00
01
02
FF
FE
00
02
02
02
01
00
FF
FF
00
01
04
01
FF
01
01
02
00
01
06
FE
00
FF
00
03
FF
01
04
00
01
00
FF
02
00
00
03
01
FF
03
FF
FF
FF
F9
00
FB
FD
FC
00
01
FF
FA
00
FF
FD
FE
00
01
02
FE
00
01
00
01
FB
03
02
00
00
FF
FF
FF
FD
01
02
FE
00
04
FF
FE
00
FC
00
FE
FF
01
00
FC
02
00
00
FE
00
02
03
FF
00
FE
01
FF
FF
01
00
02
FE
FE
02
02
00
00
FF
01
01
FE
00
FF
00
FD
FF
02
02
00
01
03
00
01
00
00
FE
02
FF
01
00
00
FE
FD
00
FE
FF
01
00
00
FE
01
02
00
FE
01
00
00
03
03
04
00
FE
01
FF
FC
00
00
00
01
00
01
00
FF
FD
00
FF
00
FF
02
00
01
FF
FE
01
FC
FE
00
00
FE
01
FE
04
00
02
01
01
FF
02
FD
02
00
02
03
01
FE
00
FF
02
01
00
02
00
01
01
02
00
01
00
00
00
FF
01
FF
02
00
00
00
01
01
FF
00
02
01
01
00
00
00
01
FE
FF
FF
01
02
01
01
00
00
FF
FA
FF
00
FF
FF
FE
FE
FE
FB
00
01
00
03
02
FE
01
FD
00
02
00
01
01
FF
FF
03
FF
01
01
01
01
02
01
01
00
01
FF
00
03
FF
00
FB
00
00
FF
FF
00
00
FE
00
00
01
FF
01
02
00
00
00
01
FE
02
FE
01
00
FF
FC
FF
FF
01
01
01
01
02
01
00
02
00
00
FE
01
01
00
00
FE
FF
00
00
03
FF
FF
FF
FE
02
FD
FF
00
01
00
00
FE
FE
FC
FF
FF
00
FE
00
FC
FE
FC
00
00
FF
FC
FF
FE
02
FD
FD
FF
00
01
FF
FF
01
00
00
03
01
00
01
00
00
FD
00
00
01
FF
00
FF
00
FD
FF
00
FF
00
00
FF
FC
FD
FD
FF
FD
FD
00
01
FF
FD
FE
00
FF
00
00
01
02
05
01
04
FE
00
00
01
03
04
00
01
FE
00
00
02
03
02
00
01
01
00
FF
03
02
02
01
FF
00
00
00
04
06
02
00
00
FE
01
FF
FC
00
FF
03
FD
FF
00
00
FE
FF
FF
02
00
FD
00
FD
FF
00
FF
FF
01
FE
00
00
02
00
00
02
01
FF
FE
01
FF
00
FF
FD
02
FF
00
FE
FD
00
FF
01
FE
00
01
FF
FF
00
00
01
00
00
01
FF
FF
01
01
01
FF
FE
00
01
01
00
00
01
00
FF
FF
01
01
00
00
FE
02
02
FC
01
01
00
00
02
FF
01
FE
01
01
00
01
FF
FE
00
01
00
00
00
FE
FF
00
FE
FE
00
FF
00
03
FF
02
01
FE
FF
00
00
FE
00
02
01
01
02
03
01
01
00
01
01
02
01
02
00
02
FC
FF
FD
FF
00
01
FF
01
FF
FF
01
FE
00
FF
FF
02
01
01
01
FE
01
02
00
00
02
00
FE
00
01
01
00
00
FD
02
FD
01
00
FD
01
01
FB
00
FD
00
00
FF
00
01
FF
02
01
FF
01
FF
00
00
FF
01
FF
00
00
01
00
00
01
00
FF
FF
00
00
FC
FF
00
FC
01
00
FF
02
FF
00
FF
FF
00
FF
00
02
FF
00
FF
FE
01
01
FF
02
00
00
00
FF
00
01
00
00
FF
FF
FD
02
FF
FE
FF
FE
FE
01
FF
FC
FF
FF
00
FF
FF
FF
00
FE
00
FF
00
00
01
00
02
01
01
FE
00
02
00
03
00
01
03
00
00
02
00
02
FD
02
00
00
FF
00
02
01
FF
01
FF
00
FF
02
03
00
FE
02
FD
FF
01
02
02
00
FE
02
01
00
00
00
FF
01
02
FF
FE
FF
FF
01
04
FF
00
FF
01
01
00
00
01
01
FF
02
01
01
00
FE
03
FF
FF
00
00
FF
FF
00
01
FF
00
02
00
FF
01
FF
FF
FE
01
FF
01
01
00
01
02
FD
01
01
00
04
FF
01
02
03
02
02
01
03
00
03
00
02
02
FF
00
01
FF
02
FF
01
00
00
01
FF
00
02
02
01
FE
00
01
FE
00
01
02
02
00
00
FD
01
00
01
00
FF
01
01
FD
00
FE
01
00
FF
01
02
04
FF
FE
01
FF
FE
00
01
05
FE
00
02
00
FE
04
01
01
FC
01
03
00
00
02
00
FE
03
FD
FD
00
FE
02
00
00
02
FE
FC
01
FD
04
01
03
00
FE
00
00
00
04
01
04
FF
02
FF
01
FF
01
FE
01
FF
00
FF
FF
FF
01
FE
FE
FD
FF
FE
00
FD
02
FF
03
FF
00
FD
FF
FC
02
FF
FE
FF
02
FF
00
01
FF
00
00
00
02
FF
FF
00
02
01
FF
FF
02
FD
01
FF
FF
02
FF
FD
01
01
FF
FF
00
FF
01
00
01
00
01
FE
FD
FD
FF
00
01
00
00
00
01
FF
01
FE
FF
00
FF
FE
01
00
00
FF
01
00
FF
01
00
00
01
FF
01
00
00
01
FC
01
01
00
01
FF
00
FF
00
FF
01
01
00
00
FF
00
00
FF
01
FF
FF
FF
FF
00
00
00
FF
01
01
00
00
FE
00
FF
FF
FE
00
00
FF
FF
02
00
00
00
00
01
FF
00
FE
00
00
FF
00
00
FF
00
FD
00
03
01
00
01
00
FF
FF
01
00
03
00
FF
FE
01
FF
FE
00
00
00
FF
FF
FF
01
FD
FF
FE
00
00
FE
FF
FF
FF
01
FB
00
00
FF
00
01
FF
01
FE
FF
01
01
00
01
01
FE
00
00
01
01
02
FF
FF
00
01
00
00
FF
FF
FE
FD
FF
01
FF
01
FF
FE
FE
FF
01
FE
00
FF
02
FF
01
FF
02
FF
01
02
01
00
02
01
01
FE
00
01
04
02
01
00
01
FF
FF
01
01
01
FD
01
01
00
FF
FF
01
FE
FE
00
00
00
00
00
FF
FF
01
01
00
00
00
02
01
01
01
FF
03
FF
00
01
04
FF
01
00
01
01
FF
01
01
00
01
00
00
01
00
01
00
00
02
01
FD
00
00
00
FF
01
01
00
00
FF
FF
03
00
01
00
00
01
FF
00
02
01
02
FF
FF
03
FE
01
FD
FF
FF
FB
FF
00
FE
00
FC
01
01
01
FF
FE
00
00
FD
00
01
00
00
FB
FF
00
00
FF
01
FE
00
FD
FF
03
FE
FF
02
FE
01
01
FD
01
01
01
03
FD
00
FF
FE
01
00
00
04
FF
00
00
00
00
FF
00
00
FF
00
FF
01
FE
01
01
00
00
00
00
00
00
01
01
01
FF
04
02
00
00
01
FF
01
00
01
FD
FF
FD
02
00
02
FE
02
FE
00
FE
02
FF
00
FF
00
00
02
FC
00
00
01
01
00
02
00
00
01
00
01
00
FE
02
FF
00
00
00
FE
FE
FF
FF
FF
00
01
00
01
01
FF
00
00
FE
02
00
FF
01
00
FF
00
FF
FF
00
00
00
01
00
00
FD
FF
00
01
01
00
01
02
02
03
01
01
00
FE
FE
01
00
01
00
01
01
FF
FC
FF
FF
00
FF
FF
FF
02
FF
00
02
01
FF
00
FF
00
02
00
FE
01
FF
FE
00
FF
00
FF
00
FF
00
00
FF
FD
00
FF
FF
FF
00
02
01
FE
01
FF
FF
02
01
01
02
00
00
01
00
01
02
00
00
01
04
FF
00
01
00
00
FF
03
01
02
FF
00
01
FF
00
01
02
00
FF
00
FF
00
01
01
FF
00
00
FE
00
FF
01
01
FF
FF
00
00
FF
FF
FF
00
06
FD
00
00
FD
FF
FE
01
01
00
FF
02
FF
01
FF
02
00
00
00
02
FE
FF
00
02
FE
FF
00
FF
FE
FE
00
01
00
FF
01
FD
FC
00
FF
FF
01
FE
FF
00
FD
FF
01
FE
FF
FE
01
01
FF
FF
FF
00
FF
FE
FF
FE
FF
02
01
01
00
FE
00
FE
01
01
00
FF
00
FF
FF
00
FD
FF
00
FE
01
00
00
00
FF
FE
01
01
00
00
00
FF
02
02
01
04
FF
00
FF
01
FE
01
01
00
00
02
00
02
FF
01
01
01
FE
FF
00
01
01
00
FF
01
FF
FF
01
02
FC
00
01
00
00
00
00
00
01
00
01
00
00
FF
00
00
00
FF
00
00
00
00
00
FF
00
00
00
FF
00
FF
01
FF
01
00
00
FF
FF
00
00
00
00
FF
FF
FF
00
FF
FF
00
FF
FF
FF
FF
FF
FF
00
FF
00
00
00
FF
FF
FF
00
00
00
FF
00
FF
FF
00
00
00
FF
00
00
FF
00
FF
00
00
FF
00
FF
FF
00
FF
00
00
00
00
FF
00
00
00
00
00
00
00
FF
FF
00
FF
FF
00
00
00
FF
FF
00
FF
00
FF
00
FF
00
00
00
00
00
FF
00
FF
00
FF
FF
00
00
FF
01
00
FF
FF
FF
01
00
00
00
01
FF
00
00
FF
00
FF
00
01
FF
00
01
00
00
FF
FF
00
00
00
00
00
00
00
00
FF
FF
00
00
00
00
00
00
00
00
00
FF
00
00
FF
FF
FF
00
FF
00
FF
00
00
FF
FF
FF
FF
00
FF
00
FF
00
00
FF
00
00
FF
00
00
00
FF
FF
00
00
00
00
FF
00
00
FF
FF
FF
00
FF
00
00
00
FF
FF
FF
00
00
FF
00
00
00
00
00
00
00
00
FF
00
FF
FF
00
00
00
00
00
00
00
00
FF
FF
01
FF
FF
FF
01
FF
00
FF
00
FF
00
00
00
00
00
00
00
00
00
01
00
00
00
01
00
00
00
00
00
00
00
00
00
FF
FF
00
FF
00
00
00
01
00
00
FF
FF
00
FF
00
FF
FF
FF
FF
FF
FF
00
FF
00
00
00
01
00
01
FF
FF
00
FF
00
00
00
00
00
00
01
00
00
00
FF
00
FF
00
00
FF
FF
FF
FF
01
00
00
FF
00
00
00
01
00
00
00
00
00
00
00
00
00
00
01
FF
01
FF
FF
00
FF
FF
00
00
00
FF
FF
FF
00
FF
00
00
00
FF
00
FF
00
00
FF
00
00
FF
01
00
00
00
00
00
00
FF
FF
FF
FF
FF
FF
00
00
00
FF
00
FF
FF
00
00
01
00
00
00
FF
00
00
00
00
00
00
FF
00
00
00
FF
FF
00
FF
01
00
FF
FF
00
FF
00
00
00
00
01
00
01
00
00
00
00
00
FF
00
00
FF
00
00
FF
01
FF
00
FF
00
01
FF
FF
FF
00
FF
FF
00
FF
00
00
FF
00
00
00
00
01
FF
00
00
FF
00
FF
00
FF
FF
FF
00
00
00
00
00
00
00
00
00
00
00
00
FF
01
00
00
FF
FF
00
01
00
00
FF
00
00
FF
FF
FF
00
00
00
00
00
00
00
FF
00
FF
00
FF
00
00
FF
00
FF
01
01
00
FF
00
FF
FF
00
FF
01
00
FF
01
00
00
00
00
00
FF
00
00
00
00
00
01
00
00
00
00
01
FF
FF
00
FF
00
00
FF
FF
00
00
00
00
00
00
FF
FF
00
00
00
00
00
00
00
FF
01
00
00
00
00
FF
FF
FF
00
00
FF
01
FF
FF
00
00
01
00
FF
00
FF
00
00
00
FF
00
01
00
FF
00
00
00
00
FF
00
00
00
FF
00
01
FF
00
00
00
00
00
01
00
00
FF
00
00
00
00
00
01
FF
01
00
00
00
00
00
00
FF
FF
00
00
00
FF
00
00
00
00
00
00
FF
00
FF
FF
00
00
00
00
00
FF
FF
01
00
FF
01
00
00
00
00
00
01
00
00
FF
FF
00
00
FF
00
00
00
00
00
00
00
00
00
FF
01
00
00
00
00
01
FF
00
01
00
00
00
00
FF
01
01
FF
00
00
FF
FF
01
00
00
FF
00
01
00
00
00
01
FF
FF
00
01
00
00
00
01
00
00
01
FF
00
FF
00
01
FF
00
00
FF
00
00
FF
00
FF
00
FF
00
00
00
FF
00
00
FF
FF
FF
00
00
00
00
00
00
00
00
00
00
00
00
00
00
00
FF
FF
00
00
00
00
00
00
FF
00
00
00
01
00
00
00
FF
FF
00
FF
00
01
00
00
00
00
00
01
00
00
00
01
00
FF
00
00
00
00
00
01
FF
00
00
00
FF
00
FF
00
00
FF
00
FF
00
00
00
00
FF
FF
01
00
00
01
FF
00
00
00
00
00
00
FF
00
FF
FF
FF
00
01
00
01
00
00
FF
FF
00
01
FF
FF
00
01
FF
00
FF
01
00
00
01
00
01
FF
00
00
00
00
00
FF
00
FF
00
01
00
00
00
00
FF
FF
00
FF
FF
00
00
00
00
00
FF
01
00
00
00
FF
01
FF
FF
00
00
FF
00
00
01
00
FF
00
00
00
00
00
FF
00
FF
01
00
FF
01
00
00
01
FF
00
00
FF
00
01
00
FF
FF
00
FF
00
01
00
FF
00
FF
00
FF
00
00
00
FF
00
FF
00
00
00
00
01
FF
FF
00
FF
00
FF
00
00
FF
00
00
00
FF
FF
01
00
01
00
01
00
FF
FF
00
00
00
FF
FF
00
FF
00
00
00
00
00
00
00
00
FF
00
00
00
FF
00
00
FF
00
01
00
00
00
00
01
00
FF
00
00
00
FF
FF
00
00
FF
FF
FF
00
00
00
00
00
FF
00
00
FF
00
00
FF
00
01
00
00
00
00
00
00
00
FF
00
FF
FF
00
00
FF
00
FF
FF
FF
00
00
00
00
00
00
00
00
00
FF
01
00
FF
01
FF
00
FF
FF
FF
00
00
00
00
FF
00
FF
00
00
00
FF
00
FF
00
FF
00
00
FF
FF
FF
FF
00
FF
FF
00
01
00
FF
FF
00
00
00
01
01
00
00
00
00
FF
00
FF
00
00
00
00
FF
00
00
00
FF
00
00
00
00
00
FF
FF
00
00
00
00
FF
FF
00
FF
00
00
00
00
00
FF
FF
00
00
00
00
00
00
00
00
00
00
00
FF
FF
00
00
FF
FF
00
00
00
00
01
00
00
00
00
00
01
00
00
FF
00
00
01
00
FF
01
00
FF
00
FF
00
00
FF
00
FF
FF
00
01
01
00
00
00
00
FF
00
00
00
00
00
00
00
00
FE
02
00
00
FF
FF
FE
02
FE
00
FE
FD
FF
00
FE
00
FF
00
01
FF
00
04
FD
01
FD
00
01
FD
FF
02
FF
01
FD
FD
01
00
01
01
FD
03
FF
FF
00
03
01
FE
FE
00
FE
FD
FE
01
00
02
01
00
02
FF
FF
FD
00
01
FE
01
FE
01
01
01
01
00
FF
02
00
FC
03
01
00
01
FE
03
01
FF
00
03
00
00
00
FF
FF
FF
00
01
00
FF
04
FE
02
00
00
00
01
FE
FF
01
03
00
00
01
00
FE
01
00
01
00
01
00
00
00
01
00
FF
04
01
02
00
01
02
01
FF
02
01
FF
00
FF
04
FE
00
01
00
FD
00
FF
FF
FE
FF
01
01
01
00
FF
01
FD
02
FF
01
00
00
FF
01
FD
01
01
00
01
00
FE
FE
00
00
FF
FD
FF
01
FE
FE
02
FF
00
00
FD
00
FF
02
FF
00
01
00
00
00
FF
00
FD
02
FE
FF
00
00
01
01
FC
FF
01
00
01
01
02
01
03
00
02
FF
00
00
01
01
FF
02
03
FF
00
00
00
02
FF
FF
00
FF
00
02
01
FF
03
01
FF
00
00
01
01
FF
02
01
FC
FF
01
FE
01
01
FF
01
00
00
FF
FE
FE
01
FE
01
02
FF
00
00
FD
01
FF
01
02
00
FF
01
00
00
01
03
FE
00
FF
02
00
FF
02
00
FB
00
FD
FE
00
FF
02
FE
FF
01
00
FF
FF
00
01
FF
00
01
00
FD
FF
FF
FE
00
01
01
00
FF
FE
FF
FF
01
00
00
01
FE
FD
00
00
FD
00
FF
FF
FB
FF
01
04
FE
00
01
FF
FD
02
00
01
00
00
FF
00
00
02
00
FF
00
FE
00
00
01
01
00
00
FE
FC
01
02
FD
FF
00
FE
01
00
01
01
FC
FF
FF
00
00
FF
FF
FD
FE
00
00
FF
00
01
FF
FC
FF
FF
01
FE
FE
01
01
FE
02
FD
02
FD
FE
01
00
FC
FC
FE
02
FD
FE
01
FE
FF
FF
01
FF
FF
FE
00
FF
01
00
00
FE
02
FC
00
01
01
01
FD
FD
02
FE
00
00
03
00
00
FF
01
00
FC
00
01
FF
00
FE
01
FE
01
FD
FA
00
FC
01
00
FE
01
FF
FE
FF
FD
FF
02
01
00
01
FF
00
00
02
01
00
FF
01
02
00
03
00
00
01
FF
02
02
FF
FF
00
FF
00
FF
00
FB
00
FC
00
FE
FE
FE
FF
FD
00
00
02
FE
00
FD
01
FD
01
01
01
00
FF
00
01
02
00
00
00
FF
01
02
02
01
00
00
00
FF
02
FF
01
FE
00
00
02
FF
FE
00
02
FF
01
02
00
00
FF
01
02
FE
01
03
00
01
FF
01
01
FF
FF
FF
01
01
00
04
02
00
00
01
00
FF
02
00
00
01
00
01
01
02
00
01
01
02
00
01
00
FF
FE
01
FF
FE
FF
00
01
00
FD
01
00
FF
00
02
00
00
FF
01
01
FF
00
02
02
FF
FF
02
00
02
00
00
00
FE
FF
03
00
02
00
00
00
01
01
01
00
00
02
00
FF
00
02
00
00
FF
01
00
FF
00
02
FD
01
FF
00
FF
FD
02
FE
02
01
00
00
00
01
FF
00
00
00
03
FF
01
01
FC
00
FF
00
FF
00
00
01
FF
03
FF
00
FE
00
FD
00
02
04
FB
00
FE
FE
FE
FF
03
FD
FE
00
FF
00
00
FF
FC
FF
00
FF
00
01
02
02
FD
FF
00
01
01
00
00
FF
FE
FF
01
00
00
FF
FF
FF
02
FE
FE
00
01
FE
02
FF
02
01
FF
00
00
01
01
01
02
01
02
00
FF
02
00
00
00
FF
FF
00
01
01
00
FF
01
00
FF
00
00
FC
02
FF
00
01
01
00
02
FD
01
02
00
01
FF
00
00
02
01
01
01
FE
01
00
00
00
00
01
01
FD
01
01
00
01
00
01
01
00
02
00
02
00
02
00
FF
02
04
FF
03
01
00
03
01
FF
01
01
04
00
01
01
FF
01
01
FF
04
00
00
00
00
03
01
00
01
00
FE
FE
FC
00
01
01
02
00
01
FE
FF
01
02
00
FF
01
00
03
FF
00
01
FE
FF
00
FD
FF
01
02
02
FE
00
00
FD
00
01
01
01
FF
01
00
FF
FF
FF
FF
FF
01
00
FF
03
FF
FF
01
03
02
FE
FF
FF
02
FD
FF
00
00
00
00
FE
FE
00
00
FF
FF
01
00
FF
01
FF
00
00
FE
FF
01
00
02
01
FE
00
02
00
01
02
FD
00
01
01
01
00
00
01
FE
02
FF
00
00
00
00
FF
01
00
01
00
FF
00
00
00
01
00
01
FE
00
00
01
01
00
00
00
00
FF
FF
00
FF
00
00
FF
02
02
FF
01
FF
FC
01
FF
00
00
FE
00
01
04
02
00
FF
01
00
00
00
03
01
02
00
00
FD
01
FF
03
00
00
00
FE
FF
00
FE
00
01
FE
01
00
00
00
00
01
FF
00
01
00
01
02
02
FF
03
FD
02
00
00
01
01
FF
04
FF
03
00
FF
FF
00
FF
FE
01
02
00
00
FF
00
02
FD
FE
01
00
01
FE
01
02
FE
FF
FE
01
01
FF
FF
02
01
FD
FF
00
01
02
01
01
00
00
02
00
FF
02
01
01
FD
01
01
01
FF
01
FF
02
FE
FF
01
00
FF
00
FF
03
02
00
01
FF
00
04
03
FF
FE
FE
00
00
FF
04
02
00
00
01
01
00
FF
03
FF
01
FF
00
03
FF
01
03
FE
00
FF
01
02
00
04
03
00
FE
03
00
00
00
01
02
01
00
FE
FF
FF
00
02
01
FF
01
00
00
01
01
01
02
FF
FF
02
00
01
00
01
01
FF
00
01
01
02
01
05
01
FF
FD
01
00
01
00
00
01
02
01
FF
FE
00
00
00
01
02
00
01
FD
00
FF
02
02
01
FF
00
FF
01
FF
02
00
02
01
FE
03
FF
00
03
03
00
00
FF
00
FF
FF
FF
00
FF
00
01
00
FF
02
01
00
FF
FF
02
FE
00
01
01
00
00
01
00
00
FF
FF
00
00
FF
00
00
00
FE
FF
00
00
FF
FF
FE
01
FE
FE
FF
01
FF
01
FD
00
FE
00
01
01
02
00
FF
FF
00
FF
01
00
00
00
FF
00
00
01
FE
FF
00
01
00
00
00
FE
01
FF
FF
FF
00
00
FD
FF
FE
01
FD
FF
FF
00
00
01
00
01
02
FE
00
FF
01
02
00
01
00
FE
00
01
00
01
00
00
00
FF
FF
FF
00
01
01
FF
01
FF
01
FF
FC
FF
FE
FF
FE
FF
00
FF
FF
02
00
00
00
FE
FF
FD
FF
00
01
01
01
00
00
00
FF
01
FF
00
FF
00
00
00
FF
00
01
00
00
00
FE
FF
FE
FE
FF
FF
00
00
FF
00
00
00
FF
FF
00
FE
FF
FE
00
01
01
00
00
FD
00
FF
00
00
00
00
FF
FF
00
FF
FF
01
00
FF
FE
00
FF
04
02
01
FF
FD
FE
00
FE
01
01
FF
FF
FF
00
FF
01
00
FF
00
FF
FF
00
FF
02
FF
FF
00
00
FE
FE
00
01
FF
FF
FF
FF
00
00
FF
00
01
02
00
01
FD
FF
FF
FD
01
00
00
FE
FF
FF
FF
00
FF
FE
00
00
FF
FE
FF
03
02
01
00
00
FE
FE
FF
01
FE
00
FF
00
00
00
FF
01
00
01
00
FF
FE
00
FE
FE
01
00
00
FF
FF
FF
FE
FF
FE
FF
00
FE
FF
FE
FD
02
FF
FE
01
FE
00
00
FF
02
00
00
01
FE
FF
00
FF
01
FF
FF
00
FD
FF
FE
FE
FF
FF
00
00
FE
00
FD
FD
00
FF
00
00
00
FF
FD
FE
01
FC
01
00
00
FE
FF
FF
01
FF
00
00
FE
FE
FE
00
00
FF
01
00
FD
FE
FF
FF
00
00
02
00
FD
FE
FE
00
00
00
01
01
FF
FF
FF
FE
01
00
FD
00
FF
02
00
FF
01
FF
FE
00
FF
00
00
FE
02
00
FE
00
FE
00
FF
FF
FE
00
FF
01
FF
FF
00
04
FF
00
01
01
00
00
00
01
01
FD
03
00
02
00
FF
FD
00
FF
03
01
FE
FF
01
01
FF
00
FE
01
FF
FF
FF
FF
FF
00
FF
FF
FE
00
01
FF
00
FE
00
01
00
FF
01
FC
FF
FB
01
00
01
00
00
FE
FF
00
02
00
FF
00
00
00
02
FF
FF
02
02
FF
01
FF
01
00
00
FF
02
01
01
FF
02
FD
00
FE
01
00
FF
FE
FF
FE
00
FD
01
FF
01
FF
02
00
01
01
FF
00
01
FF
03
00
00
FF
00
00
00
01
00
00
FF
FF
01
00
02
FF
FF
00
FE
FE
01
FF
01
FE
00
01
00
FE
01
01
FE
FF
FF
01
02
00
00
01
FE
01
01
01
02
02
00
00
01
01
00
FD
00
01
FE
00
00
FE
00
FD
00
00
FE
01
FE
00
01
01
01
01
FF
01
00
01
FF
01
00
00
FE
00
FD
02
FB
FF
FE
00
FF
FF
FF
FE
FE
01
FE
00
00
FE
FF
FE
FE
02
FD
FF
FF
00
01
00
FF
FF
FC
FF
00
00
02
01
01
01
00
00
01
01
02
02
FF
FE
FF
00
00
02
FF
FE
01
00
01
00
00
01
01
00
FF
00
FF
00
00
00
FF
FF
00
00
FF
00
01
FE
01
00
01
03
00
00
03
FE
02
02
01
00
00
FF
02
03
01
00
02
01
00
00
01
03
00
00
02
00
00
00
FF
02
FE
00
FF
01
00
01
FF
FD
FF
01
00
01
01
00
01
01
FE
02
00
01
FF
00
00
01
00
00
01
02
00
00
FF
01
00
00
01
00
FE
00
FF
03
FF
FF
01
FF
FE
FF
FF
FE
FF
FE
FF
01
00
FF
02
FE
FE
FF
FF
00
02
00
02
00
03
03
02
00
01
01
04
02
01
01
FE
FD
FE
00
01
03
02
FF
00
FE
FF
FF
FF
00
00
00
FE
FF
FD
00
03
FF
FE
00
FE
03
FE
01
03
01
FF
00
00
00
FF
FF
01
00
02
03
FF
01
FF
FF
02
00
00
02
FE
FF
00
00
FD
00
01
00
FF
FE
02
00
FE
00
01
FF
FE
01
01
00
05
00
00
FD
01
FD
01
FE
01
00
01
01
FD
FE
00
00
FD
00
01
FE
FF
FD
00
FF
FC
00
00
FE
FF
FD
01
01
FE
00
02
FF
00
01
02
02
05
00
02
FD
00
FE
00
FF
02
00
00
00
00
FF
FD
FD
FE
00
FF
FE
01
00
FF
FF
FE
00
01
FE
01
FE
00
01
00
FF
01
FD
01
00
00
00
02
FF
01
02
00
FF
FF
FF
01
01
01
04
02
FF
FF
00
FF
FF
FF
01
FF
FF
00
FF
FE
00
01
FF
00
FF
02
FE
FF
00
FF
FF
00
01
00
00
01
01
00
02
01
FD
01
01
02
FF
00
01
00
00
00
00
00
00
00
FF
00
FF
FF
FE
FE
00
FF
FE
FF
00
FF
FE
FF
FF
00
00
FE
00
FF
01
01
00
01
FC
02
FE
FE
00
00
00
00
00
FF
FF
00
00
02
FF
00
01
00
FE
FF
01
02
FF
00
00
FF
01
02
00
02
01
01
00
FF
00
FD
01
FF
02
01
FF
03
FD
01
00
00
02
01
01
00
FF
03
00
00
02
00
01
FF
FE
01
00
00
02
00
02
FF
01
02
00
01
01
FF
04
FF
01
FE
01
FF
FF
FF
00
03
00
FF
00
FE
FF
FF
01
02
FF
00
01
00
00
FF
00
FE
00
02
FF
FF
FE
FE
00
00
01
03
FF
02
FE
FE
00
00
01
FE
00
00
FE
FE
01
01
01
FE
01
FF
FD
00
00
01
FE
FF
FF
00
01
FF
FF
00
FF
00
00
00
FE
FF
FF
FF
FF
01
00
02
FD
FF
FF
FE
01
FF
00
01
FF
00
FF
02
00
FF
00
00
FF
00
FF
00
FE
FE
01
FF
00
00
00
01
FF
00
00
FF
FE
01
00
00
00
FF
00
00
FF
00
01
FF
FE
FE
FE
02
FF
01
03
01
01
FF
FD
02
00
01
04
01
03
01
FE
00
00
FF
00
00
00
01
FD
01
00
02
FE
00
01
00
FD
00
00
00
00
FE
00
FE
FC
FF
00
FB
00
01
01
FE
FF
FE
00
FB
FF
00
02
FC
FF
FF
00
FE
00
FF
00
FE
FE
00
00
FE
00
FF
00
FE
FE
FF
00
FF
00
FF
FF
00
FF
00
00
FD
00
00
02
01
01
00
00
FE
00
00
01
02
FF
FF
00
00
FF
01
01
00
00
00
00
FF
00
FF
01
00
FE
FD
00
00
FE
01
01
02
01
01
00
01
02
00
01
00
02
01
00
02
00
00
01
01
00
01
00
02
00
01
FF
00
FF
00
00
00
FF
01
FF
FF
FF
FE
00
FE
FE
02
01
FF
00
02
00
00
06
02
02
01
00
01
00
01
04
FF
02
00
FE
FE
00
02
02
00
FE
01
00
01
00
02
FF
01
FD
02
01
FF
00
01
FE
01
00
02
00
00
FE
FD
00
FE
01
01
01
00
FE
FE
FE
00
01
01
01
FE
FF
FD
FF
FF
01
FF
01
FE
FE
FE
00
FF
FD
02
00
00
FF
00
00
FF
FD
FF
00
02
01
01
FE
FF
FD
FF
00
02
03
00
FE
FE
FF
00
00
03
02
01
FF
FF
FE
02
00
02
01
00
00
FF
FD
01
00
01
02
FF
FF
FF
FF
FA
00
01
01
02
FF
FE
FE
FC
01
FF
03
03
00
FE
01
FF
00
01
02
02
FF
FF
FD
00
00
01
03
03
00
00
01
02
FF
01
02
02
FF
FF
02
FE
00
FE
00
00
03
02
00
00
00
FE
01
FF
03
FF
02
03
FF
00
02
FF
01
02
00
00
01
01
02
FF
01
FF
FF
02
00
03
02
FF
01
00
01
01
01
FF
FB
FD
02
FF
FF
03
01
FC
FD
FD
03
01
00
04
00
FF
00
FD
02
00
01
02
01
FE
01
00
01
01
00
00
FF
FF
03
00
00
01
00
FF
00
00
01
00
00
FF
00
FF
FF
01
FF
FF
00
FF
00
00
00
00
FF
00
00
00
FF
00
00
00
FF
FF
FF
00
00
00
00
00
FF
FF
00
00
FF
00
00
01
01
00
00
00
00
FF
00
00
01
FF
00
00
00
00
00
FF
00
FF
FF
FF
FF
00
00
00
01
01
00
00
01
00
00
FF
00
00
FF
FF
FF
00
00
01
00
00
00
01
00
00
FF
00
00
00
FF
FF
00
FF
FF
FF
00
00
00
00
00
FF
00
FF
FF
FF
00
FF
00
01
00
FF
00
00
00
FF
FF
FF
01
00
01
00
01
00
FF
00
FF
00
01
FF
FF
FF
FF
00
01
FF
01
00
FF
00
FF
FF
00
00
01
00
FF
00
00
00
FF
FF
FF
FF
FF
00
00
00
FF
01
FF
00
00
FF
00
00
FF
00
00
FF
00
FF
01
00
00
00
01
00
FF
00
00
FF
00
00
01
FF
FF
01
FF
FF
00
FF
00
FF
FF
00
00
00
FF
00
FF
FF
FF
00
FF
00
01
00
00
00
FF
01
00
01
01
FF
00
FF
FF
00
FF
00
00
FF
00
FF
00
00
FF
00
00
00
00
00
00
01
FF
FF
00
00
00
00
00
00
FF
00
00
00
00
00
FF
FF
00
00
00
FF
00
00
FF
00
00
00
FF
FF
00
00
00
00
00
FF
01
01
FF
00
FF
00
FF
00
00
00
FF
00
00
00
00
01
FF
00
01
FF
FF
FF
FF
00
00
00
00
00
FF
00
00
00
FF
00
FF
00
FF
00
00
00
00
00
FF
FF
FF
FF
FF
01
FF
FF
FF
FF
FF
00
01
00
FF
FF
FF
FF
FF
00
00
00
00
FF
FF
00
00
FF
FF
00
00
01
FF
00
FF
00
00
FF
FF
00
01
00
FF
FF
00
00
00
00
FF
00
00
00
00
01
00
FF
00
FF
FF
FF
FF
00
00
FF
FF
00
00
FF
FF
01
00
00
FF
00
00
00
00
00
01
00
FF
00
FF
00
FC
05
00
03
00
02
05
01
FD
02
00
00
00
FC
00
01
02
FF
00
02
01
FD
FD
01
03
00
01
02
FF
FD
02
00
04
FD
FE
01
00
FE
05
01
FE
02
FC
FD
00
FE
01
01
02
FE
FD
FB
FF
FB
FF
01
01
FE
01
FF
00
00
00
01
01
00
01
00
00
FE
02
FF
02
FF
FE
01
00
FE
03
FD
FD
FD
FC
FD
00
FE
00
00
04
FE
00
FB
00
FF
01
FE
01
02
02
FF
00
02
FE
00
FE
01
00
00
01
00
FF
01
FF
01
03
FE
00
02
FF
01
FE
FE
FF
03
00
00
01
FF
FF
01
00
FE
00
01
FD
02
01
01
03
01
FF
02
FE
02
FE
00
01
01
00
FF
FE
02
00
02
01
FF
FF
01
FF
00
FB
FF
FF
02
01
01
FF
02
01
01
00
FE
00
FF
FA
01
FF
01
01
01
01
FF
FD
00
00
00
01
02
00
00
02
00
02
00
FE
FF
00
FE
03
FD
FE
01
01
02
00
01
03
03
FF
02
00
03
FE
00
FF
00
01
02
00
00
00
FF
FF
FC
02
FE
01
00
FF
FF
00
FF
FE
FD
FF
FE
FE
FF
FF
00
FE
02
00
01
FE
01
01
FD
00
00
01
01
00
FF
FF
FC
01
FE
00
01
03
01
00
FD
01
00
00
01
00
01
00
03
FA
00
00
00
00
02
00
00
FE
00
FF
01
01
00
FF
FC
00
02
00
FF
03
02
FF
FD
02
00
00
01
04
02
00
FF
02
FD
00
03
01
03
01
02
02
00
00
00
03
04
FF
01
01
02
01
FF
02
01
FE
03
01
03
00
02
01
